<pad>	0
<s>	0
</s>	0
<unk>	0
<PAD>	0
▁છે	-2.60285
.	-2.62678
▁એક	-3.02395
▁પર	-3.58537
▁અને	-4.04293
ી	-4.10283
ે	-4.14772
▁રહ્યો	-4.27524
▁કૂતરો	-4.28024
ની	-4.30045
▁માણસ	-4.39989
ા	-4.4857
▁બે	-4.48824
▁સાથે	-4.61191
▁	-4.77322
▁સફેદ	-4.8677
થી	-4.92061
▁કરે	-4.93029
ો	-4.96494
▁છોકરો	-5.02913
ના	-5.03071
▁છોકરી	-5.07725
માં	-5.11367
▁લોકો	-5.16054
▁રહી	-5.17664
ને	-5.20213
,	-5.20235
▁લાલ	-5.23448
ું	-5.27376
▁કરી	-5.27463
▁રહ્યા	-5.29019
▁કૂતરા	-5.29101
▁વાદળી	-5.41738
▁કાળો	-5.43953
▁તેના	-5.45737
▁પહેરેલો	-5.46779
▁બાળક	-5.50439
▁સ્ત્રી	-5.55447
▁વ્યક્તિ	-5.58269
નો	-5.63464
▁કૂદી	-5.64402
▁સામે	-5.71338
▁મહિલા	-5.74262
▁પહેરેલી	-5.75028
▁બોલ	-5.77547
▁દોડી	-5.77623
▁બાળકો	-5.83585
નું	-5.83943
▁તેન	-5.85077
▁જ્યારે	-5.85799
▁યુવાન	-5.86139
▁નાનો	-5.86265
▁નીચે	-5.87301
▁શર્ટ	-5.87762
▁બહાર	-5.87991
▁ત્રણ	-5.90632
▁પાણીમાં	-5.90772
▁માટે	-5.92828
▁રમે	-5.93216
▁જોઈ	-5.9473
▁ભૂરા	-5.95508
▁હવામાં	-6.03104
▁તરફ	-6.03309
▁કાળા	-6.04764
▁ઉભ	-6.0507
▁જૂથ	-6.08585
માંથી	-6.095
▁પ	-6.10032
▁પાસે	-6.13988
▁બાજુમાં	-6.15754
▁કૂદકો	-6.20435
▁પાણી	-6.20857
▁દોડ	-6.20886
▁તે	-6.22568
▁ઘાસ	-6.23662
જુએ	-6.23684
▁ઉપર	-6.24269
સાર	-6.24555
▁બાઇક	-6.27039
▁ઊભો	-6.27333
▁પાછળ	-6.30016
▁રમી	-6.30785
▁બરફમાં	-6.31449
▁બીચ	-6.33191
▁રહ્ય	-6.36111
▁રંગનો	-6.38081
▁હોય	-6.39844
▁લીલા	-6.40407
▁નાન	-6.40442
▁હાથ	-6.43712
▁મોંમાં	-6.44224
▁નાના	-6.49254
▁ચાલ	-6.5139
▁પુરુષ	-6.5293
▁નારંગી	-6.53019
▁ગુલાબી	-6.53025
▁ટોપી	-6.53521
▁છોકરીઓ	-6.5476
▁પહેરેલા	-6.55016
▁સવારી	-6.56771
▁છોકરાઓ	-6.58233
▁ઘાસમાં	-6.58583
▁બરફ	-6.59269
▁ખેલાડી	-6.59877
▁પીળા	-6.6065
▁ખડક	-6.63633
▁શેરીમાં	-6.63643
થાય	-6.64195
▁મોટા	-6.64381
-	-6.68751
▁માણસો	-6.68918
▁ધરાવ	-6.70204
▁પોઝ	-6.70268
▁મેદાનમાં	-6.71184
▁ફૂટબોલ	-6.71319
▁નજીક	-6.71541
▁લઈને	-6.72065
▁સાયકલ	-6.73389
ન	-6.7459
▁રસ્તા	-6.74619
▁માર	-6.74665
▁કેમેરા	-6.74929
▁તેમન	-6.75283
▁જ	-6.76447
▁જે	-6.77505
▁બેઠો	-6.82687
▁પોશાક	-6.84524
▁થઈ	-6.8642
▁ચાલી	-6.86865
▁બ્રાઉન	-6.87747
િંગ	-6.88187
▁પકડીને	-6.88332
▁પૂલમાં	-6.89608
▁ભૂરો	-6.89708
▁દિવાલ	-6.92283
▁સવાર	-6.92565
▁પકડી	-6.93018
▁વખતે	-6.94058
▁જાય	-6.94494
▁મોટો	-6.94736
▁કેટલાક	-6.9489
▁ચાર	-6.95382
▁સ્કેટબોર્ડ	-6.95729
▁અન્ય	-6.96549
▁લાકડી	-6.96643
▁શર્ટમાં	-6.98111
▁આસપાસ	-6.99151
▁બીજા	-6.99423
▁પાણીન	-6.99699
▁ખેતરમાં	-6.99929
▁ટેકરી	-7.00388
▁રમતા	-7.01939
▁સોકર	-7.02793
▁આપ	-7.03693
▁દ્વારા	-7.05039
▁પર્વત	-7.05614
▁ઝાડ	-7.06407
▁કરતી	-7.0681
▁જેકેટ	-7.06852
▁રમત	-7.07098
▁ટેનિસ	-7.07573
▁ચલાવ	-7.08405
▁બેસે	-7.08771
▁મહિલાઓ	-7.08821
▁પ્રયાસ	-7.08985
▁ધરાવત	-7.09793
▁પડે	-7.10692
▁પહેરે	-7.1234
▁બરફીલા	-7.126
▁વૃદ્ધ	-7.12843
ઈ	-7.12919
▁બાસ્કેટબોલ	-7.15016
▁ફૂટપાથ	-7.15083
▁કાર	-7.17542
▁બેઠી	-7.17936
▁પહેરીને	-7.18198
▁કિનારે	-7.19019
▁નાનું	-7.19338
▁રંગના	-7.20207
▁ચઢી	-7.21426
ક	-7.22341
▁હેલ્મેટ	-7.22396
▁પાર્કમાં	-7.23905
▁રાખે	-7.24013
▁જમીન	-7.26138
▁પીછો	-7.26273
▁સ્વિમિંગ	-7.2768
એ	-7.28622
▁યુક્તિ	-7.28795
▁ભીડ	-7.29511
▁સ્મિત	-7.29974
▁આવે	-7.30497
▁રંગની	-7.31475
▁ઘણા	-7.32286
▁પકડવા	-7.32559
▁મોટી	-7.3285
▁સ્લાઇડ	-7.33291
▁પગ	-7.33437
▁કરવા	-7.33646
▁વાડ	-7.34748
▁લઈ	-7.35316
▁સ્વિંગ	-7.35964
▁કે	-7.36349
▁બીજ	-7.36641
▁લાકડાન	-7.36721
▁પકડે	-7.36838
▁પૃષ્ઠભૂમિમાં	-7.37977
▁વડ	-7.38795
▁સ્કેટબોર્ડર	-7.38977
▁કંઈક	-7.3946
▁ટોચ	-7.39462
▁બેન્ચ	-7.39984
▁રમકડા	-7.40477
▁આ	-7.40604
▁રેમ્પ	-7.41132
▁લે	-7.41318
▁વિસ્તારમાં	-7.41696
▁સોનેરી	-7.42079
▁મોટરસાઇકલ	-7.42155
▁મારી	-7.42748
▁જાંબલી	-7.43057
▁કાળી	-7.43089
▁ચહેરા	-7.4354
▁પુરુષો	-7.44486
▁બેઠા	-7.4503
▁બેઝબોલ	-7.45261
▁મેદાન	-7.45303
▁વચ્ચે	-7.45575
▁ગ્રે	-7.46513
▁જેકેટમાં	-7.46745
▁ખેલાડીઓ	-7.47841
▁ચલાવી	-7.48262
▁ઊભી	-7.48392
▁પીળી	-7.49076
ર	-7.49107
▁ત્યાર	-7.49159
▁જંગલમાં	-7.49801
▁ટેબલ	-7.50449
▁ચિત્ર	-7.51114
▁અંદર	-7.51924
વાળી	-7.52027
▁માથા	-7.52438
▁સનગ્લાસ	-7.53352
▁કરતો	-7.53715
▁વાળ	-7.54871
▁વાત	-7.56661
▁ટ્રેક	-7.58701
▁દોડતો	-7.5958
▁સૂઈ	-7.59671
▁એકબીજા	-7.60113
▁મારતો	-7.60148
▁ખડકો	-7.60509
▁રેસ	-7.61193
ય	-7.61656
▁ટેન	-7.62677
▁ખડકાળ	-7.63334
▁યુવતી	-7.63849
▁પોશાકમાં	-7.6395
▁આવ	-7.63967
▁કોઈ	-7.65781
▁આપી	-7.66064
▁તરી	-7.66188
▁સ્નોબોર્ડર	-7.6626
▁બેકગ્રાઉન્ડમાં	-7.67019
▁બેઠેલા	-7.67078
િત	-7.67322
▁કારણ	-7.67478
▁રેતી	-7.68025
▁ના	-7.68342
▁બોલન	-7.68347
▁પીળો	-7.68386
▁સ્ત્રીઓ	-7.68663
▁જીન્સ	-7.7091
▁ઘોડા	-7.71048
▁ભુરો	-7.71355
▁ડ્રેસમાં	-7.71691
▁અવરોધ	-7.71846
▁મોજા	-7.72808
▁ઊભું	-7.73528
ં	-7.74139
સાથે	-7.76267
▁રેતીમાં	-7.76975
વાળા	-7.77372
▁મોં	-7.78228
▁બીજી	-7.79137
▁રાહ	-7.79603
▁પુખ્ત	-7.79605
▁રંગબેરંગી	-7.79608
▁સમુદ્રમાં	-7.79971
▁તળાવ	-7.80077
▁હસતી	-7.80156
▁બાળકને	-7.80396
▁કપડાં	-7.80637
▁મધ્ય	-7.80939
▁વિશાળ	-7.81055
▁એશિય	-7.8214
▁ગણવેશ	-7.82291
▁કરતા	-7.82357
▁ઉડ	-7.83491
▁પહેરેલ	-7.83693
બ	-7.83996
લ	-7.84924
▁ઘાસન	-7.85792
▁કોલર	-7.85937
▁હાથમાં	-7.8597
્સ	-7.87367
▁પક્ષી	-7.87698
▁તળાવમાં	-7.87724
▁ભાગ	-7.88336
▁રમકડું	-7.88688
▁હોકી	-7.8897
▁દોરડા	-7.89667
▁પીઠ	-7.89686
▁ધૂળ	-7.89729
▁પુલ	-7.90082
▁રહેલ	-7.90779
▁સર્ફર	-7.90804
▁વસ્તુ	-7.90901
▁લાંબા	-7.90954
▁શેરી	-7.91047
▁કોટ	-7.91109
▁પલંગ	-7.91371
▁બેકપેક	-7.91807
▁દૂર	-7.9255
▁કૂતરાઓ	-7.92641
▁ઊંચ	-7.93038
▁વાળવાળી	-7.9372
▁ઢંકાયેલ	-7.94529
▁છોકરા	-7.96028
▁ગિટાર	-7.96834
▁ઊભ	-7.96865
▁પેન્ટ	-7.97196
▁લોકોન	-7.97668
▁વગાડ	-7.97939
▁ટી	-7.98123
▁ચશ્મા	-7.98341
▁એકબીજાન	-7.9845
▁લીલી	-7.99065
▁દરમિયાન	-7.99142
▁ઊંચા	-7.99227
▁ફ્રિસબી	-8.00906
▁ફેંકી	-8.01275
▁બેઠેલી	-8.01615
▁ચડ	-8.01616
▁આગળ	-8.01792
▁દરિયા	-8.02134
▁બોર્ડ	-8.02581
▁ધ્વજ	-8.03267
▁ફોટો	-8.03334
▁પડી	-8.03409
્ડી	-8.04626
ાં	-8.05899
▁ચાલતા	-8.06199
▁ગૌરવર્ણ	-8.06395
▁રાખીને	-8.06454
▁ખૂ	-8.06528
▁ફ્લોર	-8.06991
▁માથું	-8.07686
▁સ	-8.07713
▁શહેરન	-8.07987
▁પાંચ	-8.08487
▁સમુદ્ર	-8.09087
▁સીડી	-8.09109
▁બાઇકર	-8.09674
▁તેમ	-8.10056
▁લાત	-8.10237
▁યુવતીઓ	-8.1034
▁બેગ	-8.10396
▁સર્ફબોર્ડ	-8.10688
▁તેજસ્વી	-8.10883
▁કૂદતો	-8.10909
▁ડાન્સ	-8.11038
▁તૈયાર	-8.11104
▁બેસીને	-8.11605
▁ટીમ	-8.11701
▁ડ્રેસ	-8.1268
▁ચ	-8.13377
▁ઊભેલ	-8.13522
▁શ્વાન	-8.13997
▁ચહેરો	-8.14283
▁યાર્ડમાં	-8.14407
▁પાર્ક	-8.14957
વામાં	-8.14985
▁રોક	-8.15716
▁ચઢ	-8.16188
▁અ	-8.17146
▁રાત્રે	-8.18385
▁પગથિયાં	-8.18469
▁બાજુ	-8.187
▁નદી	-8.18808
▁જંગલ	-8.18995
▁ખુરશી	-8.19105
ડે	-8.19225
▁દેખા	-8.19274
▁સ્કી	-8.21961
▁હતો	-8.22013
▁રીત	-8.22153
▁સ્લેજ	-8.22291
▁ડર્ટ	-8.22699
▁શોર્ટ્સ	-8.2295
શર્ટ	-8.23397
▁યુગલ	-8.23427
▁ઘાસની	-8.23955
▁વૃક્ષો	-8.24316
વા	-8.24884
▁લડ	-8.25113
▁પટ્ટાવાળા	-8.25153
▁લીલો	-8.25253
▁સ્વેટર	-8.25709
▁"	-8.26066
▁પી	-8.2641
▁ઢંકાયેલી	-8.26435
▁ટોપ	-8.26944
▁જેમાં	-8.26971
લા	-8.27374
▁ફર	-8.27917
▁છીછરા	-8.28063
ાળ	-8.28177
▁માર્ગ	-8.28193
▁ઈંટન	-8.28909
▁શહેર	-8.28926
▁ખેંચી	-8.2952
▁હસતો	-8.29636
▁વયના	-8.29751
▁સૂટ	-8.30206
તો	-8.30385
ઓ	-8.30958
▁રહેલો	-8.30994
▁સ્કીઅર	-8.31193
▁ભરેલ	-8.31495
▁સજ્જ	-8.31701
▁બ્લેક	-8.31975
▁રેલિંગ	-8.32241
▁ન	-8.32388
સાઇકલ	-8.32513
સ્ત	-8.32728
લો	-8.33223
▁ચાલવા	-8.33227
▁નવ	-8.33522
▁યુનિફોર્મમાં	-8.33893
▁સ્કેટબોર્ડિંગ	-8.33947
▁ધાર	-8.34286
▁પોતાન	-8.34286
▁સ્કીઇંગ	-8.34473
▁બોટ	-8.34665
▁રંગ	-8.34683
▁કરીને	-8.34753
ણ	-8.34769
▁પર્વતો	-8.34889
▁ફૂલો	-8.35135
▁રંગીન	-8.3536
▁છ	-8.35472
▁લૉન	-8.35581
▁રમતન	-8.35811
▁જીભ	-8.361
▁રમતમાં	-8.3611
▁પાર	-8.36124
▁વેસ્ટ	-8.36126
▁આજુબાજુ	-8.36488
▁ટોળું	-8.36984
▁પુરૂષ	-8.3711
▁બાજુએ	-8.37142
▁સ્કેટ	-8.37568
▁ટ્રેમ્પોલિન	-8.3781
▁સૂર્યાસ્ત	-8.3787
▁કુસ્તી	-8.37914
▁યુવક	-8.37959
▁ડોગ	-8.37999
▁વહ	-8.38022
▁દિવસે	-8.38058
ખાય	-8.38176
▁ડોક	-8.38297
▁આકાશ	-8.38523
▁આરામ	-8.3867
▁ચાલતો	-8.38949
▁સ્કાર્ફ	-8.39548
"	-8.39911
તા	-8.39952
િયા	-8.40032
▁બિલ્ડિંગન	-8.40121
▁ઝૂકી	-8.4015
▁ચાલતી	-8.40772
▁શીખત	-8.40983
▁ઝડપ	-8.41295
▁કોટમાં	-8.41642
▁લાંબ	-8.42008
▁સામ	-8.42737
▁રેત	-8.42849
વાનો	-8.42886
▁રેસમાં	-8.4305
▁રેલ	-8.43163
▁ટાયર	-8.43246
▁મ	-8.43261
▁તરંગ	-8.43279
▁વ્ય	-8.43823
▁સૂટમાં	-8.439
▁પહોંચ	-8.44457
▁રમતી	-8.44757
▁ઊભેલો	-8.44852
્ડ	-8.45479
▁બારી	-8.45627
▁સ્ટેજ	-8.45864
▁વિ	-8.46036
▁સમયે	-8.46054
▁બનાવે	-8.46134
▁વ	-8.46875
▁છાંટી	-8.47067
▁રહે	-8.47197
▁ગંદકી	-8.47593
▁કાન	-8.4762
▁ચિહ્ન	-8.4768
▁ગ્રેહાઉન્ડ	-8.47699
▁છાંટા	-8.48406
▁ગાય	-8.49531
▁શર્ટલેસ	-8.49679
▁વસ્ત્રો	-8.50125
▁ઘાસવાળા	-8.50131
▁ઉપયોગ	-8.50607
▁બંને	-8.50637
▁સર્ફિંગ	-8.50689
તી	-8.50814
▁પથ્થરન	-8.51186
▁હસ	-8.51522
▁આઉટડોર	-8.5159
▁નંબર	-8.51672
▁સેલફોન	-8.51793
▁પૂલ	-8.52548
▁માસ્ક	-8.52571
▁રાતા	-8.52668
▁ઘેરાયેલા	-8.5267
લી	-8.52843
▁ઘૂંટણ	-8.53039
▁બેઠેલો	-8.53677
▁દર્શકો	-8.53911
▁બ	-8.53988
ુંબન	-8.54335
▁સ્ટંટ	-8.54588
▁સાધનો	-8.54919
▁ટ્રેન	-8.55064
▁સરક	-8.55932
રે	-8.55967
▁ચલાવતો	-8.56191
▁નદીમાં	-8.56274
▁કેપ	-8.56511
▁બાથિંગ	-8.56641
▁પાછળથી	-8.56668
▁મોટું	-8.5683
▁નાક	-8.57094
▁સ્નોબોર્ડ	-8.57288
▁નૃત્ય	-8.57717
▁રેસિંગ	-8.57896
▁ધ્રુવ	-8.58714
▁તસવીર	-8.58733
▁કુરકુરિયું	-8.58773
▁યુક્તિઓ	-8.58805
▁લાઇન	-8.5901
▁હોડી	-8.59372
▁ખડકન	-8.59472
▁રાખોડી	-8.598
▁ત્યાં	-8.59922
▁આનંદ	-8.60449
▁પહેર્ય	-8.60574
▁પ્રાણી	-8.60749
▁ઘરન	-8.61237
▁નિશાની	-8.61356
▁વ્હીલ	-8.61448
▁સાથેન	-8.61791
▁બેટ	-8.6217
▁પરપોટા	-8.62354
▁ક	-8.6242
▁કૂતરાન	-8.62431
▁એ	-8.62482
▁ફેંક	-8.62905
▁દરવાજા	-8.62984
▁પછી	-8.63069
ાર	-8.63114
▁જંગલવાળા	-8.63161
▁બેઠ	-8.63194
િક	-8.63393
▁ખુલ્લ	-8.63773
▁છોકરાન	-8.64379
▁ઇમારત	-8.64601
▁અમેરિકન	-8.64678
▁બાર	-8.64744
▁ભેગ	-8.64765
▁પ્લાસ્ટિકન	-8.65214
▁મદદ	-8.65287
▁કોસ્ચ્યુમ	-8.65295
▁ખુલ્લા	-8.65835
▁મૂકે	-8.66377
▁આગ	-8.66651
▁કર	-8.66908
▁થત	-8.66999
▁ર	-8.67323
▁વળાંક	-8.67356
▁પાંદડા	-8.67605
▁ત	-8.68176
ેલા	-8.68496
્યું	-8.68503
▁ફુવારા	-8.68985
▁શહેરમાં	-8.69118
પ	-8.69307
▁વસ્ત્રોમાં	-8.69337
▁સમૂહ	-8.69637
▁વગાડી	-8.69772
▁રૂમમાં	-8.70135
▁કૂતરાના	-8.70161
▁પટ્ટાવાળી	-8.70389
▁ઇમારતન	-8.7081
ફ	-8.70822
▁પેન્ટમાં	-8.70975
▁સુંદર	-8.71107
▁સિગારેટ	-8.7111
▁બેંચ	-8.71244
▁સ્કેટિંગ	-8.71405
▁સ્કર્ટ	-8.7184
▁જર્સી	-8.72169
▁ભીડમાં	-8.72233
▁ખભા	-8.7234
▁કરડ	-8.72546
▁પહેર્યો	-8.72596
▁જમણ	-8.7271
▁ડાબ	-8.72798
▁શરીર	-8.73155
▁સ્પર્ધા	-8.73504
▁સમુદ્રન	-8.73544
▁ખેંચે	-8.74064
▁આછ	-8.74282
▁તૈયારી	-8.74344
▁લગાવે	-8.74612
▁ધોધ	-8.75288
▁પ્રદર્શન	-8.7582
▁યુવાનો	-8.7662
▁પુસ્તક	-8.76838
▁શોર્ટ્સમાં	-8.76859
▁પેઇન્ટ	-8.77231
▁માણ	-8.77248
▁ઢોળાવ	-8.77256
▁વાળવાળો	-8.77522
▁છત્રી	-8.78185
▁શ	-8.78589
▁વિસ્તાર	-8.78953
▁બોટલ	-8.79152
▁સૂર્ય	-8.79174
▁ટોપમાં	-8.79546
▁પકડેલ	-8.79772
▁રેકેટ	-8.7987
▁કેટલી	-8.79894
▁વાળો	-8.802
▁પોલીસ	-8.80422
▁કાળ	-8.80431
▁ટ્રક	-8.80528
▁ઝાડન	-8.80617
▁હલાવી	-8.81032
▁સવારો	-8.81116
▁ગ્રેફિટી	-8.81118
▁જર્મન	-8.81177
▁પસ	-8.81779
▁સેટ	-8.81995
▁ડોલ	-8.82087
▁ઢગલા	-8.82151
▁ઘેરા	-8.82553
▁જોતા	-8.82773
▁ક્રોસ	-8.83046
▁દૃશ્ય	-8.83614
▁સ્ટ	-8.83793
ડ	-8.84508
▁કિનારા	-8.84807
▁ફુવારામાં	-8.85213
▁મેચ	-8.85447
▁સબવે	-8.85483
ેડ	-8.86103
▁પહાડ	-8.86219
▁વાહન	-8.8644
▁કારમાં	-8.86448
▁ફ્રિસ્બી	-8.86524
▁ગોગલ્સ	-8.86621
▁પડેલ	-8.87039
▁ફટકાર	-8.87601
▁મારવા	-8.87939
▁કપ	-8.88055
▁લાઇફ	-8.88059
િયે	-8.88689
▁યુનિફોર્મ	-8.88965
▁ફેંકવા	-8.89061
▁દંપતી	-8.89495
▁ઉંચ	-8.8981
▁લ	-8.90112
▁કપડા	-8.90271
▁બધા	-8.903
▁સ્વેટશર્ટ	-8.90407
▁ખાબોચિયામાં	-8.90651
સ	-8.91097
▁ભીનો	-8.91226
▁દોરડ	-8.91415
▁વગરન	-8.9201
▁સ્વિમસ્યુટ	-8.9238
▁પાટા	-8.92428
▁સુધી	-8.92444
▁બૂટ	-8.92653
▁મા	-8.92702
ીય	-8.92859
▁ફ્રિસબીન	-8.93684
▁ક્લોઝઅપ	-8.93871
▁રહ	-8.94027
▁તેઓ	-8.9415
▁કોંક્રિટ	-8.94306
▁માછલી	-8.94417
▁લોગ	-8.94549
▁કાઢે	-8.94754
▁કોર્ટ	-8.94915
▁ચપ્પુ	-8.95383
▁કાઉબોય	-8.95384
▁હસતાં	-8.95426
▁રાઈડ	-8.95525
▁સૂતો	-8.95593
▁સપાટી	-8.95689
▁ઉભેલ	-8.95719
▁કોર્સ	-8.96261
▁ધાતુન	-8.96921
▁સ્કૂટર	-8.9711
▁સૂકા	-8.97125
▁ખ	-8.97187
▁ખુરશીઓ	-8.9723
▁શોપ	-8.97307
▁હૂપ	-8.9742
ંગ	-8.97457
મ	-8.97479
▁અંતર	-8.97687
▁છંટકાવ	-8.98016
▁આંખો	-8.98197
▁રગ્બી	-8.98484
▁ઉંચી	-8.98591
▁ઊંડા	-8.98848
▁બિલાડી	-8.98921
▁શિયાળાન	-8.99039
્ય	-8.99327
જ	-9.00005
ુ	-9.00016
▁હેઠળ	-9.00109
▁હસતા	-9.00218
▁કામ	-9.0044
▁નાનકડ	-9.00473
ક્રોસ	-9.00994
▁પટ્ટા	-9.01247
▁ચલાવત	-9.0144
▁ઈશાર	-9.01515
ટ	-9.01599
▁માઇક્રોફોન	-9.01687
▁હાઇકર	-9.01762
▁ફ્લિપ	-9.018
▁માછીમારી	-9.02053
▁લાઇનમાં	-9.02216
▁વાંચે	-9.02362
▁વિરોધી	-9.02688
▁પથ્થર	-9.03032
▁સ્પર્શ	-9.03138
▁તરત	-9.03193
▁ગ્રીન	-9.03238
▁કાબૂ	-9.03321
▁બોક્સ	-9.03542
▁નીકળી	-9.03713
▁થાંભલા	-9.0386
▁કાગળ	-9.04023
▁કિશોર	-9.04035
▁પ્લે	-9.04063
▁પડેલો	-9.04135
▁જેવ	-9.04321
▁હવા	-9.04668
▁દેખાત	-9.04778
▁ગયો	-9.05048
▁ચડતો	-9.05119
▁ઘોડો	-9.05134
▁હાઇક	-9.05392
▁કાદવમાં	-9.05392
▁ચિત્રો	-9.05632
▁રમ	-9.05724
▁કાર્ટ	-9.0575
▁ફૂલ	-9.0588
▁માતા	-9.05965
▁કૂતરાઓન	-9.06786
▁ગોલ	-9.06885
▁કાપડ	-9.07167
કી	-9.07218
▁જર્સીમાં	-9.07381
▁મેળવવા	-9.07903
વું	-9.07982
▁રહેલી	-9.0803
▁બેન્ડ	-9.08268
▁બતક	-9.08692
▁છોડ	-9.08844
▁પાર્ટી	-9.09063
▁લેવા	-9.09447
▁ગિયર	-9.09704
▁આફ્રિકન	-9.10184
▁સ્નોબોર્ડિંગ	-9.10321
▁ફોન	-9.10707
▁તંબુ	-9.10725
▁ફ	-9.10768
▁ભીના	-9.10916
▁ખોરાક	-9.10992
▁જોડાયેલ	-9.11193
▁ઘણ	-9.11307
▁વોલીબોલ	-9.11582
▁સર્ફમાં	-9.11697
▁રુંવાટીદાર	-9.11951
▁આઇસ	-9.11952
▁ક્લાઇમ્બીંગ	-9.11992
▁નગ્ન	-9.11994
▁હેન્ડ	-9.1201
▁હાર્નેસ	-9.12418
▁કાદવવાળ	-9.12481
▁જેમ	-9.12677
▁પીણ	-9.12819
▁ઘર	-9.13222
▁ફોટોગ્રાફ	-9.13527
▁સ્વિમ	-9.13614
▁કિક	-9.13662
▁જોવા	-9.13753
▁દાઢીવાળો	-9.13841
▁સીટ	-9.1404
▁ઝૂલ	-9.14095
કે	-9.14414
▁નળી	-9.14566
▁રમકડાં	-9.14663
▁ઝૂલા	-9.14922
▁ઉ	-9.1493
▁ધૂળવાળ	-9.15023
▁દાઢી	-9.15269
▁પોતાનો	-9.15375
▁સોફ્ટબોલ	-9.15658
▁બતાવે	-9.15906
▁વોટર	-9.15949
▁મારતા	-9.16067
▁મેદાનમાંથી	-9.1617
▁શોટ	-9.17421
▁દોડત	-9.17718
▁ગિયરમાં	-9.18042
▁લટકતી	-9.18066
▁વાળવાળા	-9.18178
▁કૅમેરા	-9.18199
▁આંગણામાં	-9.18315
▁રેસ્ટોરન્ટમાં	-9.1843
▁ઉતાર	-9.18535
▁રેસર	-9.1863
વિધ	-9.18847
▁સંતુલ	-9.1943
▁ગરમ	-9.19469
▁બેઠેલું	-9.1954
▁બંધ	-9.197
▁હતી	-9.19728
▁ગલુડિયાઓ	-9.19834
▁ઉતરી	-9.1986
▁જેના	-9.20114
▁પરિવાર	-9.20141
ડી	-9.20199
▁ટીમન	-9.20215
▁ગ	-9.20313
▁ફૂલોન	-9.20409
▁નાવડી	-9.20712
▁નાખ	-9.20877
▁રમકડાન	-9.20971
સ્ટેન્ડ	-9.20992
▁રેસટ્રેક	-9.21308
▁જૂતા	-9.21565
▁ખાઈ	-9.2163
▁વાંચી	-9.21762
▁પીવ	-9.21786
▁પગે	-9.22124
▁પાંખો	-9.22963
▁રંગમાં	-9.23005
▁કાયકમાં	-9.23181
▁પુરૂષો	-9.2325
▁ગ્રામ	-9.23301
▁હુલા	-9.23394
▁આલિંગન	-9.23396
▁સ્કાયર	-9.2341
▁મેટલ	-9.23534
▁નજર	-9.23617
▁મેળવ	-9.23691
▁કાયક	-9.23885
▁ઝૂલતી	-9.2414
▁ગાડી	-9.24392
▁લટક	-9.24481
▁બિલ્ડિંગ	-9.24708
▁બહુ	-9.24928
▁પાછ	-9.25013
્યા	-9.25127
▁ઊ	-9.25338
▁સર્ફ	-9.25392
▁મોહૌક	-9.25426
▁સ્નો	-9.25469
▁ગંદ	-9.25668
▁દે	-9.25721
▁પ્લેટફોર્મ	-9.25946
ગી	-9.26018
▁ધક	-9.26962
▁પ્રતિમા	-9.27026
▁પ્રકાશ	-9.27293
ઇડ	-9.27304
▁મોજામાં	-9.27413
▁શરૂ	-9.27508
▁દાંત	-9.27508
▁હેડબેન્ડ	-9.27512
્કો	-9.27552
▁ચામડાન	-9.27571
▁આપતા	-9.27847
ઝ	-9.27876
▁ડ્રમ	-9.27945
▁ખુશ	-9.28137
▁દોડતી	-9.28231
▁ડૂબ	-9.29012
▁ટીમો	-9.29105
▁બિકીની	-9.29169
▁ટ્યુબ	-9.29314
▁પોલ	-9.29351
▁ઇમારતો	-9.29387
▁રંગન	-9.29456
▁વ્હાઇટ	-9.29638
▁પાથ	-9.29743
▁ચડતી	-9.29846
▁ફેરવે	-9.30055
▁પેરાશૂટ	-9.30148
▁તપાસ	-9.30192
▁ધકેલ	-9.30236
▁લાકડા	-9.30683
▁આવેલ	-9.30802
▁બગીચામાં	-9.30936
▁પતંગ	-9.31054
▁ઝૂકે	-9.31361
▁નિર્દેશ	-9.31812
▁મોટરબાઈક	-9.31813
▁અસ્પષ્ટ	-9.31814
▁હસતું	-9.31901
ત	-9.31927
▁ક્રિકેટ	-9.32022
▁અથ	-9.32033
▁હ	-9.32128
▁દરિયાકિનાર	-9.3228
▁ટોપીમાં	-9.32481
▁લગાવી	-9.32555
▁બેકયાર્ડમાં	-9.3257
▁વધ	-9.32642
▁મોટરસાયકલ	-9.32714
▁કાદવ	-9.3284
▁કરવાન	-9.32989
▁ડાર્	-9.33011
▁જોત	-9.33353
▁ગયેલ	-9.33534
▁ટ્રાફિક	-9.33608
▁પાડ	-9.33662
▁પેડલ	-9.33812
▁કેટલા	-9.33914
▁ટેટૂ	-9.33971
▁આર્ટ	-9.34777
▁સ્કીઅર્સ	-9.35118
▁શરીરમાં	-9.35688
▁કાર્પેટ	-9.35742
▁પ્રવાહ	-9.35866
▁ગંદકીમાં	-9.3599
▁બોટમાં	-9.36074
▁બળદ	-9.36163
▁બરફન	-9.36275
▁પગદંડી	-9.36306
▁હેડફોન	-9.36306
ડોર	-9.36366
▁આરોહી	-9.36403
▁ચડતા	-9.36486
િયાળ	-9.36504
▁પકડવાન	-9.36583
▁ખા	-9.36592
▁ટૂંકા	-9.36868
▁નીકળે	-9.37106
▁ગંદકીન	-9.37179
▁બનાવી	-9.37389
▁રણમાં	-9.37758
▁સ્ટોર	-9.38115
▁ભરવાડ	-9.38632
▁ધાબળા	-9.38889
ગળે	-9.38993
▁હંસ	-9.39145
▁થોડા	-9.39165
▁રેડ	-9.39666
▁કેપમાં	-9.39734
▁લાગે	-9.39896
વાળો	-9.40746
▁રોલરબ્લેડ	-9.40753
વી	-9.40866
▁પ્રેક્ટિસ	-9.41013
▁સોફા	-9.41033
▁કૂદતા	-9.41163
▁ડાઇવિંગ	-9.41186
▁પહોળ	-9.41482
▁સ્કીસ	-9.41521
▁ઇન્	-9.41743
▁બસ	-9.41763
▁કાંકરી	-9.41941
▁ટુકડા	-9.41962
▁એર	-9.421
▁ભ	-9.42249
▁પાર્કિંગ	-9.42256
▁ઉતરે	-9.42333
▁થેલી	-9.42597
▁હોડીમાં	-9.42621
▁પર્વતન	-9.42802
વર	-9.42853
અપ	-9.42866
▁ચાટ	-9.4309
▁લાઇટ	-9.43395
ખ	-9.43413
▁જાહેર	-9.43438
▁ખોળામાં	-9.43451
▁વેટસૂટ	-9.43457
▁સરકતો	-9.43609
▁પ્લાસ્ટિક	-9.43632
▁પલટી	-9.4387
▁માર્શ	-9.43966
▁પર્સ	-9.44048
▁2	-9.44216
▁પ્લેયર	-9.44379
▁ડાળી	-9.44383
▁ફરતા	-9.44412
▁ટાંકી	-9.44419
▁ચાવે	-9.44423
▁ઉડાવ	-9.44425
▁બેડ	-9.4455
▁કિશોરો	-9.44582
▁પાઇપ	-9.45212
▁પૃષ્ઠભૂમિ	-9.4529
▁સિમેન્ટન	-9.45428
▁ધૂમ	-9.45969
▁ત્રીજ	-9.46131
રી	-9.46164
▁હતા	-9.4618
▁રુંવાટીવાળો	-9.46403
ીને	-9.46515
▁પરેડ	-9.46753
▁રંગેલ	-9.46801
▁જુદ	-9.46867
▁નેટ	-9.47404
▁ઉડાવી	-9.4768
▁શર્ટવાળ	-9.48068
▁યુવકો	-9.48114
▁બીયર	-9.48308
▁ઈમારત	-9.48534
▁ટ્રંકમાં	-9.48575
▁લડતા	-9.48648
ુજી	-9.48672
▁કૂદકા	-9.48684
▁લાકડીઓ	-9.48755
▁લટકતો	-9.48882
▁શ્યામ	-9.48931
▁વગાડતો	-9.49017
▁ફેરવી	-9.49156
▁આકાશમાં	-9.49438
▁ઢંકાયેલો	-9.4944
▁આંગળી	-9.49487
▁પર્વતોમાં	-9.49599
▁રોલર	-9.4968
▁પટ્ટી	-9.50017
▁ભીડવાળ	-9.50452
▁જમ્પ	-9.50583
▁હેલ્મેટમાં	-9.50596
▁ચિહ્નો	-9.5077
▁નજીકન	-9.50814
▁તડકા	-9.51051
▁આઈસ્ક્રીમ	-9.51146
▁સાઇન	-9.51151
▁મિડ	-9.51179
ૃત	-9.51428
▁ટનલમાં	-9.5175
▁સ્કેટર	-9.519
▁હલાવ	-9.51991
ેલી	-9.52154
▁ઝાડીઓ	-9.52371
▁કરેલી	-9.52432
▁બલૂન	-9.52765
▁અખબાર	-9.52944
▁ખેતર	-9.53148
▁વાદળો	-9.53247
▁ટોળા	-9.53289
ઠા	-9.53308
▁લગ	-9.53317
ાય	-9.53655
▁બાલ્ડ	-9.53848
▁પ્રકારન	-9.5385
▁ઊંધો	-9.53868
▁પ્રતિબિંબ	-9.53882
▁ઝાંખ	-9.53904
▁પાકા	-9.53939
▁ઘેરાયેલો	-9.53996
▁ફરતો	-9.5407
▁ખરીદી	-9.5426
▁ખાડામાં	-9.54584
▁વરસાદમાં	-9.54688
▁થોડી	-9.54729
▁તાર	-9.54983
▁પ્રાણીઓ	-9.55135
▁પોતાના	-9.55222
▁હૂડી	-9.55654
▁બેઝ	-9.55692
▁ગળા	-9.55801
▁પાડી	-9.55948
▁ઢગલામાં	-9.55966
▁આંખ	-9.56079
મુક	-9.56111
્રપા	-9.56384
▁સ્ટ્રો	-9.56488
▁પંજા	-9.56532
▁પૂડલ	-9.56596
ભગ	-9.56605
▁દરેક	-9.56621
▁અડધ	-9.56621
▁વાંકડિયા	-9.56625
▁કાઉન્ટર	-9.56628
▁કિશોરવયન	-9.56645
▁ક્લાઇમ્બર	-9.56666
▁વેટસુટમાં	-9.56733
▁ટગ	-9.56841
▁જીમમાં	-9.56875
▁પાછળન	-9.56987
▁પાળે	-9.56988
▁કન્યા	-9.57007
▁ઝૂલતો	-9.57123
▁સાથી	-9.57174
▁પક્ષીઓ	-9.57296
▁ઓફ	-9.5735
▁ટેકરા	-9.57534
વે	-9.57589
▁પ્રવાહમાં	-9.57828
રંગી	-9.58522
▁ખૂણા	-9.5884
▁મકાન	-9.59041
▁મનોરંજન	-9.59283
▁સુંઘ	-9.59478
▁ડેનિમ	-9.5948
▁ડ્રિબલ	-9.5948
▁સિલુએટ	-9.5948
▁પિકનિક	-9.59481
▁રોડીયો	-9.59481
▁સ્ટેશન	-9.59556
▁ટાઈ	-9.59638
▁ઘોડાઓ	-9.5988
▁સ્ટેન્ડ	-9.60061
▁સિમેન્ટ	-9.60085
▁રોડ	-9.60151
▁જતી	-9.60363
▁અનુસર	-9.60975
▁દ્રશ્ય	-9.61031
▁વેકબોર્ડ	-9.61059
▁ટ	-9.61088
▁નીચા	-9.61151
▁શિયાળા	-9.61157
▁જાહેરાત	-9.61201
▁કુસ્તીબાજ	-9.61275
▁દોરી	-9.61571
▁તળાવન	-9.61712
▁દિશા	-9.61786
▁નીચ	-9.61844
કાય	-9.61871
▁કારન	-9.62071
▁ફ્રેમ	-9.62339
▁અડચણ	-9.62418
▁સ્પ્લેશ	-9.62422
▁રીટ્રીવર	-9.62422
▁હળવા	-9.62452
▁ગોલ્ડન	-9.62457
▁ઊંધી	-9.6248
▁લંબાવીને	-9.62494
▁બસમાં	-9.62602
▁જીપ	-9.62734
ચિત્ર	-9.62868
▁સામાન	-9.63105
▁બિકીનીમાં	-9.63117
્યો	-9.63336
▁ઉડતી	-9.6365
ર્સ	-9.64026
▁હૂડ	-9.64207
▁દબા	-9.64446
▁રચના	-9.64554
▁થતા	-9.64609
▁બંદૂક	-9.6465
▁હાર્નેસમાં	-9.64657
▁પહેરી	-9.64703
▁સિલ્	-9.64761
▁રેફરી	-9.65451
▁એરબોર્ન	-9.65452
▁વાયોલિન	-9.65452
▁ડિસ્ક	-9.65455
▁ટેન્ક	-9.65463
▁શેફર્ડ	-9.65518
▁ઇવેન્ટમાં	-9.65697
▁ઉછળી	-9.65726
▁રાખ	-9.65894
▁પેટ	-9.65982
શર્ટમાં	-9.66152
▁મધ્યમ	-9.66177
▁નાવડીમાં	-9.66227
▁વસ્તુઓ	-9.6667
▁ટેરિયર	-9.6675
▁ભી	-9.66893
▁ડ્રાઇવ	-9.67221
▁શરીરન	-9.67239
▁મેળા	-9.6759
▁દોરડાન	-9.67879
▁દીવાલ	-9.68186
▁કુટુંબ	-9.68576
▁ડેક	-9.6863
▁તળિયે	-9.68635
▁લટકાવી	-9.6864
▁કૂદતી	-9.68837
▁સાત	-9.68945
▁આંખોવાળ	-9.6899
▁તરાપો	-9.69077
▁કાઢી	-9.69094
▁ઘેટાં	-9.69175
▁આપતી	-9.69302
▁સ્વિંગમાં	-9.69307
હ્યું	-9.69332
▁વગર	-9.69388
▁વગાડતા	-9.6946
જી	-9.69731
▁કૅમેર	-9.69799
▁ઊંટ	-9.70065
▁લીલ	-9.7009
▁મશીન	-9.70428
▁પાર્કિંગમાં	-9.70549
હન	-9.70783
▁કદન	-9.70837
▁પહેર	-9.70849
▁ચહેરાન	-9.71104
▁ટોપીઓ	-9.71179
▁માલિક	-9.7121
▁રસ્ત	-9.71321
ગ	-9.71446
▁ડૂબી	-9.71453
▁પીસ	-9.71609
▁ધ્યાન	-9.71719
▁ખેંચવા	-9.71783
▁તલવાર	-9.71799
▁કથ્થઈ	-9.71799
▁વાતચીત	-9.71801
▁રિબન	-9.71801
▁સન્ની	-9.71886
ાની	-9.71894
▁વાડવાળા	-9.72133
▁ક્ષેત્રમાં	-9.72251
▁લહેરાવ	-9.7231
ાત્મ	-9.72512
▁સેટિંગ	-9.72542
▁પહેલા	-9.72545
▁લેન્ડસ્કેપ	-9.72615
ચારિ	-9.72637
▁ફાયર	-9.7283
▁મારતી	-9.72833
▁લટકે	-9.72978
▁ઈંટ	-9.73005
▁સ્ક	-9.73068
▁કોલી	-9.7315
▁ચાંદીન	-9.73165
▁શંકુ	-9.73243
▁ટ્રી	-9.74012
▁બ્લુ	-9.74069
▁જગ્યામાં	-9.74288
▁પિતા	-9.74431
▁વોટરસ્કી	-9.75112
▁ધ્રુવો	-9.75128
▁છદ્માવરણ	-9.75134
▁વ્હીલચેર	-9.75135
▁ઊંધું	-9.7515
▁આંગળીઓ	-9.75158
▁દડો	-9.75171
▁લશ્કરી	-9.75173
▁સ્પોર્ટ્સ	-9.75185
▁જમ્પિંગ	-9.75334
▁ટ્ર	-9.75486
▁સમા	-9.75493
▁સોનાન	-9.75502
▁ઘેરાયેલી	-9.7555
▁ઝભ્ભ	-9.75575
▁પીતો	-9.756
▁સંગીત	-9.76149
▁ધ	-9.7623
▁શે	-9.76256
▁જૂની	-9.76278
▁રિંક	-9.76378
▁જોગ	-9.76455
▁પાંદડાઓ	-9.76485
▁રેપિડ્સ	-9.76553
▁સ્ટોરન	-9.76674
▁સાંજ	-9.77008
▁જોકી	-9.77256
ામાં	-9.77814
▁વાદ્ય	-9.77851
▁પર્વતારોહક	-9.77852
િયું	-9.78413
▁ઉઘાડપગું	-9.78582
▁બેલેન્સ	-9.78592
મસ	-9.78598
▁ઠંડ	-9.78613
▁ખાતી	-9.79
▁ગેમ	-9.79067
ેડમાં	-9.79092
▁રમતગમતન	-9.79196
▁અપ	-9.79276
▁જગ્યા	-9.79469
▁ઘરમાં	-9.79596
▁હાર	-9.79636
▁કોચ	-9.7966
▁વિર	-9.79715
▁કાપેલ	-9.79851
▁ફૂલેલ	-9.79852
▁ભાર	-9.79925
ચ	-9.80284
▁ક્રિસ	-9.80366
▁સ્ક્રીન	-9.80409
▁વિમાન	-9.80699
▁જો	-9.80718
▁કૂદવા	-9.8081
તું	-9.81776
▁સ્થિ	-9.82123
▁ખાડીમાં	-9.82158
▁કરાટે	-9.82173
▁ઢાળવાળી	-9.82189
▁ટુકડો	-9.82199
▁ધાબળો	-9.82253
▁સાંકળ	-9.82321
▁તાજ	-9.82349
▁અધિકારી	-9.82411
▁ગાલ	-9.82506
▁રિંગમાં	-9.82855
▁સ્ટેડિયમમાં	-9.82922
▁ફ્રીસ્બી	-9.8313
▁પ્લેટ	-9.83144
▁પહાડી	-9.83175
▁દુકાન	-9.83539
સી	-9.83621
▁વિરોધ	-9.83755
પણ	-9.83757
ેટ	-9.83825
▁સ્પીડ	-9.83968
▁બિલ્ડીંગ	-9.84313
▁છોડી	-9.84746
▁પકડ	-9.84885
▁મુસાફર	-9.85009
▁પ્રેક્ષકો	-9.85051
બડ	-9.85087
▁ફોર	-9.8529
▁જેટ	-9.85441
▁છત	-9.85838
▁કૂદક	-9.85843
▁ભસતો	-9.85844
▁તાલીમ	-9.85854
▁બંદના	-9.85854
▁મેકઅપ	-9.85855
▁વિડિયો	-9.85857
▁થડ	-9.85867
▁સાદડી	-9.85868
▁છાતી	-9.85914
▁બેઘર	-9.85918
▁કોફી	-9.85942
▁રક્ષણ	-9.85949
▁એન્ડ	-9.86002
▁સ્નાન	-9.86214
થવા	-9.86303
▁લાવે	-9.86411
▁ફોટા	-9.86515
▁ચડી	-9.87103
▁ગળ	-9.87381
પૂર્વ	-9.87487
▁થડમાં	-9.87563
▁ભોજન	-9.87615
ણે	-9.877
▁બેબી	-9.87978
▁જંગલન	-9.88713
▁શિખર	-9.88719
િકલ	-9.88813
▁બાંધકામ	-9.8889
▁કાચન	-9.89139
▁છંટકાવમાં	-9.89254
▁બજારમાં	-9.89376
▁પવન	-9.89525
▁સૂંઘ	-9.89686
▁ગોલ્ફ	-9.89688
▁ફોલ્લીઓ	-9.89701
▁કરિયાણાન	-9.89701
▁ઓરડામાં	-9.89728
▁બ્રેક	-9.89803
▁ચોંટી	-9.89863
▁સ્પષ્ટ	-9.89872
▁માત્ર	-9.89901
▁કોસ્ટર	-9.89962
▁પ્ર	-9.90009
▁દર્શાવે	-9.90012
▁બ્લોક	-9.90017
▁બાઉલ	-9.90077
▁ઉડતું	-9.90136
ાઈ	-9.90141
▁રસોડામાં	-9.90217
▁ચી	-9.9031
▁શાંતિ	-9.90311
▁અલગ	-9.90327
▁ટેકરીઓ	-9.90543
▁તરતો	-9.90552
▁પગરખાં	-9.90556
▁ડોગ્સ	-9.90697
ીણ	-9.90731
▁મકાનન	-9.90802
▁આઈસ	-9.90803
▁જતો	-9.90832
▁તરાપા	-9.91166
▁બચાવ	-9.91302
▁કાર્નિવલ	-9.91485
▁ઝૂકીને	-9.91574
▁મિયામી	-9.91574
▁રીંછ	-9.91672
▁વરરાજા	-9.91758
▁વેગન	-9.91782
▁ચેક	-9.92055
▁શાળાન	-9.92146
▁મેન	-9.92326
▁મિત્ર	-9.92397
▁ડ	-9.92631
▁નાટક	-9.92692
▁ચાલક	-9.92849
▁રુંવાટીવાળ	-9.93014
▁મજા	-9.93564
▁ભારતીય	-9.93588
▁બોડી	-9.93643
▁પટ્ટ	-9.93681
▁સુશોભ	-9.93686
▁ટુવાલ	-9.93686
▁સ્વચ્છ	-9.93686
▁અગ્રભ	-9.93688
▁સંપૂર્ણ	-9.93701
▁ક્રેશ	-9.93725
▁ટોય	-9.93756
▁યાર્ડ	-9.93766
▁પેપર	-9.9378
▁કાર્ડબોર્ડ	-9.93806
▁રાઇડર	-9.93827
▁ગૂંથેલ	-9.93852
▁નકલ	-9.9397
▁પરફોર્મ	-9.94129
▁મળે	-9.94162
▁પૈડાવાળ	-9.94302
▁બોક્સિંગ	-9.94511
▁ધુમાડ	-9.94718
▁જોતો	-9.94738
▁લેતી	-9.94855
▁કહે	-9.95132
▁ગલીમાં	-9.95245
▁કેક	-9.95543
▁ઉપાડ	-9.95732
▁ચશ્માવાળ	-9.95828
▁સાન્ટા	-9.96091
▁બનેલ	-9.96182
મેન્ટ	-9.96493
▁જોડી	-9.96494
▁વૃક્ષ	-9.96958
▁પીણાં	-9.97142
▁બતાવવા	-9.97198
▁સમ	-9.97314
▁ખાડી	-9.97451
▁વાદળછાય	-9.97853
▁નિયોન	-9.97854
▁ઉત્સાહિત	-9.97876
વસાય	-9.97888
▁ગોલકીપર	-9.97906
▁ક્લાઇમ્બિંગ	-9.97962
▁શૂઝ	-9.98085
▁સ્ટોપ	-9.98098
▁કાયકર	-9.98169
▁ટોપલી	-9.98171
કૃત	-9.98186
▁ગઈ	-9.98205
ાગમાં	-9.98231
▁લખેલ	-9.98237
▁આવત	-9.98427
▁સીધ	-9.98447
▁આકારન	-9.98462
▁વળે	-9.98764
▁જીન	-9.9908
▁ફોટોગ્રાફર	-9.99212
▁ફેન્સી	-9.99271
▁જતા	-9.99378
▁પકડત	-9.99683
▁બીમ	-9.99698
▁રંગલો	-9.99757
▁સુમ	-9.99939
▁બોક્સર	-9.99998
▁દોડવીર	-10.0011
▁સ્ટોરમાં	-10.0046
▁નેવ	-10.0049
▁સૂત	-10.005
▁બારમાં	-10.0077
▁રસ	-10.0088
▁મોઢા	-10.0108
▁બેરલ	-10.0117
▁વાડન	-10.0134
▁સીડીન	-10.0138
▁જાળી	-10.0141
▁ખોલી	-10.0175
▁બબલ	-10.0184
શ	-10.0185
ુદ્ધ	-10.0207
▁ગોલકી	-10.0215
▁તરીને	-10.022
▁જાકીટ	-10.022
▁પેવમેન્ટ	-10.022
▁ખોદકામ	-10.022
▁સૂનર્સ	-10.0221
▁વીંટી	-10.0224
▁પડછાયો	-10.0224
▁પડ્યો	-10.0225
મેન	-10.0225
▁પાઈન	-10.0227
▁તંબુઓ	-10.0228
▁થતાં	-10.0242
▁પેઇન્ટિંગ	-10.0249
▁થયેલ	-10.0253
▁કાયાક	-10.0261
▁વળ	-10.0264
▁ફ્લોપ	-10.0266
▁મીણબત્તીઓ	-10.0289
▁કમ્પ્યુટર	-10.0293
▁મિત્રો	-10.0298
▁ફરતી	-10.0309
▁કુસ્તીબાજો	-10.0336
▁ડિ	-10.0341
▁લેતા	-10.0351
▁સ્ટ્રીટ	-10.0355
▁દોરે	-10.0369
▁શેરીઓમાં	-10.0377
▁ટનલ	-10.039
▁અરીસા	-10.0401
▁બેસી	-10.0442
▁પૂંછડી	-10.048
▁સ્પ્રે	-10.0529
ખત	-10.0548
▁નદીન	-10.0566
▁રેસ્ટોરન્ટ	-10.0566
દ	-10.0579
▁ડાઇવ	-10.0602
▁મેદાનન	-10.0607
▁ફૂંક	-10.063
▁લગ્નન	-10.0631
▁પક	-10.0642
સો	-10.0664
▁ઢાળ	-10.0667
▁ભાગમાં	-10.0671
▁શો	-10.0672
▁પાયજામા	-10.0675
▁હેડસ્કાર્ફ	-10.0675
▁ફુલાવી	-10.0675
▁ડેસ્ક	-10.0675
▁રોબોટ	-10.0677
▁સ્નોબોલ	-10.0679
▁ફીલ્ડ	-10.0685
▁દડા	-10.0687
▁ગ્રેહાઉન્ડ્સ	-10.0688
▁ગો	-10.0689
▁ગાદલા	-10.0692
▁બો	-10.0702
▁બેક	-10.0714
▁ભૂખરા	-10.0714
▁સળગત	-10.0725
▁ઘાટ	-10.0737
▁નથી	-10.0739
▁વોકવે	-10.0759
▁તરવૈયા	-10.0794
▁ખોદ	-10.0837
િયન	-10.0846
▁ઉડત	-10.0868
▁નિશાન	-10.0904
▁કબૂતરો	-10.0915
▁ઢાંકી	-10.0919
▁ઝૂલત	-10.0954
▁હરોળ	-10.0964
▁ચામડીન	-10.0978
▁વાયર	-10.098
▁લિ	-10.1033
▁જાતન	-10.1037
▁શાંત	-10.1149
▁ચા	-10.115
▁પ્રથમ	-10.1151
▁કૂચ	-10.1154
▁કીચડવાળા	-10.1156
ૂલ	-10.1158
▁પકડ્યો	-10.1162
▁ફિશ	-10.117
▁શોધ	-10.1172
▁યુનિ	-10.1174
▁છબી	-10.1197
▁માછીમારીન	-10.1198
▁બાંયન	-10.1199
▁જવા	-10.1203
▁ચાલતું	-10.1211
▁શોમાં	-10.1229
▁પાવડ	-10.1231
▁ભીનું	-10.1234
▁કૂદવાન	-10.1241
▁અંધારાવાળ	-10.1246
▁સર્ફર્સ	-10.1254
ીન	-10.1268
▁ઉડાન	-10.128
▁બાઈક	-10.1298
ડોળ	-10.1356
▁હુમલ	-10.1414
ગો	-10.1419
▁ધૂળન	-10.1432
▁રોલરસ્કેટ	-10.1436
▁સભ્યો	-10.1453
▁ક્રો	-10.1482
▁રાખવા	-10.1484
▁ટ્રેનન	-10.1499
▁શિલ્પ	-10.1534
▁આં	-10.154
▁અવરોધો	-10.1541
▁વર	-10.1552
▁ગેટ	-10.157
▁કિડ	-10.1576
▁લાંબો	-10.1576
ીંગ	-10.1578
▁સ્ટ્રક્ચર	-10.1581
▁ફુવારાન	-10.1593
▁કલાકાર	-10.1611
▁હૂડવાળ	-10.1615
▁અવ	-10.1619
▁પા	-10.1638
▁ફરી	-10.164
▁કુદરત	-10.1651
▁એપ્રોન	-10.1651
▁સફરજન	-10.1651
▁ગોળાકાર	-10.1651
▁મંડપ	-10.1651
▁બૂગી	-10.1651
▁ક્રોસવોક	-10.1651
▁કર્બ	-10.1651
▁વરસાદ	-10.1652
▁માથાવાળ	-10.1653
શિક	-10.1656
▁ટેપ	-10.1659
▁થયા	-10.1661
▁સીડીઓ	-10.1665
▁પીસતો	-10.1666
▁શૂટ	-10.1667
▁પૂર્વીય	-10.1674
▁ઉપકરણ	-10.168
▁સ્પાર્કલર	-10.1681
▁આકૃતિ	-10.1682
▁રોલરબ્લેડર	-10.1684
▁ગોળ	-10.1697
▁આવ્યો	-10.1709
▁છાંટો	-10.1722
રું	-10.1729
▁ધુમ્મસવાળ	-10.1731
▁નિશાનો	-10.1743
▁વહેત	-10.1766
▁વ્યા	-10.1795
▁કોલરવાળ	-10.1816
▁સા	-10.1824
▁તાક	-10.1831
▁બાળકોન	-10.1831
▁કોંક્રીટન	-10.1846
▁પ્રિન્ટ	-10.1857
▁રસ્તો	-10.1859
▁સ્કર્ટમાં	-10.1866
▁લડાઈ	-10.1876
દમ	-10.1883
▁લખ	-10.1908
▁પટ્ટાઓ	-10.1936
▁ટૂંક	-10.1951
ેલું	-10.1952
▁બધ	-10.1954
▁દરવાજામાં	-10.1955
▁ઘેટાંન	-10.1965
ુબા	-10.1972
લેસ	-10.1976
▁દિવસ	-10.1984
▁ઈમારતન	-10.2013
▁કાચ	-10.2017
▁ઊંચે	-10.2034
▁બેનર	-10.2034
▁બાઈકર	-10.2034
▁માળખા	-10.2084
▁ખેંચ	-10.2114
▁ભૂપ્રદેશ	-10.2128
ાલી	-10.2138
લેટ	-10.2171
▁મૂર્	-10.2177
▁હાવભાવ	-10.2177
▁વર્તુળ	-10.2177
▁ઇનલાઇન	-10.2177
▁ગ્લોવ્ઝ	-10.2177
▁જેક	-10.2181
▁સામસામે	-10.2181
▁બર્ફીલા	-10.2182
▁હેંગ	-10.2183
▁અંધારામાં	-10.2195
▁સ્ટમ્પ	-10.2212
▁ઝૂલામાં	-10.2215
ણી	-10.2219
▁ડોબરમેન	-10.2252
▁ગલી	-10.2261
▁ટ્યુબમાં	-10.2263
▁ભીન	-10.2267
▁પેડ	-10.2278
▁માળા	-10.2286
▁પીતી	-10.2297
▁ફુગ્ગાઓ	-10.2298
▁ફ્લોટ	-10.2299
▁ટ્રાઇસ	-10.2304
▁કમર	-10.2354
▁સોડા	-10.2365
▁વ્યક્તિઓ	-10.2382
▁લાવી	-10.2393
▁કોર્સમાં	-10.2417
▁દુકાનમાં	-10.2419
▁ચોક	-10.2424
▁મેઘધનુષ્ય	-10.2424
નાર	-10.2452
▁કેસ	-10.2471
રો	-10.2476
▁કાર્નિવલમાં	-10.2478
▁લાવવા	-10.2493
આઉટ	-10.2503
▁ગરદન	-10.2516
સાફ	-10.2518
▁શાળા	-10.2543
▁પેચ	-10.2546
▁ટાલ	-10.2548
▁પર્વતમાળા	-10.2552
▁ચીયરલીડર્સ	-10.2553
▁ચાહકો	-10.2594
▁મળી	-10.2621
વિંગ	-10.2626
▁ઘોડાન	-10.2644
▁ફૂલવાળ	-10.2655
▁ભેખડ	-10.2677
▁બારીમાં	-10.2717
▁ટેક	-10.273
▁જન્મદિવસ	-10.2733
▁ઉજ્જડ	-10.2733
▁ઓક્લાહોમા	-10.2733
▁ડ્રાઈવર	-10.2733
▁હેન્ડ્રેઇલ	-10.2733
▁ડંખ	-10.2733
▁ઉજવણી	-10.2733
▁સ્મારક	-10.2734
▁રેકોર્ડ	-10.2735
▁ટેટૂઝ	-10.2735
▁પેલે	-10.2739
▁પટ્ટાવાળ	-10.2744
▁ટેગ	-10.2747
બોર્ડ	-10.2748
▁પોસ્ટ	-10.2751
▁વગાડત	-10.2751
▁મોજાઓ	-10.2757
છમ	-10.2772
▁થ	-10.2775
▁થાંભલાઓ	-10.2784
▁કવર	-10.2788
▁પીચ	-10.279
▁આખ	-10.2795
▁બાઇકર્સ	-10.2796
▁ઘ	-10.2798
▁બૂથ	-10.2811
▁કરનાર	-10.2813
▁કરત	-10.2814
▁વાળમાં	-10.2817
▁ખોલ	-10.2822
▁વાડમાં	-10.2824
▁આપતો	-10.2841
▁પર્વતારોહકો	-10.286
▁ઉડતો	-10.2861
ણાં	-10.2881
▁કામદારો	-10.2905
સ્ટ	-10.2919
ચ્છા	-10.2929
▁હમ	-10.293
▁પિચર	-10.294
▁તેણી	-10.294
▁ગડ	-10.2967
છે	-10.2999
▁એકત્ર	-10.2999
▁કોન	-10.3002
▁થોડ	-10.3005
▁ઢાંકે	-10.3036
▁હોઠ	-10.3037
▁ખીણ	-10.304
ોપિંગ	-10.3053
▁રેતીન	-10.3061
▁પાંદડાઓમાં	-10.3094
▁સૂર્યપ્રકાશ	-10.31
▁કેમેરામાં	-10.3117
▁અધિકારીઓ	-10.3131
વૉક	-10.3144
▁ચાક	-10.3164
▁જાતિન	-10.3206
▁પહાડો	-10.3215
હ	-10.3221
▁શ્યામા	-10.3224
▁ફૂલોવાળ	-10.323
▁રમવા	-10.3253
▁જાડ	-10.3276
▁ડ્રિંક	-10.3283
▁મુઝ	-10.3317
▁પોનીટેલ	-10.3321
▁તુતુ	-10.3321
▁પેશિયો	-10.3321
▁રેલ્વે	-10.3321
▁એટીવી	-10.3321
▁લક્ષ્ય	-10.3321
▁સ્પોટેડ	-10.3322
▁પદયાત્રીઓ	-10.3322
▁વાતાવરણમાં	-10.3323
▁આઠ	-10.3325
▁હાઇકર્સ	-10.3333
લોકન	-10.3333
▁ગતિમાં	-10.3334
▁કૂદતું	-10.3334
▁ક્રેન	-10.3335
▁રાફ્ટિંગ	-10.3337
▁હતું	-10.334
▁રોલરબ્લેડિંગ	-10.3341
ાળીઓ	-10.3341
▁બગીચાન	-10.3356
▁રાત્રિન	-10.336
▁ગયા	-10.3364
▁ખાતો	-10.3365
▁સલામતી	-10.3368
▁પૈસા	-10.3369
▁ઇવેન્ટ	-10.337
પર	-10.3372
▁બંધાયેલો	-10.3375
▁ઘડિયાળો	-10.3386
▁વહાણ	-10.3392
▁વિગ	-10.3398
▁શણગારેલ	-10.3417
▁ઊંડ	-10.345
તર	-10.3451
▁ઉછાળી	-10.347
▁માટી	-10.3477
▁વિશે	-10.3478
▁સ્ટ્રીમ	-10.3507
▁વિદ્યાર્થીઓ	-10.352
▁કચરાપેટી	-10.3544
▁ઈમારતો	-10.3544
▁પેક	-10.3548
▁ગ્લાસ	-10.3554
▁ઓબામા	-10.3583
▁જિમ	-10.3584
▁પથારીમાં	-10.3592
▁ચઢવા	-10.3599
▁જ્ય	-10.3604
▁મોટર	-10.3607
▁આગળન	-10.3638
▁વયસ્કો	-10.3645
▁વાહનો	-10.3678
▁છેડે	-10.3692
▁વોર	-10.3741
▁લટકત	-10.3741
▁વસ્તુન	-10.3751
▁છત્ર	-10.3779
▁સંગીતકારો	-10.3786
▁લપેટાયેલ	-10.379
▁ટ્રાઇ	-10.3814
▁ફટાકડા	-10.3817
▁પુરુષોન	-10.3838
▁બાલ્કનીમાં	-10.3844
▁તેણ	-10.3849
▁સે	-10.3868
ાન	-10.3869
▁ગંદકીવાળ	-10.3886
▁ટો	-10.3889
▁ઓ	-10.389
▁ટ્રંક્સ	-10.3895
▁રાખી	-10.3896
▁સ્લીવ	-10.3901
▁આપવા	-10.3905
ડો	-10.3918
ંતુ	-10.3929
▁આઉટ	-10.3941
▁ઇલેક્ટ્રિક	-10.3946
▁ઇશાર	-10.3946
▁ખરબચડ	-10.3946
▁ચળકત	-10.3946
▁ડિસ્પ્લે	-10.3946
▁પોલ્કા	-10.3946
▁ચાદર	-10.3946
▁ભીંતચિત્ર	-10.3946
▁ઝઘડ	-10.3946
▁દૂરબીન	-10.3946
▁સ્ક્વિર્ટ	-10.3946
▁આધેડ	-10.3946
▁હસ્કી	-10.3947
▁સ્નીકર	-10.3949
▁એથ્લેટિક	-10.395
▁ફિલ્મ	-10.3952
▁લગ્ન	-10.3954
▁પાતળો	-10.3956
▁પાનખરમાં	-10.3968
▁સાંભળી	-10.3977
▁કરતબ	-10.3982
▁વોલ	-10.3983
▁શિયાળ	-10.4
▁સ્નોસૂટ	-10.4008
▁શકે	-10.4011
▁ટીલ	-10.4011
▁સરકતી	-10.4019
▁ટ્રેલ	-10.4021
▁જોડીને	-10.4027
▁માર્કર	-10.4052
લું	-10.4062
▁કેડી	-10.4063
ર્ડ	-10.4069
▁પ્રકાશવાળ	-10.4102
▁તોફાન	-10.4102
ોર્ડ	-10.4111
▁વિસ્તરેલ	-10.4111
ારે	-10.4112
▁રોકવાન	-10.4141
▁લેબ	-10.4143
▁વ્હીલર	-10.4146
▁ચૂસ	-10.4153
▁ખોપરી	-10.4156
શન	-10.4172
ન્ટ	-10.4178
▁કેચ	-10.423
▁સજ્જન	-10.4247
▁ચિકન	-10.427
▁તંબુમાં	-10.4271
▁બ્લો	-10.4287
▁નીકળત	-10.431
▁માંગ	-10.4328
▁સીગલ	-10.4338
માન	-10.4344
▁પર્ણસમૂહ	-10.4353
▁કહેત	-10.4369
▁લટકાવેલ	-10.4371
▁માટીન	-10.4382
▁ઘરો	-10.4391
▁મેળવવાન	-10.4396
▁પહેરેલુ	-10.4426
▁ખેલાડીન	-10.4452
▁રસોડાન	-10.449
▁રાખ્ય	-10.4491
ક્ષ	-10.4512
▁મો	-10.4526
▁પગથિયા	-10.4536
▁જૂ	-10.4547
ૂબ	-10.4554
▁ટોળામાં	-10.4561
▁ભીડન	-10.4571
▁જમત	-10.4584
▁ડ્રેગ	-10.4597
▁ફ્લાઇટ	-10.4607
▁રબર	-10.4608
▁હેન્ડ્રેલ	-10.4609
▁સંઘર્ષ	-10.4613
▁બાથટબ	-10.4613
▁વીડિયો	-10.4613
▁ગ્રાઇન્ડ	-10.4613
▁બીગલ	-10.4613
▁બ્લીચર્સ	-10.4613
▁માનવ	-10.4615
▁કેન્ડી	-10.4616
▁પકડનાર	-10.4616
▁ખાકી	-10.462
▁પાવર	-10.462
▁શૂટિંગ	-10.4622
ફ્ટી	-10.4637
▁ત્રિ	-10.4637
▁આઉટફિટ	-10.4639
▁પડતા	-10.465
▁ઘેરી	-10.4657
▁દોડવીરો	-10.466
▁પુન	-10.4664
▁હાઉસ	-10.4664
▁લટકતું	-10.4668
▁હૂપ્સ	-10.4673
▁સમય	-10.4674
▁સ્ટ્રોલર	-10.4683
▁હવામાન	-10.4693
▁છોડીને	-10.4694
▁બાંધેલા	-10.4722
▁હરણ	-10.4726
▁પીળ	-10.4728
▁ફિલ્ડ	-10.4734
▁વાંચત	-10.4744
▁રિંગ	-10.4753
▁મોજાં	-10.4768
▁ભેટી	-10.4779
▁મકાઈ	-10.4795
▁ચર્ચ	-10.4796
▁સીટી	-10.4801
▁બતાવી	-10.4802
▁પૂર	-10.4805
ખાબ	-10.4813
▁રોલ	-10.482
▁લેપટોપ	-10.4829
દાર	-10.4834
▁કોર્ટમાં	-10.4842
▁ગોળી	-10.4846
▁સ્	-10.4852
▁વાઇન	-10.4863
વ્ય	-10.4877
▁બાંધેલ	-10.4887
▁બીજાન	-10.4895
▁પો	-10.4911
▁ફોલ્ડ	-10.4931
▁રૂમ	-10.4934
ેબલ	-10.4937
▁ટાઇલ	-10.4941
ાગત	-10.4986
ેસ	-10.5
▁કાગળન	-10.5018
▁દિવાલન	-10.5033
▁કોંક્રીટ	-10.5051
▁લિફ્ટ	-10.5057
▁છલકા	-10.5072
પિતા	-10.5082
2	-10.5094
રમાં	-10.5097
ફાયર	-10.5098
▁વિન્ટ	-10.5109
બોલ	-10.5143
▁રેસ્ટોરન્ટન	-10.5145
▁ચુસ્ત	-10.5147
▁દેખ	-10.5169
▁વાળવાળ	-10.5174
▁માર્	-10.5174
▁એકઠ	-10.5182
▁તરંગો	-10.5184
▁વયન	-10.5196
મા	-10.5209
▁કેન	-10.5223
▁પોસ્ટર	-10.5226
▁કટ	-10.5271
▁દુકાનન	-10.5282
▁બોર્ડર	-10.5291
▁નિ	-10.5303
ગ્ર	-10.5304
▁ફરવા	-10.531
▁મઝલ	-10.5324
▁ચાંચ	-10.5327
▁ક્ષિતિજ	-10.5327
▁થમ્બ્સ	-10.5327
▁ધ્યેય	-10.5327
▁આશ્ચર્ય	-10.5327
▁ટક્સીડો	-10.5327
▁રુવાંટીવાળ	-10.5327
▁દંપતિ	-10.5327
▁વાંસળી	-10.5327
▁બંજી	-10.5327
ેન્ડલ	-10.5329
▁છાજલી	-10.5332
▁સેન્ડ	-10.5332
▁બુલ	-10.5333
▁કોન્સર્ટમાં	-10.5337
કર	-10.5343
▁સફર	-10.5354
▁બૂમ	-10.5355
▁ફૂડ	-10.5362
▁પકડ્યું	-10.5362
▁ફુગ્ગા	-10.5363
▁ગીત	-10.5375
▁પાયા	-10.538
▁કર્યો	-10.5386
▁કર્યા	-10.539
▁ઝૂલતું	-10.5402
▁પીંછાવાળ	-10.5409
▁ડાઘવાળ	-10.541
વ	-10.5436
▁કાંઠા	-10.5436
▁પ્રાચ	-10.5447
▁જમ્પર	-10.5449
▁સળિયા	-10.5458
▁ઘડિયાળ	-10.5461
ેલ	-10.5463
▁ટાઈટ	-10.5483
લિંગ	-10.5485
▁માર્ગદર્શ	-10.5487
▁ચલાવનાર	-10.5495
▁ચામડા	-10.5508
ેલો	-10.5531
▁કપલ	-10.5534
▁નિસ	-10.554
રોડ	-10.5562
▁ચપળતા	-10.5563
ષ્ણ	-10.5568
▁ચમકત	-10.5582
▁દિવાલો	-10.5586
▁સ્વેટશર્ટમાં	-10.5588
▁પાંદડાવાળ	-10.5599
▁બકરી	-10.5607
▁ઓર	-10.5607
▁ચલાવવા	-10.5629
▁પડોશ	-10.5637
▁સગડ	-10.5644
▁પેન	-10.5644
▁ભાઈ	-10.565
ંસા	-10.567
▁પહાડોમાં	-10.5687
▁પુત્રી	-10.5689
રાઉન્ડ	-10.5699
▁વે	-10.5706
▁માછીમાર	-10.5743
હર	-10.5766
▁કરડવાન	-10.5769
▁વેચ	-10.5777
▁ફીણ	-10.5782
▁ચૂંટ	-10.5785
▁ખિસ	-10.5789
▁પિચ	-10.5799
▁આવ્ય	-10.5805
▁સૂતેલ	-10.5814
▁પથ્થરો	-10.5827
▁બેકયાર્ડ	-10.584
વોર	-10.5857
▁ક્ષેત્ર	-10.586
▁લહેરાવત	-10.5866
▁કોંક્રિટન	-10.5867
ચિંગ	-10.5894
▁શીખવ	-10.5913
▁લેન્ડસ્કેપમાં	-10.5924
▁રોકે	-10.5955
▁લાઈન	-10.5993
▁ઉત્સાહ	-10.6008
▁રમતવીર	-10.6011
▁નર	-10.6012
ાણ	-10.6045
▁રન	-10.6049
ળ	-10.6065
ધાર	-10.6068
▁કાર્ટન	-10.6091
▁ક્લોઝ	-10.6095
મ્યુઝ	-10.6096
▁બાસ્કેટ	-10.6096
▁ચંપલ	-10.6096
▁પદાર્થ	-10.6096
વ્યવસ્થ	-10.6096
▁શાવર	-10.6096
▁બિલબોર્ડ	-10.6097
▁મૂળ	-10.6097
▁થૂથ	-10.6097
▁આંતર	-10.6098
▁પ્રશ	-10.6098
▁વૉકિંગ	-10.6101
▁ફોરગ્રાઉન્ડ	-10.6107
▁ખૂણો	-10.6111
▁ઝિપ	-10.6111
▁મેરી	-10.6112
▁ટ્રકન	-10.6113
▁ઘેરો	-10.6115
▁મુક્ક	-10.6118
▁ટીવી	-10.6122
▁ઘેરાયેલું	-10.6122
▁પાનખરના	-10.6124
▁સ્ટ્રોલરમાં	-10.6155
▁ભર	-10.6172
▁ગેલેરીમાં	-10.6194
▁કસરત	-10.6213
▁બેંક	-10.622
▁ઉતારે	-10.6234
▁ટ્યૂલિપ્સન	-10.6271
▁મોઢ	-10.6302
વાળું	-10.6327
▁પ્લાઝામાં	-10.6333
▁બનાવવા	-10.6334
▁બટન	-10.6338
▁વાસણ	-10.6347
▁ક્લબ	-10.6355
સિકલ	-10.6363
મે	-10.6369
▁હેન્ડલ	-10.6375
બાર	-10.6378
▁તેવ	-10.6383
▁લપેટી	-10.6388
▁કાર્ડ	-10.6422
▁બિલ્ડીંગન	-10.6428
▁ભરે	-10.6428
▁ફે	-10.6456
▁વાન	-10.6471
▁રેસર્સ	-10.6479
▁કાફે	-10.6502
▁ફટકારવા	-10.6505
▁ઉઠાવ	-10.6507
▁કિનારી	-10.6518
▁બંડ	-10.6531
▁ટોપીવાળ	-10.6533
રણ	-10.6541
▁શેર	-10.6564
ગન	-10.6568
્યાં	-10.6583
▁ભેટ	-10.6583
▁બાંધે	-10.6595
▁વાંદરાન	-10.6604
▁ઓશીક	-10.6609
▁શેડ	-10.6619
▁ગુફામાં	-10.6632
▁ટેકવ	-10.6635
▁પાટિયા	-10.6636
▁દોર	-10.6656
ોની	-10.6686
▁રાઇડ	-10.6698
▁મકાઈન	-10.6706
▁હેલો	-10.671
▁ડોટ	-10.6717
▁ફેલાવ	-10.6727
▁સપાટ	-10.6757
▁પક્ષીઓન	-10.676
▁જવાન	-10.6782
િ	-10.6795
▁આર્મ	-10.68
▁બાઉન્સ	-10.6803
▁સભ્ય	-10.6836
બે	-10.6838
▁ગાર્ડ	-10.6866
▁તર	-10.6876
▁અંગ	-10.688
▁સ્પોર્ટ	-10.6919
▁સૂતા	-10.6923
▁વિન્ડસર્ફ	-10.6926
▁ઝપાઝપી	-10.6929
▁ગાંસડી	-10.6929
▁ટિકિટ	-10.6929
▁ડોલ્ફિન	-10.6929
▁પ્રયોગશાળા	-10.6929
▁મધમાખી	-10.6929
▁હેલિકોપ્ટર	-10.6929
▁અર્ધનગ્ન	-10.6929
▁લાઈફ	-10.693
▁સંભાળ	-10.693
▁કાર્ટવ્હીલ	-10.693
▁નહાવાન	-10.693
▁હરીફાઈ	-10.6931
▁ફ્લેગ	-10.6933
▁બંધાયેલ	-10.6935
▁તરવૈયાઓ	-10.6937
▁પટ્ટીઓ	-10.6937
▁હોમ	-10.6939
▁માદા	-10.694
પ્રદ	-10.6942
િબંધ	-10.6942
▁ફોટોગ્રાફ્સ	-10.6943
▁ગાયન	-10.6947
▁છુપાયેલ	-10.6953
▁કોઠાર	-10.6956
▁સૂકી	-10.6959
▁કેમ્પ	-10.6959
▁સાંકડા	-10.696
▁નિરીક્ષ	-10.6966
▁યુવા	-10.6968
▁અભિન	-10.6969
▁સ્થિતિમાં	-10.6974
▁ઓછા	-10.6984
વ્ર	-10.6991
્તેજ	-10.6995
▁સહે	-10.7001
▁રાખેલ	-10.7008
▁પરિવ	-10.7018
▁બજાર	-10.7023
▁ટેકલ	-10.7036
▁લેડી	-10.7043
▁સ્નાયુ	-10.705
ેસિ	-10.7055
▁જ્વાળાઓ	-10.707
▁બાથરૂમમાં	-10.7104
▁બાંધેલી	-10.7109
▁ગોઠવી	-10.7115
▁પ્રેક્ષકોન	-10.7117
▁તૂટેલ	-10.7121
▁મનો	-10.7123
▁તરાપામાં	-10.7139
કટ	-10.7142
િટલ	-10.7144
્વા	-10.7157
ાલ	-10.717
▁તરબૂચ	-10.7175
વેશ	-10.7202
▁રાહદારીઓ	-10.722
▁બિલાડીઓ	-10.7246
ગર	-10.726
▁દોડતું	-10.7261
▁ઓફિસ	-10.7263
▁રફ	-10.7264
▁શિકારી	-10.7274
▁ચઢવાન	-10.7289
▁ડાળીઓ	-10.7293
▁પોર્ટ	-10.7298
▁વા	-10.7314
કડી	-10.7342
▁જવામાં	-10.7347
છાયામાં	-10.7359
▁વેકબોર્ડર	-10.7365
જાત	-10.7366
▁સાપ	-10.7369
▁અંત	-10.7384
▁સં	-10.7389
▁ધરાવતા	-10.7396
▁ચાવત	-10.7402
▁ફ્ર	-10.7436
▁છાંટ	-10.7438
▁ખાવા	-10.7452
▁રસ્તામાં	-10.7458
▁ધોધન	-10.7464
▁ડ્રેડલોક	-10.748
યન	-10.7495
▁આર્કેડ	-10.7511
▁અથડા	-10.752
▁બેકપેકમાં	-10.7549
ટોપ	-10.7551
▁સ્પિન	-10.7553
▁શેરીમાંથી	-10.7553
▁બિલાડીન	-10.7566
▁રેક	-10.7586
▁ખાડ	-10.7596
▁ફળ	-10.7603
▁બેકસ્ટ	-10.7603
ખુશ	-10.7607
▁છિદ્ર	-10.7607
ઓફ	-10.7624
▁મારવાન	-10.7629
ફ્રી	-10.7652
▁ઢગલ	-10.7679
્રિમ	-10.7682
લ્ડ	-10.7684
▁ડાઇવર	-10.7699
▁ટુ	-10.77
▁આંતરછેદ	-10.7701
▁અથડાય	-10.7711
▁ટ્રેનર	-10.7713
▁ટોળાન	-10.775
▁રેપિડ્સમાં	-10.7753
▁ગાદી	-10.7761
▁લખે	-10.777
▁દ	-10.7771
▁ઢાંકેલ	-10.7789
▁ઓવરઓલ	-10.7807
▁ઉછાળ	-10.7821
▁બેગપાઈપ	-10.7836
▁પંક્તિ	-10.7836
▁જાપાની	-10.7838
થ	-10.7838
▁કોમ્પ્યુટર	-10.7839
▁ટોઇલેટ	-10.7839
▁દાવપેચ	-10.7839
▁દુર્બળ	-10.7839
▁પદયાત્રા	-10.7839
▁બૅન્ડના	-10.7839
▁સાવરણી	-10.7839
▁સ્ટુડિયો	-10.7839
▁મેગેઝિન	-10.7839
▁દારૂ	-10.7839
▁ઉઘાડ	-10.7839
▁સ્લિપ	-10.7839
▁ટોડલર્સ	-10.7839
▁કાર્યક્રમ	-10.7839
▁યુરોપ	-10.7839
▁કાંડા	-10.784
▁જમીનમાં	-10.784
▁વેડિંગ	-10.784
▁ક્રોચ	-10.7843
▁પેરાસેલિંગ	-10.7843
▁સેક્સ	-10.7844
ાજ	-10.7844
▁મુઝાયેલ	-10.7845
▁પીગળ	-10.7846
▁રડતા	-10.7847
▁ક્લાઇમ્બર્સ	-10.7848
▁સ્તંભ	-10.7849
▁રનર	-10.7849
▁કાંઠે	-10.7854
▁સ્થળ	-10.7855
▁ખંજવાળ	-10.7856
▁દડાઓ	-10.7856
▁રબરન	-10.7856
▁ભીડભાડવાળ	-10.786
▁અક્ષરો	-10.7861
▁હાઈ	-10.7862
▁બહેન	-10.7862
બુટ્ટી	-10.7863
▁પાતળા	-10.7865
▁બાજુઓ	-10.7867
▁પાતળી	-10.7872
▁રંગો	-10.7875
ઠી	-10.7876
▁રાઉન્ડ	-10.7877
▁સ્વિમસૂટ	-10.7879
▁હોવાથી	-10.7879
▁જમ્પસૂટ	-10.788
▁ચાવવાન	-10.7882
િગેટ	-10.7891
▁શિશુ	-10.7892
▁ચઢાવ	-10.7894
▁લપસી	-10.7903
▁ચોરસ	-10.7905
▁સ્નોબોર્ડર્સ	-10.7909
▁વિસ્ત	-10.7912
▁મૂર્તિ	-10.7913
▁કો	-10.7914
▁બાળ	-10.7917
બેલ	-10.7927
▁પ્રાણીન	-10.7931
▁પટા	-10.794
રોજ	-10.7944
્રોક	-10.7948
▁હં	-10.7951
▁બદલ	-10.7955
▁સ્કેટબોર્ડર્સ	-10.7956
▁સ્પાઈડરમેન	-10.7958
▁ડાઉન	-10.7993
▁પીત	-10.8
▁પ્રદર્શનમાં	-10.8009
સ્ટર	-10.8018
▁સ્ટ્રીપ	-10.8019
ાયર	-10.8019
▁લોગો	-10.8023
▁પટ્ટીમાં	-10.8029
▁સોના	-10.8033
એક	-10.8037
▁લતા	-10.804
▁હોટ	-10.8096
▁સ્પ્રિંકલર	-10.8112
પિંગ	-10.8117
▁બેન્ડમાં	-10.8117
▁ફેલાવી	-10.8128
▁તોપ	-10.8129
▁માર્કેટમાં	-10.8139
▁નિહાળ	-10.8147
▁પલટાવ	-10.8153
▁ટાલવાળ	-10.816
▁બોર્ડિંગ	-10.8169
્રી	-10.8171
▁દોડવા	-10.8179
▁યોર્ક	-10.8192
▁મમ્મી	-10.8208
▁બગીચા	-10.8227
ટી	-10.8261
ેશન	-10.8267
▁હેડ	-10.8268
▁નળ	-10.8273
▁જોર	-10.8293
સની	-10.8315
ટ્રિક	-10.8338
▁પુત્ર	-10.8347
▁સ્ટેડિયમ	-10.8356
▁દરવાજાન	-10.836
▁શેરીન	-10.8374
▁પ્રાણીઓન	-10.8378
▁ક્લાસ	-10.838
▁બાલ્કની	-10.8391
મો	-10.8395
▁ગયેલી	-10.8407
▁અન્ડરવેર	-10.8409
બી	-10.8434
▁રણ	-10.8451
▁નીંદણ	-10.8452
▁ભરેલો	-10.8459
▁કોઈન	-10.8481
▁આધાર	-10.8494
ાવી	-10.8526
યોજ	-10.8544
▁અંગૂઠ	-10.8545
▁મૂકી	-10.8564
▁ઢંકાયેલું	-10.8607
▁મેળ	-10.8663
▁જૂન	-10.8669
લેન્ડ	-10.8684
▁ચશ્મામાં	-10.8692
▁સંકેત	-10.8696
્ટ્રી	-10.87
▁જ્યા	-10.871
▁ખેંચા	-10.8715
ોફી	-10.873
▁ગિટારવાદક	-10.8742
▁કા	-10.8744
▁જોડ	-10.8756
▁પળિયાવાળ	-10.8758
▁ઉતરવા	-10.8766
▁આડ	-10.8766
▁હેડડ્રેસ	-10.8784
▁પિગટેલ	-10.8802
ાયેલા	-10.8803
▁ચહેરાવાળ	-10.8803
▁પ્લ	-10.8804
દ્ધ	-10.8828
▁પોલીસકર્મી	-10.8836
▁પ્રારંભ	-10.8839
▁ઉપનગર	-10.8839
▁એમ્બ્યુલન્સ	-10.8839
▁ગેરેજ	-10.8839
▁મુંડન	-10.8839
▁વિક્રેતા	-10.8839
▁સૈનિક	-10.8839
▁સ્નોમોબાઈલ	-10.8839
▁મેરેથોન	-10.8839
▁વિભાજ	-10.8839
▁ત્રપાઈ	-10.8839
▁ચિંત	-10.8839
▁પિટબુલ	-10.8839
▁ફાયરટ્રક	-10.8839
ટબુલ	-10.8839
▁ક્વાર્ટરબેક	-10.8839
▁હૉલવે	-10.8839
▁અભિવ્યક્તિ	-10.8839
▁ડાયપર	-10.8839
▁પિયાનો	-10.8839
▁ન્યૂ	-10.8839
▁બોર્ડવોક	-10.8839
પ્રાપ્તિ	-10.884
▁ભસતા	-10.884
▁રેઈનકોટ	-10.884
▁તારાઓ	-10.884
▁ચીયરલીડર	-10.884
▁લટાર	-10.884
▁ટોપલેસ	-10.8843
▁કાસ્ટ	-10.8844
▁વેવ	-10.8846
દ્યો	-10.8846
▁હેન્ડલ્સ	-10.8848
▁પૂડલ્સ	-10.8849
▁સીવીડ	-10.8852
▁સામગ્રી	-10.8853
▁પડકાર	-10.8854
▁લાઉન્જ	-10.8858
▁રોકેટ	-10.8859
▁મુ	-10.886
▁બારીઓ	-10.8862
▁પડ	-10.8864
▁ઊતર	-10.8866
▁બેઠકો	-10.8869
▁રક્ષક	-10.8871
▁સરકતું	-10.8871
▁ગાતો	-10.8879
▁કેન્દ્ર	-10.8893
▁પ્રદેશમાં	-10.8901
▁બળદન	-10.8902
▁આર	-10.8904
▁આખલા	-10.8906
પૂર્ણ	-10.8909
▁પ્લેપેનમાં	-10.8911
▁ઉછળતા	-10.8918
▁ગાયો	-10.8919
ટિશ	-10.8921
▁વાંચતો	-10.8932
▁ગ્લાઈડર	-10.8935
▁શીખ	-10.8938
▁પ્રા	-10.8938
ીત	-10.8946
બર	-10.8953
▁લો	-10.8972
▁કોબ	-10.8985
▁ખરી	-10.8985
▁બ્રશ	-10.8991
▁ચાવી	-10.8995
▁સુરક્ષા	-10.8995
▁ફુવારાઓ	-10.8996
ર્ટ	-10.9002
▁હેટ	-10.9007
▁દેશન	-10.9018
▁પ્લેન	-10.9026
▁ધનુષ્ય	-10.9057
ડાટ	-10.9063
▁ટીપ	-10.9067
▁ગાયક	-10.9069
▁વાઘ	-10.9074
▁મુસાફરો	-10.9078
▁ટ્રેક્ટર	-10.9079
▁ખવડાવી	-10.9082
▁જોકરો	-10.9083
▁કલાકારો	-10.9085
▁કામદાર	-10.9091
▁સાંભળે	-10.9099
તિ	-10.9109
ચુંબ	-10.9124
▁ટ્રીટ	-10.9129
▁ટ્રે	-10.9151
▁કોઈક	-10.9157
▁કોતર	-10.9188
▁બનાવેલ	-10.9191
▁પીછા	-10.92
▁બેકપેકર	-10.9203
▁સ્પાઇક	-10.9206
▁દબાવ	-10.9209
▁ફૂટ	-10.9226
▁રે	-10.9233
▁સ્કિમ	-10.9253
▁વાદળ	-10.9254
▁ચારે	-10.9258
▁જાત	-10.926
કારી	-10.9261
▁વિન્ડસર્ફર	-10.9286
▁હોવા	-10.9296
▁લંબાવે	-10.9303
▁વર્ગ	-10.9306
▁લોડ	-10.933
▁હેન્ડલબાર	-10.9337
▁પડાવ	-10.934
▁હોડીઓ	-10.9341
▁વજન	-10.9352
▁ઉડાડ	-10.9359
▁વોક	-10.9386
▁પૂલન	-10.9391
▁અં	-10.9395
▁દૂધ	-10.9399
િશ	-10.9402
▁સ્કેલ	-10.9414
▁અટકે	-10.9421
ગાસ	-10.9434
▁રેન્જ	-10.9437
▁વિના	-10.9437
▁અટક	-10.9455
▁પલટ	-10.9464
્યારે	-10.9474
▁ખડકોન	-10.9482
▁આંગણા	-10.9485
▁કેમેર	-10.9489
▁ભાગે	-10.9503
▁કરેલ	-10.951
▁છોકરીન	-10.9518
▁યુ	-10.9518
સા	-10.9522
▁ઝ	-10.9527
ાઉ	-10.9539
▁બેલે	-10.9556
્સમાં	-10.9556
▁પુસ્તકો	-10.9557
▁કોળા	-10.9559
સ્કેલેટ	-10.9571
▁શિંગડા	-10.9589
▁માણસન	-10.9613
▁કલા	-10.9628
▁ચમક	-10.9632
ોમાં	-10.9648
▁પિન	-10.9649
બંધ	-10.9651
▁બેટમેન	-10.9653
▁વિક	-10.9662
▁પોઝમાં	-10.9668
▁રમવાન	-10.969
▁વાઘન	-10.9694
▁મૂછો	-10.9699
▁દેખાવ	-10.9725
ૂ	-10.9728
▁દ્રશ્યમાં	-10.9736
કોલી	-10.974
ખરેખ	-10.9748
સામાન	-10.9756
▁બતકન	-10.9758
ડાઉન	-10.9769
▁ભૂ	-10.9773
▁ખરીદ	-10.9777
▁સુરક્ષ	-10.9778
▁સેન્ટ	-10.9785
ટ્રેટ	-10.9787
▁ઝભ્ભા	-10.9798
▁વિન્ડો	-10.9798
ન્ડ	-10.9809
▁ગાત	-10.9812
▁રેલી	-10.9834
▁જાંબુડ	-10.9863
ેન્ચ	-10.9868
▁ખાબોચિયા	-10.989
્મિ	-10.9892
▁ઉદ્	-10.9898
▁લહેર	-10.9901
▁ઇમારતમાં	-10.9906
▁બ્ર	-10.9908
▁સ્નોમોબાઇલ	-10.9928
ૌ	-10.9931
▁નાચત	-10.9937
▁બુલડોગ	-10.9946
▁ડેંડિલિઅન	-10.9947
▁ચંદરવો	-10.995
▁ઢીંગલી	-10.995
▁ઇન્ટરવ્ય	-10.995
▁ઓવરપાસ	-10.995
▁ગંભીર	-10.995
▁ટેલિવિઝન	-10.995
▁ડાચશુન્ડ	-10.995
▁ધૂંધળ	-10.995
▁ધ્રૂજ	-10.995
▁નૌકા	-10.995
▁પ્રયત્ન	-10.995
▁લેબ્રાડોર	-10.995
▁વોટરક્રાફ્ટ	-10.995
▁હાઇડ્રેન્ટ	-10.995
ત્યંત	-10.995
▁પિનાટા	-10.995
▁સ્લાઈડ	-10.995
▁ડામર	-10.995
▁મુઠ્ઠી	-10.995
▁ટપકાંવાળ	-10.995
▁બોસ્ટન	-10.995
▁બન્ની	-10.995
▁શાખા	-10.995
▁આર્ટિસ્ટ	-10.995
▁સિગાર	-10.995
▁મ્યુઝિયમ	-10.995
▁નેકલેસ	-10.995
▁ફ્લોટીઝ	-10.995
▁નિયંત્રણ	-10.995
િન્ટન	-10.9951
▁ગોદી	-10.9951
▁પ્રવાસીઓ	-10.9951
▁ફાયરમેન	-10.9951
▁પૉપ	-10.9952
▁દટાયેલ	-10.9952
▁કિલ્ટ	-10.9953
▁અવગણના	-10.9956
▁થયું	-10.9957
▁બેડમ	-10.9958
▁રાઇડર્સ	-10.9959
▁ચાટતો	-10.9959
▁સ્થિત	-10.996
ડા	-10.9965
▁કેમ્પફાયર	-10.9967
ગિક	-10.9969
પોર્ટ	-10.997
▁કરડતો	-10.9975
▁ડ્રેગન	-10.9978
▁હવાઇ	-10.9984
▁અન	-10.9985
▁ફેલાયેલ	-11.0004
ટમાં	-11.0014
▁ફુવારો	-11.0019
▁ગોલમાં	-11.0029
▁તારન	-11.003
▁ઓલી	-11.0038
▁સ્થાન	-11.0038
▁ઝાડમાં	-11.0047
▁પીવા	-11.0051
▁ચીયરલિડર	-11.0058
્	-11.0059
ીઓ	-11.006
▁તોડી	-11.0064
▁ખીણમાં	-11.0066
▁કોર્ગ	-11.0076
▁ટ્રકમાં	-11.008
▁ઓળંગી	-11.0082
▁પહોંચવા	-11.0083
કન	-11.0102
વુડ	-11.0104
▁પામ	-11.0109
▁ઊન	-11.0112
▁તૂટી	-11.0113
▁હાઇવે	-11.0117
▁ડંકી	-11.0122
▁ઊંચાઈ	-11.0122
▁બ્લોક્સ	-11.0124
▁કર્યું	-11.0126
▁મીની	-11.0164
▁સ્ટોલ	-11.0167
▁સોનાનો	-11.0174
ામી	-11.0179
રાબ	-11.0194
▁છેડા	-11.0195
ગીચ	-11.0197
▁ઘેટાંના	-11.0198
ામ	-11.0198
▁પેટર્નવાળ	-11.0205
ાડે	-11.0224
▁દુકાનો	-11.0233
▁ભગાડ	-11.0234
ટર	-11.0235
▁લેન્ડ	-11.0239
▁છિદ્રમાં	-11.0244
▁માલિકો	-11.0256
▁ટર્કી	-11.0261
▁સાન્તાક્લોઝ	-11.0267
▁સંગ્રહાલય	-11.0272
▁પાંજરામાં	-11.0278
▁ધુમાડા	-11.0279
▁ભા	-11.029
▁સાધન	-11.0309
▁સસ્પેન્ડ	-11.0333
▁ઉપ	-11.0374
નીઝ	-11.0383
્રોલ	-11.04
▁બૉક્સ	-11.0436
▁સંકેતો	-11.0443
▁શક	-11.0444
▁જૂથમાં	-11.0449
▁ચેકર	-11.0453
લાઇન	-11.0456
▁પોલો	-11.0466
ફ્	-11.0477
▁જોગર	-11.0487
▁પકડાયેલ	-11.0511
▁ટેલિફોન	-11.0523
▁વળાંકન	-11.0534
▁પગમાં	-11.0536
▁ભેગી	-11.0562
ેત	-11.0563
્રા	-11.0577
▁મોટે	-11.0596
▁ઉતારી	-11.0603
ળી	-11.061
▁કબૂતરોન	-11.0616
▁કટઆઉટ	-11.064
ીક્ષ	-11.0649
▁ચોકમાં	-11.0649
▁નાચ	-11.065
▁જુ	-11.0651
▁નંબરવાળ	-11.0656
▁ઉનાળાન	-11.0657
▁થેલીમાં	-11.0661
▁બેગમાં	-11.0665
▁સીટો	-11.0673
▁ક્રિ	-11.0693
▁લાઇનવાળ	-11.0714
▁ઉતરત	-11.0724
▁પીરસ	-11.0734
અમેરિકન	-11.0743
મિક	-11.0747
▁ઠંડી	-11.0751
▁ટે	-11.0785
▁ઝાડી	-11.0791
ીની	-11.0818
▁નગર	-11.0852
▁ઝૂકેલ	-11.0866
▁ફૂટબોલર	-11.0871
▁ઝૂમ	-11.088
ાયેલી	-11.0901
▁પ્રવેશ	-11.0901
▁છોકર	-11.0902
▁રોટવ	-11.0902
▁માર્ગમાં	-11.0927
▁પેટર્ન	-11.093
▁બોટન	-11.0942
હૂપ	-11.0945
▁શરૂઆત	-11.0947
▁ટાઇ	-11.0951
▁નોટ	-11.0952
▁યુનિવર્સિટી	-11.0954
▁ખૂણામાં	-11.0973
▁એરેના	-11.0975
્યુ	-11.0991
▁પરપોટ	-11.0995
પીસ	-11.1007
▁બ્રિજ	-11.1014
▁બેલ્ટ	-11.1015
ટેડ	-11.1032
▁આકાર	-11.1036
ાવે	-11.1057
▁ટેન્ટ	-11.106
સમસ	-11.1089
▁સંગીતકાર	-11.1101
▁ડોલમાં	-11.1102
▁પટ	-11.1106
હાર	-11.1145
▁વેટસુટ	-11.1149
ક્ત	-11.1153
▁ખવડાવ	-11.1155
▁ગ્લાઈડ	-11.1165
લ્સ	-11.117
▁સ્વેટ	-11.117
▁રાફ્ટ	-11.1177
▁કેટલ	-11.118
▁પ્રદર્શ	-11.1182
▁બનાવત	-11.1183
બેક	-11.1183
▁ઘસ	-11.1186
▁પર્વતારોહ	-11.1187
▁બાઉલમાં	-11.1193
▁આકર્ષ	-11.1195
▁હરીફ	-11.1197
▁પાદરી	-11.1197
▁ધનુષ	-11.1198
▁ગોલ્ડ	-11.1198
▁સ્પાઈડર	-11.1199
▁દાગીના	-11.12
▁હાડપિંજર	-11.12
▁આશ્રય	-11.12
▁ગરુડ	-11.12
▁ટેલિસ્કોપ	-11.12
▁ડોમિનો	-11.12
▁પાલતુ	-11.12
▁પિરામિડ	-11.12
▁પેલિકન	-11.12
▁માઈક્રોફોન	-11.12
▁રહેણાંક	-11.12
▁સર્કિટ	-11.12
▁સિએટલ	-11.12
▁સુવર્ણ	-11.12
▁સ્નોબેંક	-11.12
▁સ્લેલોમ	-11.12
▁કોબલસ્ટોન	-11.12
▁જાદુગર	-11.12
▁પાઘડી	-11.12
▁ભૂગર્ભ	-11.12
▁ફાયરપ્લેસ	-11.12
▁હોસ્પિટલ	-11.12
▁ધપાવ	-11.12
▁પાઇરેટ	-11.12
▁નહીં	-11.12
▁ઇન્ફ્લેટ	-11.12
▁વિસ્ફોટ	-11.12
▁માઉન્ટેન	-11.12
▁સ્લેડિંગ	-11.12
▁સારવાર	-11.12
▁બેકલાઇટ	-11.12
▁હેન્ડબેગ	-11.12
▁માઉસ	-11.12
▁કાટવાળ	-11.12
▁પિગી	-11.12
▁જાપાનીઝ	-11.1201
▁સ્ટોવ	-11.1201
▁હગ્સ	-11.1202
▁બેઝમેન	-11.1202
▁પછાડ	-11.1204
▁કિશોરીઓ	-11.1205
▁મોટાભાગ	-11.1206
▁મ્યુઝિક	-11.1207
▁પત્તા	-11.1207
▁રચનાઓ	-11.1208
▁ગબડ	-11.1208
▁એકસરખ	-11.1209
▁મઝલ્સ	-11.1209
▁શ્વાસ	-11.1209
▁ક્યાં	-11.1211
▁ચઢાણ	-11.1212
▁પડ્યા	-11.1213
ડીયો	-11.1214
▁સાઈન	-11.1215
▁લોલી	-11.1217
રૂન	-11.122
▁ફૂંકતી	-11.1221
▁પડછાયામાં	-11.1222
▁કેબલ	-11.1226
▁થોભો	-11.1227
▁શબ્દો	-11.1227
▁ગયું	-11.123
▁પ્રેમ	-11.1236
▁શાલ	-11.1238
▁ક્રીમ	-11.124
▁ઝૂંપડી	-11.124
રમ	-11.1242
▁વર્ક	-11.1252
▁કોર્	-11.1258
▁હેટમાં	-11.1259
▁કલર	-11.1267
▁લહેરાત	-11.1272
▁ચહેરાઓ	-11.1276
ોફોન	-11.1277
▁લા	-11.128
▁માપી	-11.13
▁લીગ	-11.1302
▁ટ્રંક્સમાં	-11.1309
▁સરળ	-11.131
▁બસન	-11.131
▁ગાડીઓ	-11.1311
▁કેપ્સ	-11.1321
▁રિ	-11.1325
▁વ્હ	-11.133
િન	-11.1334
▁કિશોરી	-11.1338
▁ખાતા	-11.1343
▁સર	-11.1346
ીલર	-11.1346
▁રૂપ	-11.1346
▁એરિયા	-11.1348
▁સ્ટાર	-11.1357
▁ટાયરમાં	-11.136
જ્	-11.1379
▁છોડન	-11.1384
▁જોવ	-11.1394
▁બાંધી	-11.1401
▁કૂ	-11.1423
▁નિદ	-11.1455
▁વળેલ	-11.1464
▁નમી	-11.147
ઉ	-11.147
▁બચ્ચ	-11.1473
ાઇકિંગ	-11.1476
▁અગ્નિ	-11.1478
▁લેત	-11.1488
▁ઘાસવાળો	-11.1496
▁ગામ	-11.1511
▁જગલ	-11.1527
ધુ	-11.1545
▁કાર્પેટવાળ	-11.156
ાનમાં	-11.1581
નિયન	-11.1582
▁ચિત્રમાં	-11.1584
▁ભીંજા	-11.1615
▁પાર્કન	-11.1625
▁સ્પ્રેમાં	-11.1629
સેટ	-11.163
▁ખેંચત	-11.1634
▁લી	-11.1648
▁મોલમાં	-11.1662
▁વ્યવસાય	-11.1664
▁માળ	-11.1677
▁વૉક	-11.1692
સાઈ	-11.1701
▁મે	-11.1715
▁ચીંથરા	-11.175
્પી	-11.1763
▁સહ	-11.1766
▁પટાવાળ	-11.1792
▁ચાઇ	-11.1816
ંપર	-11.1823
▁હલાવત	-11.1827
▁કાઢ	-11.1835
▁ધુમાડાન	-11.185
▁ચૂક	-11.1865
▁નાળ	-11.1882
▁રીંછન	-11.1887
▁અણ	-11.1909
▁ડબ્બ	-11.1928
ોલ	-11.1931
▁રચનામાં	-11.1943
▁ફેર	-11.1949
▁સ્તન	-11.1957
ચી	-11.1959
▁પથારી	-11.1972
▁ખાત	-11.1992
સાયકલ	-11.2003
▁કોલ	-11.2023
▁નંબરન	-11.2032
▁ઉપાડી	-11.2035
વાન	-11.2036
▁ફૂલન	-11.2043
▁કાપી	-11.2061
છો	-11.2073
▁અથડાતા	-11.2099
▁ફેબ્રિક	-11.212
ેન્જર	-11.2127
▁છો	-11.2145
▁કિસ	-11.2174
▁માર્કેટ	-11.2178
એક્સ	-11.2178
▁ગોઠવે	-11.2195
રખા	-11.2196
▁લખત	-11.2197
ર્	-11.2207
▁ફેસ	-11.2209
▁ક્રિયા	-11.221
▁કાંકરીન	-11.2219
▁હાઇ	-11.2247
▁કોતરે	-11.225
▁ચીંધ	-11.2264
▁તિરાડ	-11.2264
▁ડાન્સર	-11.2266
▁કમાન	-11.2285
▁પટ્ટીવાળ	-11.2286
સ્તો	-11.2287
ેય	-11.2287
▁કૂતર	-11.23
▁લટકાવ	-11.2302
ઇ	-11.2304
▁હંસન	-11.2304
ટ્સ	-11.2312
ડલ	-11.2316
▁ખેંચાય	-11.2321
▁કાપ	-11.2333
▁ઈંટોન	-11.2353
યુગ	-11.236
દ્રશ્ય	-11.2361
▁કપડ	-11.2362
▁રમતગમત	-11.2365
ીએમ	-11.2366
અલગ	-11.2383
▁હાર્ડ	-11.2389
ક્રિયા	-11.24
▁સ્કાયલાઇન	-11.2415
▁ડાઘ	-11.2434
ટાઈ	-11.2436
▁લગાવ	-11.2436
▁કચર	-11.2437
▁મકાનમાં	-11.2438
વ્હીલર	-11.2442
્ઝ	-11.2446
▁રજૂ	-11.2456
▁બ્રશમાં	-11.2476
▁લેન	-11.249
રક્ષા	-11.249
▁આરોહક	-11.2492
્ટ	-11.2495
▁પૂ	-11.2498
▁ભૂખર	-11.2499
ચો	-11.2503
▁ડબ્બા	-11.2504
ખા	-11.2521
▁પાનખર	-11.2523
▁પંજ	-11.2528
ટોળ	-11.2532
▁મહ	-11.2539
▁કેન્દ્રમાં	-11.255
▁ટ્રેકસૂટ	-11.2559
ક્સ	-11.256
▁અથડાવ	-11.2566
ોવીન	-11.2595
દા	-11.2602
▁ડાળીઓમાં	-11.2602
▁દર્શક	-11.2611
ટાક	-11.2623
▁ક્વાર્ટર	-11.2628
▁અર્ધ	-11.2628
સ્વસ્થ	-11.2628
▁એસયુવી	-11.2628
▁પેરાસેઇલ	-11.2628
▁પ્રવેશદ્વાર	-11.2628
▁પ્રાર્થના	-11.2628
▁હિમવર્ષા	-11.2628
▁ચમચી	-11.2628
▁બટરફ્લાય	-11.2628
▁મંદિર	-11.2628
▁મોનિટર	-11.2628
▁વાછરડ	-11.2628
▁કેનવાસ	-11.2628
▁તૂતક	-11.2628
▁જ્વલ	-11.2628
▁ચોપસ્ટિક્સ	-11.2628
▁ઇંટ	-11.2628
▁ટ્રેઇલ	-11.2628
▁ઇયરફોન	-11.2628
▁સ્ટીયર	-11.2628
▁કંટ્રોલ	-11.2628
▁લૂછ	-11.2628
▁ચેઇનસો	-11.2629
▁લિપસ્ટિક	-11.2629
▁વોટરસ્કીઅર	-11.2629
▁વૉલ્ટ	-11.2629
▁ઇનામ	-11.2629
▁વીંધેલ	-11.2629
▁મુખ્ય	-11.263
▁ડીજે	-11.263
▁જિમ્નેસ્ટિક્સ	-11.263
▁ફેન્સ્ડ	-11.263
▁અશ્વ	-11.263
▁હીલ્સ	-11.2631
▁પંપ	-11.2631
▁હડલ	-11.2631
▁પરીક્ષણ	-11.2633
▁હોટલન	-11.2636
▁આઇ	-11.2636
▁ઉછળત	-11.2637
▁કાર્યકર	-11.2639
▁માળખું	-11.2639
▁બોટમ્સ	-11.2639
▁ઢાળવાળા	-11.2641
▁ગ્લોવ્સ	-11.2641
▁હેટ્સ	-11.2641
▁પ્રવાસી	-11.2642
▁અંડર	-11.2642
▁શેલ્ટ	-11.2643
▁કાયકર્સ	-11.2644
▁ઉછળે	-11.2645
▁થયો	-11.265
▁યુગલો	-11.2651
▁મલ્ટી	-11.2651
▁ખોદતો	-11.2652
▁લેન્સ	-11.2652
સુપરમેન	-11.2653
▁બાજ	-11.2654
▁સરસ	-11.2656
▁છત્રીઓ	-11.2657
ાંકન	-11.2657
▁પાડતો	-11.2659
▁સિટી	-11.2659
▁જંતુ	-11.2662
▁વીંટાળેલ	-11.2662
▁વ્હીલ્સ	-11.2669
▁કેમેરામેન	-11.2669
ંત	-11.2672
ાબ	-11.2679
ચલા	-11.268
ધર	-11.2683
▁જમવા	-11.2685
▁હાથમોજા	-11.2689
▁ઘૂંટી	-11.269
ેતરમાં	-11.2691
▁રેખા	-11.2696
▁હૃદય	-11.2698
▁ઉત્પાદન	-11.2706
▁સ્પર્ધક	-11.2723
▁ફાટેલ	-11.2724
▁મેક	-11.2726
▁યોગ	-11.2732
▁સાઇડ	-11.2736
▁પંક	-11.2748
▁ડ્રમર	-11.2755
▁બિલ	-11.2761
▁અસ્ત	-11.277
ૉક	-11.2776
ંચી	-11.2783
▁ખેલાડીઓન	-11.2785
ટિંગ	-11.2787
▁પાંદડાન	-11.279
▁બીની	-11.2794
▁સ્પોટ	-11.2815
▁થવા	-11.2818
▁ત્ર	-11.2827
▁ફ્લોરિડા	-11.2828
ાના	-11.2829
▁ગ્રા	-11.2833
▁ગ્રેફિટીવાળ	-11.2838
▁સ્ટીક	-11.2838
▁બેનરો	-11.2842
▁બી	-11.2844
▁તમા	-11.2845
▁વળાંકવાળ	-11.2848
▁ઘાસવાળ	-11.2848
▁પંચ	-11.2851
છવાય	-11.2853
▁ધો	-11.2866
▁ક્રાઉ	-11.287
▁ઇસ્ટર	-11.2872
▁ફૂંકા	-11.2881
▁પળિયાવાળો	-11.2888
▁ચિત્તા	-11.29
્ણ	-11.2904
▁ફોર્મ	-11.2909
ડ્રિંક્સ	-11.2911
રડે	-11.2913
ર્ફ	-11.2923
▁સી	-11.2925
▁ફરત	-11.2934
▁આર્મી	-11.2943
યા	-11.2945
▁દર્શાવત	-11.2949
▁લહેરાવતી	-11.2974
▁ગોઠવ	-11.298
▁લખાણ	-11.2982
▁દેવા	-11.2982
▁પ્રવેશવા	-11.2986
▁દોડ્યો	-11.2993
સે	-11.3012
▁કાંકરા	-11.3012
▁ટટ્ટુ	-11.3025
ફ્લેટે	-11.3027
▁લેગ	-11.3031
ટબ	-11.3037
▁બંદૂકો	-11.3037
▁ડ્રાઇવર	-11.3037
▁કોલેજ	-11.3039
▁ઇનરટ્યુબ	-11.3044
શીટ	-11.305
▁પાવડા	-11.3054
સફેદ	-11.3057
▁ત્ય	-11.3071
▁ગ્લોવ	-11.3074
▁બગ	-11.3077
▁કુંડ	-11.3078
ન્સ	-11.3088
▁લાઇટો	-11.3111
િમ	-11.3125
▁દાદર	-11.3136
▁અખબારો	-11.3149
▁પાડવા	-11.3167
▁વિસ્તારન	-11.3171
▁થાળી	-11.3172
▁ઢાંક	-11.3172
▁યુવાનોન	-11.3174
▁કોળાન	-11.3184
ભે	-11.3189
▁સેઇલ	-11.3193
▁ચોંટાડી	-11.3197
▁ઉછાળવાળ	-11.321
▁ખીણન	-11.3224
▁સુ	-11.3231
▁હરોળમાં	-11.3242
▁ડબ્બામાં	-11.3249
▁ફો	-11.3249
▁પ્રોફ	-11.3257
▁ફેશન	-11.327
▁સ્લાઇડન	-11.3271
▁એપાર્ટમેન્ટ	-11.3279
▁રાઇફલ	-11.3282
▁નામન	-11.3298
▁ફફડાવ	-11.3304
▁હેલ	-11.3309
▁સરોવર	-11.3311
સ્કોર	-11.3315
▁હોલ	-11.3319
▁વાહનન	-11.3325
▁ઉતર	-11.3327
▁કદ	-11.3342
▁બેસવા	-11.3378
▁રાંધ	-11.3383
▁વાંદરા	-11.3387
્ટફ	-11.3389
▁નહેર	-11.339
▁ગન	-11.3395
▁રિસોર્ટ	-11.3418
▁કિ	-11.3423
▁મિ	-11.3425
▁જ્યુ	-11.3431
ચક	-11.3444
▁પ્રિ	-11.3446
લમાં	-11.3476
▁બેરેટ	-11.349
યલ	-11.3501
ાનો	-11.3518
▁વળાંકમાં	-11.3538
મ્પ	-11.3547
્ર	-11.3547
▁ગાઉન	-11.3585
▁છાયા	-11.3591
▁સંગીતન	-11.3593
▁પેરાસેલ	-11.3618
▁કરડવા	-11.3636
▁જંગલો	-11.3647
▁બોટલો	-11.3651
▁કીટ	-11.3684
▁આધ	-11.3684
બા	-11.3685
આ	-11.3689
▁પીને	-11.3697
▁ફેરવ	-11.3698
▁ફેન્સ	-11.3723
▁રો	-11.3728
▁ફાઇટર	-11.3737
ોડ	-11.374
ષ્ટ	-11.3749
િલ	-11.3758
▁કરવ	-11.3759
પે	-11.3763
▁સ્ટ્રક્ચરમાં	-11.3776
▁ટાયરન	-11.3798
▁નર્તકો	-11.3812
▁શિકાર	-11.3813
▁પિઝા	-11.3813
▁ધસ	-11.3815
▁નંબરો	-11.3821
▁ગે	-11.3824
▁ટ્રેકન	-11.3849
▁બ્રિ	-11.3857
▁સાંકળન	-11.3866
▁રચનાન	-11.3879
▁પોપ	-11.3881
▁ઉડાડવા	-11.3887
▁ઉદાસ	-11.3892
રતા	-11.3899
વ્હીલ	-11.3901
▁પુસ્તકાલય	-11.3905
▁પડવા	-11.3923
▁સ્ટ્રોલરન	-11.3934
દય	-11.3944
▁મોજ	-11.3947
▁અંધારા	-11.3963
બેન્ડ	-11.3968
▁ભમર	-11.3971
▁અંગૂઠા	-11.3987
▁ભસ	-11.4011
▁ગોલન	-11.4012
▁શાંતિન	-11.4017
▁વિમાનમાં	-11.4017
ગર્લ	-11.4023
કાર્ટ	-11.4046
▁સઢ	-11.4051
બ્રશ	-11.4052
▁પ્લેટમાં	-11.4054
▁લંબાય	-11.4072
▁ગંદી	-11.4087
સ્તી	-11.411
▁બાંય	-11.412
▁ફેંકવાન	-11.4125
▁જીપન	-11.4139
▁સ્કાય	-11.4154
ગડા	-11.4158
▁કબૂતર	-11.4189
▁ભુર	-11.4208
▁ગ્રાઉન્ડ	-11.4212
ોઈ	-11.4221
શે	-11.4237
▁જગ	-11.424
▁બર	-11.4241
▁થવાન	-11.4257
▁ફ્રાઈ	-11.4262
િરામ	-11.4264
▁પડત	-11.4266
▁કેમ્પફાયરન	-11.4269
▁પ્રતિ	-11.4276
▁મોઝલ	-11.4276
▁એથ્લેટ	-11.4279
▁તાડ	-11.4282
▁શૉ	-11.429
સંખ્ય	-11.429
▁ક્વ	-11.4291
▁ઇલેક્ટ્રોનિક	-11.4291
▁પદયાત્રી	-11.4293
▁સોફ્ટ	-11.4294
▁અભ્યાસ	-11.4295
▁અગ્નિશામક	-11.4295
▁કોન્ફેટી	-11.4295
▁કોરિડોરમાં	-11.4295
▁ગરગડી	-11.4295
▁ગ્રેજ્યુએશન	-11.4295
▁ગ્લેશિયર	-11.4295
▁દફનાવ	-11.4295
▁બાથરોબ	-11.4295
▁રામરામ	-11.4295
▁વિજેતા	-11.4295
▁હસ્તકલા	-11.4295
▁ડિઝાઇન	-11.4295
▁બ્રિન્ડલ	-11.4295
▁હોલ્ટર	-11.4295
▁ડાલમેશન	-11.4295
કંટ્ર	-11.4295
▁ફ્લાનલ	-11.4295
▁મલ્ટીકલર	-11.4295
▁સ્પોટલાઇટ	-11.4295
▁છૂટા	-11.4295
▁સ્ક્વિઝ	-11.4295
કર્તા	-11.4295
▁વેપાર	-11.4295
▁સ્ટોરફ્રન્ટ	-11.4295
ડિયમ	-11.4295
▁ટૅગ	-11.4295
▁ઢોંગ	-11.4295
▁ચિપ	-11.4296
▁ઉંદર	-11.4296
▁ચાંચિયાઓન	-11.4296
▁ઓવરહેંગ	-11.4296
▁નીન્જા	-11.4296
▁ક્લાસિક	-11.4296
▁વોટરસ્કીઇંગ	-11.4296
▁મેડલ	-11.4296
▁યુનિયન	-11.4296
▁મુક્ત	-11.4297
▁સહિત	-11.4297
▁રાજક	-11.4297
▁રેખાઓ	-11.4297
રિસ	-11.4298
▁સાઇટ	-11.4298
▁મૂર્તિઓ	-11.4298
▁પોલીસકર્મીઓ	-11.4299
▁ઉતર્યા	-11.4299
▁ખાબોચિયું	-11.4299
▁સ્નોમેન	-11.4299
▁નાવિક	-11.4299
▁કાઠી	-11.4299
▁ટુટસ	-11.4301
▁સ્ટ્રેચ	-11.4302
▁પડદા	-11.4304
▁લંચ	-11.4304
▁પ્રોત્સાહ	-11.4305
▁કેફે	-11.4305
હોર્ન	-11.4308
▁રિંગ્સ	-11.431
મેટ	-11.4312
▁ભરતી	-11.4313
▁કબજ	-11.4316
▁વિચાર	-11.4318
▁શ્વ	-11.4321
▁માસ્કોટ	-11.4322
▁ચંદ્ર	-11.4325
▁કાંટાળ	-11.4325
▁લંબાવી	-11.4325
▁કેનન	-11.4327
▁ટેકવીને	-11.4328
▁જુઓ	-11.433
▁વેન્ડ	-11.4331
▁સ્કૂલ	-11.4333
▁વરાળ	-11.4336
▁શોર્ટ	-11.4337
▁લેનાર	-11.4337
▁પેશ	-11.4338
▁પકડાયો	-11.4339
▁ટર્ન	-11.4345
▁ઓવરઓલ્સ	-11.4355
▁તેમાં	-11.4358
▁ધકેલતો	-11.436
▁મૂવી	-11.4372
▁દડાન	-11.4373
▁નજાર	-11.4377
▁રખડત	-11.4378
▁ખૂણે	-11.4381
શિર	-11.4383
▁પફી	-11.4389
ેલિયન	-11.4392
▁ટેક્સ	-11.4392
▁બ્રેડ	-11.4399
▁સાડી	-11.4402
▁પીન	-11.4407
▁પાવડર	-11.441
▁તીર	-11.4416
▁ડ્રિલ	-11.4436
▁દોરવા	-11.4444
▁લગ્નમાં	-11.4444
ેજ	-11.4454
▁ક્રેટ	-11.4456
▁જાળ	-11.446
▁ટ્રોટ	-11.447
▁સુખ	-11.4478
▁સંગીતના	-11.4481
▁ઈશારા	-11.4483
ગટ	-11.4488
▁કિલ્લા	-11.4499
▁બ્રા	-11.4503
▁શૈલીન	-11.4506
▁બાંધવા	-11.452
▁હૂપમાં	-11.4524
રોઇંગ	-11.4532
▁નાચતી	-11.4537
લાલ	-11.4541
▁સઢવાળ	-11.4549
▁પ્રવાહી	-11.4553
▁ઝુ	-11.4558
▁મિત્રન	-11.4564
▁સ્કુ	-11.4576
▁ટૂલ	-11.4588
▁ફૂટબોલરો	-11.4591
▁ચડાવે	-11.4596
▁દો	-11.4596
▁ખાડા	-11.4598
ાવતો	-11.4602
▁ધુમ્મસ	-11.461
▁શેવાળવાળ	-11.462
▁કચરા	-11.4622
▁ખેતરો	-11.4626
▁હેલ્મેટવાળ	-11.4627
▁થિયેટર	-11.464
▁એક્શન	-11.4644
ઓન	-11.4646
▁સાંકળો	-11.4649
નર	-11.4678
▁દિશામા	-11.4678
▁લગાડત	-11.468
ગિંગ	-11.4686
▁બનાવવાન	-11.4687
▁ફફડાવી	-11.469
▁તળ	-11.4729
▁ઝાડીઓમાં	-11.474
▁કેમ	-11.4745
▁શિખરો	-11.4755
▁કાઉ	-11.4756
▁સિલ	-11.4757
▁કરાવે	-11.4759
▁ત્યા	-11.4761
▁સ્ટિક	-11.4777
▁સ્લી	-11.4799
▁લોક	-11.4812
▁લંગ	-11.4813
▁તરંગમાં	-11.4823
▁લટકાવવા	-11.4824
▁રેપ	-11.4824
કો	-11.4845
તાં	-11.4846
▁પહાડન	-11.4862
▁કેમ્પસાઇટ	-11.4869
સમાં	-11.4873
નિક	-11.4874
▁પ્લેટો	-11.4878
▁સર્ફબોર્ડર	-11.4881
▁ચર્ચન	-11.49
િઝન	-11.4905
▁મૂકવા	-11.4907
▁દિ	-11.4911
▁માથાન	-11.4916
વીન	-11.4917
▁ભૂપ્રદેશમાં	-11.4939
ોના	-11.4958
▁કૂતરાં	-11.496
્ક	-11.4968
ેટીમાં	-11.4968
▁ગ્રીનહાઉસ	-11.4985
▁બાંધ	-11.4985
ીઝ	-11.4988
▁પીરસવા	-11.4989
▁ઝું	-11.5037
▁રસોઈ	-11.5048
▁પહાડોન	-11.506
▁આરસન	-11.5065
▁નળીમાં	-11.5072
ઝર	-11.5075
▁જાણ	-11.5088
ટ્રીમ	-11.5099
▁ક્રોસબોન્સ	-11.5118
▁હોલમાં	-11.5126
યર	-11.5129
કામ	-11.513
ધ	-11.513
▁બા	-11.5131
▁ક્રિયામાં	-11.5145
▁સાર્વ	-11.5145
થા	-11.5147
▁સીલ	-11.5157
▁મફ	-11.5165
▁બિયર	-11.5169
ોર	-11.5178
ત્ર	-11.5181
ત્ત	-11.5185
▁બિ	-11.5212
▁ટર્	-11.5214
છ	-11.5218
▁પરાગરજ	-11.5222
▁વેચત	-11.5248
વાર	-11.5249
▁રક્ષ	-11.5261
▁તરવા	-11.5277
▁છરી	-11.5282
▁ગોંડોલા	-11.5295
▁મિટ	-11.5313
▁સામયિકો	-11.5315
▁જળમાર્ગ	-11.5316
▁જણ	-11.5327
ીદાર	-11.534
બોટ	-11.5341
▁પોટ	-11.5342
ૂન	-11.5361
ચાર	-11.5361
▁સ્લે	-11.5369
લીલા	-11.5388
▁ખંડેર	-11.5389
▁નરસંહાર	-11.5405
▁સંદ	-11.5411
▁બદ	-11.5425
▁અરીસ	-11.544
▁હા	-11.5472
▁પ્રવાહન	-11.5501
▁ગર	-11.5533
▁સેઇલબો	-11.5533
▁લંબ	-11.5539
▁ગળાન	-11.5543
▁લાગ	-11.5551
▁ઈ	-11.5559
શો	-11.5569
▁એરિય	-11.5577
▁ફ્લ	-11.5597
રંગ	-11.5607
ુશી	-11.5619
▁રહેવા	-11.5619
▁નીકળવા	-11.5658
ચર	-11.5666
▁ખસેડ	-11.5682
▁ઉત્સવન	-11.569
મીણ	-11.5693
▁ચાંચિયા	-11.5695
▁પાંજરા	-11.5704
▁સ્ટ્રીમમાં	-11.5705
▁ઝુકે	-11.5711
પાર્કમાં	-11.5723
▁પિક	-11.5737
લ્ટ	-11.575
▁છાંટવા	-11.5754
હિલ	-11.5764
નમાં	-11.5774
▁બાઇકિંગ	-11.5778
▁રંગાયેલ	-11.5786
▁મારત	-11.5794
▁વિન્	-11.5799
▁બપોરન	-11.5805
▁પ્રગટાવ	-11.5823
▁લોકર	-11.5826
▁પર્વતોન	-11.5828
▁ટ્યૂલિપ્સ	-11.5828
▁કુ	-11.5831
▁મળ	-11.5831
બોક્સ	-11.5837
▁બચ્ચા	-11.5854
▁મૂક	-11.5858
▁લાગેલ	-11.587
▁ગાદીવાળ	-11.588
કેચર	-11.5899
▁માર્શમાં	-11.5905
▁ઘૂ	-11.5915
ટો	-11.5924
▁કૂદ	-11.5924
▁આવવાન	-11.5927
▁શેવાળ	-11.5942
▁ફર્નિચર	-11.5963
▁ગુફા	-11.5985
▁પૈડા	-11.6009
▁ડંક	-11.6017
વિઝ	-11.6018
▁ચીંથર	-11.6031
શૈલીન	-11.6043
▁વિન્ડ	-11.6048
પોપ	-11.6049
લિફ્ટ	-11.6051
અલ	-11.6077
▁ગા	-11.6094
▁ખર	-11.6118
▁મુખ	-11.6122
▁છીછર	-11.6124
▁દસ	-11.6134
▁પ્લેપેન	-11.6145
▁કૂકી	-11.617
▁ફસા	-11.6173
લાસો	-11.6174
કેસ	-11.6187
રેલા	-11.6197
▁ચાહક	-11.6199
▁રસ્તાન	-11.6203
▁બ્રેડન	-11.6207
ાકાર	-11.6207
▁લાઈટ	-11.6211
▁પાંખ	-11.6216
▁ઉંમરન	-11.6218
▁ઝૂકત	-11.6223
દલી	-11.6227
▁હાર્ડહાટ	-11.6231
▁મગરન	-11.6239
▁કોર્ડ	-11.6239
▁ટ્રંક	-11.6242
સ્ટ્ર	-11.6245
▁રાત	-11.6265
▁અટવા	-11.6271
▁લોન્ચ	-11.6274
▁હિટ	-11.6276
▁ગામડા	-11.6287
▁સિંહ	-11.6292
ેમ્પ	-11.6293
મોબાઇલ	-11.6294
▁ઉદઘાટન	-11.6295
▁મહાસાગર	-11.6295
▁ઊંધુંચત્તુ	-11.6295
▁કર્મચારી	-11.6295
▁કેમકોર્ડર	-11.6295
▁ક્રમાંકિત	-11.6295
▁જિમ્નાસ્ટ	-11.6295
▁ડર્બી	-11.6295
▁મિલ્કશેક	-11.6295
▁મુંડાવેલ	-11.6295
▁રિસેપ્શન	-11.6295
▁વ્યાયામ	-11.6295
▁શિક્ષક	-11.6295
▁શિબિર	-11.6295
▁સનશેડ	-11.6295
▁સ્પ્લિટ	-11.6295
▁હથેળી	-11.6295
▁હેરસ્ટાઇલ	-11.6295
▁અધૂર	-11.6295
▁ઈલેક્ટ્રોનિક	-11.6295
▁કોન્ડોમ	-11.6295
▁ડરામણ	-11.6295
▁ડિફેન્ડર	-11.6295
▁રાત્રિભોજન	-11.6295
▁વોશિંગ્ટન	-11.6295
▁સર્પાકાર	-11.6295
▁સિવાય	-11.6295
▁પોઈન્ટ	-11.6295
▁શખ્સ	-11.6295
ફાઈવ	-11.6295
▁ગોફણ	-11.6295
▁ક્લોવર	-11.6295
▁પોપ્સિકલ	-11.6295
▁ફાનસ	-11.6295
▁ઇંડા	-11.6295
▁સ્પાઇડરમેન	-11.6295
▁પ્લાન્ટ	-11.6295
▁લેગોસ	-11.6295
▁વણાટ	-11.6295
▁એન્જિન	-11.6295
▁બેટ્સમેન	-11.6295
▁આથમ	-11.6295
▁ઝિગ	-11.6295
▁વોટરસ્કિયર	-11.6295
▁વરંડા	-11.6295
▁ફોકસ	-11.6295
▁રેલમાર્ગન	-11.6295
▁ડિનર	-11.6295
▁સુવિધા	-11.6295
▁ચેઇન	-11.6295
▁પ્રમાણ	-11.6295
▁ચાર્જ	-11.6295
▁ફાસ્ટ	-11.6296
▁વોટરફ્રન્ટ	-11.6296
▁બેગપાઇપ	-11.6296
▁નોંધ	-11.6296
▁બોનેટ	-11.6296
▁ઓરડો	-11.6296
ેની	-11.6297
▁ભડક	-11.6297
▁સાંભળવા	-11.6297
વધૂ	-11.6297
▁ફ્લીસ	-11.6297
▁માર્ક્સ	-11.6297
▁ઓવરકોટ	-11.6298
▁સિંહણ	-11.6298
▁બ્લફ	-11.6299
▁સહાય	-11.6299
▁લીલોતરી	-11.6299
▁મોટરક્રોસ	-11.6299
▁કેરિયર	-11.63
▁અનોખ	-11.63
▁પાર્લર	-11.63
▁ક્રોક્સ	-11.63
▁એક્રોબેટિક	-11.63
▁હેન્ડગન	-11.63
▁સ્ક્રબ	-11.63
▁પાસ્તા	-11.63
▁ડેંડિલિઅન્સ	-11.6301
▁ગટર	-11.6301
▁સંખ્યા	-11.6301
▁ગોથ	-11.6302
▁મીટર	-11.6303
▁હાથમોજાં	-11.6303
▁હેવી	-11.6304
▁જમાનાન	-11.6304
▁પ્રશિક્ષક	-11.6305
▁ટાઇલ્સ	-11.6306
▁સ્પેસ	-11.6307
▁ગોરો	-11.6308
▁બકરીઓ	-11.6308
જનક	-11.6309
▁ગ્રાસ	-11.6309
▁નાઇટ	-11.631
▁પડતાં	-11.6311
▁ગરદનવાળું	-11.6312
▁બાકીન	-11.6313
▁ઉચ્ચાર	-11.6313
ત્રિક	-11.6315
▁ડ્રાઇવવે	-11.6315
▁સુપર	-11.6315
▁ટેરિયર્સ	-11.6316
હદ	-11.6316
▁વેક	-11.6317
ટાઉન	-11.6318
▁વાંદરો	-11.6318
▁વેણી	-11.6318
▁આખલો	-11.6319
ુનિક	-11.6319
▁દીધું	-11.632
▁સ્ટાઇલ	-11.6321
▁લાઇટ્સ	-11.6322
▁ટાંકીમાં	-11.6323
▁બિબ	-11.6324
▁માછલીઓ	-11.6326
▁મૂછવાળ	-11.6326
લ્પ	-11.6326
▁વિરોધીઓ	-11.6327
▁ફ્લેટ	-11.6327
▁મેક્સ	-11.6328
▁શાહી	-11.633
▁બટર	-11.6331
▁ઘટના	-11.6332
▁સુટ	-11.6333
ીકન	-11.6334
▁હિમ	-11.6334
▁કચરાન	-11.6336
▁મિક	-11.6337
▁દીધો	-11.6337
▁હોપ	-11.6339
ડોગ્સ	-11.6339
▁લેમ્પ	-11.6341
▁પેકેટ	-11.6343
▁ડોજ	-11.6347
▁દેવાયેલ	-11.6349
▁એકાંત	-11.6349
▁ટચ	-11.6352
▁આવનાર	-11.6359
▁આપતાં	-11.6359
▁ઉંચકી	-11.6365
▁ઘોડેસવારો	-11.6367
વોક	-11.6371
▁કોપ	-11.6375
▁અટવાયેલ	-11.6377
▁ઠેલો	-11.6379
▁ફિટ	-11.638
▁બેડરૂમ	-11.6381
▁જેન	-11.6381
▁પર્ફોર્મ	-11.6381
▁સાંકડ	-11.6389
▁ટેકરાઓ	-11.639
્વ	-11.639
▁જીવન	-11.6391
▁સિક્વ	-11.6392
▁પેસ	-11.6393
▁માસ્ટર	-11.6393
ંક	-11.6395
રોપ	-11.64
▁બાથરૂમ	-11.6404
સક્રિય	-11.6406
▁લહેરાતો	-11.6407
▁સૂચ	-11.6408
▁હેડડ્રેસમાં	-11.6411
▁સૂતેલું	-11.6412
▁ફ્લોપ્સ	-11.6413
▁ચેસ	-11.643
▁ઓડિ	-11.6436
▁સ્ટેપ	-11.6443
▁પસંદ	-11.6448
▁દિવસન	-11.6449
▁વાજ	-11.6449
▁માર્યો	-11.6464
▁છુપાવ	-11.6471
▁ચઢત	-11.6479
▁લાસો	-11.6484
▁સિક્ય	-11.65
બમાં	-11.6515
▁ઉગ	-11.6524
▁ટાળ	-11.6528
▁ગધેડા	-11.6532
રૂપ	-11.6533
▁પાક	-11.6534
્ચ	-11.6538
▁ખોદે	-11.6539
▁ઉત્સ	-11.654
લે	-11.6543
▁પડછાયા	-11.6548
િંગ્સ	-11.6551
▁ગોચરમાં	-11.6558
ીઝર	-11.6567
▁હોલવેમાં	-11.6568
▁કાચબ	-11.6569
▁ગ્રિ	-11.6572
સ્	-11.6576
▁વધાર	-11.6577
▁પ્લેહાઉસમાં	-11.6579
▁માછીમારો	-11.6585
▁સ્કાયલાઇનન	-11.6611
▁ફ્લાયર	-11.6616
શાળા	-11.6625
▁અજમાવી	-11.6629
ુક	-11.6632
▁વાહનોન	-11.6632
▁સૂકવી	-11.6638
▁ફળો	-11.6646
▁ગર્લ	-11.6655
ાઈન	-11.6663
▁પોસ્ટરો	-11.6675
▁તંબુન	-11.6686
▁સાથ	-11.6702
▁ગોળો	-11.6703
હાઉસ	-11.6711
નિશ્ચિત	-11.6713
▁અદ	-11.6714
ટા	-11.6728
▁ફોટોગ્રાફરો	-11.6729
ફી	-11.6747
▁ધકેલવા	-11.6752
ાડી	-11.6752
િંકર	-11.6789
દારો	-11.6793
▁બગી	-11.6799
▁બાય	-11.6807
▁ચોંક	-11.6823
▁ઓછ	-11.6826
▁ગતિ	-11.6832
▁અભ્યાસક્રમ	-11.684
▁નિર્	-11.6843
▁ચીંધી	-11.6847
▁ગુ	-11.685
▁સાઇડકાર	-11.6851
્લોપ	-11.6859
▁સાધ	-11.6863
▁ટુકડાઓ	-11.6878
▁બાજુન	-11.6881
▁સ્ત્રીન	-11.6901
મેટ્સ	-11.6918
▁ચામડી	-11.6922
▁મોટ	-11.6933
ઓમાં	-11.6943
▁મશીનો	-11.6955
ાઈટ	-11.6963
▁ફુ	-11.6974
▁કમાનવાળ	-11.6981
▁ખેંચાયેલ	-11.6982
્રસ્ત	-11.6985
ંટ	-11.7013
▁ઉત્સવમાં	-11.7018
ાવાળા	-11.7025
▁બ્લ	-11.7027
▁છાતીવાળ	-11.7033
કલ	-11.7043
▁ફાઇલ	-11.7046
▁હો	-11.7053
મેઇડ	-11.7059
▁પૂછ	-11.7065
ાઉન્ડ	-11.7074
▁ફૂટબોલન	-11.7085
▁આગમાં	-11.7085
▁નીચો	-11.7095
▁સુકા	-11.7095
▁ખવડાવવા	-11.7103
▁સમાપ્ત	-11.7133
▁રાખત	-11.7139
ઘા	-11.7142
મારી	-11.7143
ણું	-11.7159
▁ઓશીકા	-11.716
▁ક્લ	-11.7165
વાઇ	-11.7166
▁વિઝ	-11.7171
ચ્યુ	-11.7172
▁બનાવ	-11.7173
▁પેરાસેલર	-11.7175
▁નાખવા	-11.7182
ગલ	-11.7184
▁આનંદી	-11.7197
▁જોડા	-11.7203
▁મોલ	-11.7203
ેગી	-11.7219
કન્ટ	-11.7241
ાઓ	-11.7276
▁એલી	-11.7288
▁સ્ટ્રક્ચરન	-11.7296
▁પેચમાં	-11.7317
▁મોબાઈલ	-11.7338
▁સાંજે	-11.7347
ડતો	-11.7348
▁પાત્રો	-11.7349
▁સીવ	-11.7363
▁ફ્રી	-11.7372
▁વાઇનના	-11.7374
▁હુમલા	-11.7384
તન	-11.7395
▁પોશાકો	-11.7416
▁કાનવાળ	-11.7425
▁ગુફાન	-11.744
▁કાઢત	-11.7451
બોગન	-11.7456
યાન	-11.7463
ર્ન	-11.7526
▁ટેન્ટમાં	-11.7544
▁ભૂર	-11.7545
▁ઝાકળ	-11.7545
▁સૂર્યન	-11.7546
▁ભવ	-11.7551
ોટ	-11.7557
▁ક્ષ	-11.7563
ર્ડર	-11.7583
▁રિટ	-11.7583
▁ક્રૂ	-11.7636
ઝેગ	-11.7656
િગ	-11.7662
▁જમ	-11.7666
ગ્સ	-11.768
▁ચાંદી	-11.7683
▁અખાડા	-11.7689
▁જંગલોમાં	-11.7689
રાઉન્ડમાં	-11.7696
▁ગ્રાહક	-11.7707
▁બંદર	-11.7709
▁અટકાવવાન	-11.7716
▁સ્ન	-11.7726
પેડ	-11.7737
સૂટમાં	-11.7745
▁ગંધ	-11.7754
▁પોની	-11.7764
ર્ના	-11.7783
▁ડ્રે	-11.7791
▁લપેટ	-11.7814
▁શેડમાં	-11.7835
▁હોવાન	-11.7837
▁બબ	-11.784
▁કરાયેલ	-11.784
ાડોર	-11.7853
▁વહે	-11.7891
▁તૂટ	-11.7907
▁વિદ્યાર્થીઓન	-11.7914
▁ઉદ	-11.7916
રિટી	-11.7928
▁શેરીઓ	-11.7932
▁યુદ્ધ	-11.7937
▁પીસત	-11.7942
▁વાસણમાં	-11.7951
▁બિલ્ડિંગમાં	-11.7951
▁ક્રેક	-11.7952
▁દરવાજ	-11.7961
▁મેસ	-11.797
ન્ટલ	-11.7984
▁ઘેરાયેલ	-11.7986
ભ	-11.799
▁હાડકા	-11.7994
▁ડ્ર	-11.7999
ોક	-11.8002
▁થાક	-11.801
▁ગ્લાસમાં	-11.801
વેર	-11.8049
▁ધૂ	-11.8052
▁પેનલ	-11.8058
▁સેલ	-11.8076
અર	-11.8089
ઉં	-11.8101
▁મોડેલ	-11.8102
બર્ટ	-11.8107
▁સસલાન	-11.8108
▁વાનગી	-11.8119
▁ચોંટે	-11.8119
ીલ	-11.8123
▁તોફાનમાં	-11.8135
▁નકશા	-11.8141
ધારણ	-11.8145
▁કલ	-11.8148
▁કન્ટેનર	-11.815
કેટ	-11.8157
દેશમાં	-11.8162
▁રેફ્રિજરેટર	-11.8173
પ્	-11.8176
▁પાસ	-11.819
ટને	-11.8209
સ્ટિક	-11.821
▁શૌચાલય	-11.8215
▁કિનાર	-11.8223
▁અગ્નિન	-11.8227
▁જાગ	-11.8282
ટીન	-11.8284
▁જોનાર	-11.8298
ક્કર	-11.8298
સુટ	-11.8314
▁ઘોડેસવાર	-11.833
▁સો	-11.8333
▁ઊંઘ	-11.8337
િટી	-11.8341
▁પક્ષીન	-11.8344
ફ્રો	-11.8346
▁હરણન	-11.8356
▁અજમાવ	-11.8383
મન	-11.839
▁બ્રાઉ	-11.8397
▁હિપ	-11.8419
સ્ક	-11.8421
ુવાન	-11.8422
ીવે	-11.8429
▁કર્લ	-11.8438
કિત	-11.8441
▁લટકેલ	-11.845
્શનમાં	-11.8451
▁વચ્ચ	-11.8455
▁વહેંચ	-11.8456
કરી	-11.846
▁ગુલાબ	-11.8477
પાલન	-11.8487
▁અમ	-11.8488
પાળ	-11.8504
▁પીંછા	-11.8515
રંગીન	-11.8516
ીજો	-11.8523
સ્નાન	-11.8533
ગ્રાઉન્ડ	-11.8534
પળિયાવાળો	-11.8542
મંડ	-11.8547
▁ગ્રેફિટ	-11.8548
▁ફટકા	-11.8584
વિક	-11.8595
▁ચેર	-11.86
▁કાં	-11.8602
પ્લેન	-11.8605
▁ગેમમાં	-11.8609
ાયેલું	-11.8625
▁વેચવા	-11.8641
હી	-11.8643
વચ	-11.8657
કાર	-11.8659
▁પાત્ર	-11.8664
હેલ	-11.8665
▁મિલ	-11.8678
ોર્ટ	-11.8681
ેવા	-11.869
▁ભાવ	-11.8698
ઇસ	-11.8704
પલ	-11.8707
્ટેશન	-11.871
ોડે	-11.8727
▁બેકગ્રાઉન્ડ	-11.8737
સાઇડ	-11.8763
▁નીકળતા	-11.8766
▁કૅપ	-11.8769
ત્મ	-11.877
ષ	-11.8784
▁પથરાયેલ	-11.8789
ક્શન	-11.8789
▁પીરિયડ	-11.8791
▁નૂડલ	-11.8792
▁સૂનર	-11.8793
▁મીણબત્તી	-11.8793
▁ગલુડિયા	-11.8793
▁જિમ્નેસ્ટિક	-11.8793
▁કુતૂહલ	-11.8795
ગીગોલો	-11.8795
▁અનુભવ	-11.8795
▁આઇપોડ	-11.8795
▁એટીએમ	-11.8795
▁કોન્ક્રીટ	-11.8795
▁ગુલદસ્ત	-11.8795
▁ચૂકવણી	-11.8795
▁ચેતવણી	-11.8795
▁ઝોમ્બ	-11.8795
▁ધીરજ	-11.8795
▁પત્થર	-11.8795
▁પોઇન્ટ	-11.8795
▁બર્નાર્ડ	-11.8795
▁બ્રેસલેટ	-11.8795
▁રાષ્ટ્ર	-11.8795
▁લવંડર	-11.8795
▁વનસ્પતિ	-11.8795
▁વર્ગખંડ	-11.8795
▁સાવચેતી	-11.8795
▁સ્પેશિયલ	-11.8795
▁અંધકારમ	-11.8795
▁ઇગ્લૂ	-11.8795
▁ખેડૂત	-11.8795
▁જ્વેલરી	-11.8795
▁ડમ્પસ્ટર	-11.8795
▁તહેવાર	-11.8795
▁થૂંક	-11.8795
▁પ્રવૃત્તિ	-11.8795
▁મખમલ	-11.8795
▁મૂંઝવણ	-11.8795
▁શાકભાજી	-11.8795
▁સમારંભ	-11.8795
▁સૈન્ય	-11.8795
▁તાંબાન	-11.8795
▁ત્રિકોણ	-11.8795
▁પ્રાંગણ	-11.8795
▁મહેનત	-11.8795
▁રજાઇ	-11.8795
▁ડીંટડી	-11.8795
▁વાક્ય	-11.8795
▁આલ્બ	-11.8795
▁ઇયરિંગ્સ	-11.8795
▁ઓપરેટ	-11.8795
▁ધ્રુજારી	-11.8795
▁બેરિકેડ	-11.8795
▁ખાટલા	-11.8795
▁વિજય	-11.8795
▁પ્રકૃતિ	-11.8795
▁સોંપ	-11.8795
▁કેસિનો	-11.8795
▁ઉત્તેજ	-11.8795
▁વીટન	-11.8795
▁ઘરેણાં	-11.8795
▁સ્માર્ટ	-11.8795
▁કવિતા	-11.8795
▁પ્રસંગ	-11.8795
▁સજાવટ	-11.8795
▁એવોર્ડ	-11.8795
▁નાઇકી	-11.8795
▁હેડલાઇટ	-11.8795
▁ટેથર	-11.8795
▁સમરસ	-11.8796
▁સ્વેમ્પ	-11.8796
▁પોંચો	-11.8796
▁સંચાલ	-11.8796
▁રસોઈયા	-11.8796
▁ગુમાવ	-11.8796
યુક્ત	-11.8796
▁વંશીય	-11.8796
▁શોગર્લ	-11.8796
▁મિટન્સ	-11.8796
િવલમાં	-11.8796
▁ડર્ટબાઈક	-11.8796
▁લંબાવ્યો	-11.8796
▁ગ્રુ	-11.8796
▁વેચાણ	-11.8797
▁રોવર્સ	-11.8797
▁ટૂથ	-11.8798
▁લિમો	-11.8798
ઘુ	-11.8798
ોચ	-11.8798
▁સ્ટાફ	-11.8798
▁સ્ટેપ્સ	-11.8798
▁એન્જ	-11.8799
▁જુગલ	-11.8799
▁સૅ	-11.8799
▁ગ્રુપ	-11.8799
▁ઝૂંપડીઓ	-11.8799
▁પાદરીઓ	-11.88
▁તોરણ	-11.88
▁ફસાયેલ	-11.8801
▁નીકળ્યા	-11.8801
▁સિંક	-11.8801
▁બંગડી	-11.8802
▁બગલો	-11.8802
▁સાધુ	-11.8803
▁ટીપ્સ	-11.8804
▁મોકળ	-11.8804
▁ચિપ્સ	-11.8804
▁નમતો	-11.8804
▁થ્રી	-11.8804
▁જનારાઓ	-11.8804
▁મીટિંગ	-11.8805
▁પરસેવ	-11.8806
▁હરડે	-11.8806
▁વટાવ	-11.8806
▁ઢોર	-11.8807
▁રોલ્ડ	-11.8807
▁અમ્પ	-11.8807
લૂન	-11.8809
▁શેતાનન	-11.8809
▁પુરસ્કારો	-11.8809
▁જોયો	-11.8809
▁કોણી	-11.881
▁પોસ્ટ્સ	-11.881
▁ભીંજાયેલ	-11.8812
▁કેનેડ	-11.8812
▁ફ્રિ	-11.8813
▁નિર્માણ	-11.8813
▁સાઉન્ડ	-11.8814
▁વરુ	-11.8815
▁સાંભળતી	-11.8817
વાદક	-11.8817
▁ડગલ	-11.8817
▁વળ્યા	-11.8818
▁નમતી	-11.8821
ડ્રેસમાં	-11.8821
▁બોરીઓ	-11.8822
ઈટર	-11.8822
▁રડવાન	-11.8823
▁પેરા	-11.8824
ઈન્સ્ટ	-11.8825
▁સંભવ	-11.8826
▁ફિ	-11.8828
▁નહાત	-11.8829
▁એલિવેટર	-11.8829
ફ્રન્ટ	-11.8836
ાળા	-11.8837
▁સ્ટેક	-11.8838
▁લૂપ	-11.884
▁શૂ	-11.8841
▁સ્ટ્રેપ	-11.8842
▁સ્પર્ધ	-11.8843
▁સ્પ્રિંગ	-11.8843
▁કાગડ	-11.8844
▁બિંદુ	-11.8844
▁ફેંક્યો	-11.8849
▁શુ	-11.885
▁પૂંછડીઓ	-11.885
▁વર્ત	-11.8851
▁ચામડીવાળો	-11.8852
▁લેબલ	-11.8855
▁ટેટૂવાળ	-11.8858
▁શૉટ	-11.8859
▁ગોઠવણ	-11.8863
▁હેડસ	-11.8863
▁હોપર	-11.8865
▁ટ્રેલર	-11.8867
▁સ્પોન્	-11.8868
▁સફ	-11.8874
▁ટેરેસ	-11.8878
▁સર્વ	-11.8879
▁હેરક	-11.8889
▁દોડનાર	-11.8891
▁ચડતું	-11.8892
▁પિગટેલ્સ	-11.8895
▁કિકબોક્સ	-11.8896
▁મેળાવડા	-11.8897
▁મગર	-11.8901
▁તલવારબાજી	-11.8902
▁અવરોધન	-11.8903
ટોરિય	-11.8906
▁હાથીઓ	-11.8907
વાળ	-11.8915
▁બચ	-11.8915
▁કાંટાવાળ	-11.8916
▁ઢોળાવવાળ	-11.8917
શત	-11.8922
▁પહેલવાન	-11.8927
▁મજાક	-11.8929
▁કુશ	-11.8929
▁પગન	-11.893
▁નાઈટ	-11.8932
▁બોડીબોર્ડ	-11.8935
▁સ્પાર્ક	-11.8935
▁ઉછળતો	-11.8937
▁લાઇટિંગ	-11.8938
▁સળગાવી	-11.8944
▁મણકાવાળ	-11.8947
▁ચિત્ત	-11.8953
▁સ્વ	-11.8956
▁ઇન	-11.8971
▁ઇ	-11.8971
▁ડાઈ	-11.8977
▁સાવધાની	-11.898
▁દુપટ્ટ	-11.8984
▁કલાન	-11.8985
▁શેરડી	-11.8991
્ક્યુ	-11.8997
્પેટ	-11.8998
તમ	-11.8999
▁ખેંચતા	-11.9008
▁લીપ	-11.9025
▁ડુક્કરન	-11.903
▁ચીયર	-11.9031
રન	-11.9039
જેક્ટ	-11.9045
▁ચાવવા	-11.9052
ારી	-11.9062
ંથ	-11.9067
ંગડા	-11.9068
ડતી	-11.9068
▁ટેબી	-11.9072
▁મેટ	-11.9077
▁ટેકવી	-11.9078
▁દીકરી	-11.9083
િસ્ટ	-11.9086
▁મિની	-11.9088
▁ક્ષણ	-11.9102
▁રમતવીરો	-11.9104
▁ઉડાવત	-11.9106
ાર્ક	-11.9115
▁નાળામાં	-11.9123
▁રહેત	-11.9126
▁ફ્રિસ્બીન	-11.9145
▁લહેરો	-11.9146
▁મગ	-11.9148
▁નાવડીઓ	-11.9156
સ્મિ	-11.9157
▁ફાટ	-11.9158
▁તળિયા	-11.9162
ન્ડ્ર	-11.9172
▁ઝાકળવાળ	-11.9174
▁વેધ	-11.9175
ોકલે	-11.9179
▁સેન્ટર	-11.9179
▁નમેલ	-11.918
▁જમ્પમાં	-11.9181
▁લંબાયેલ	-11.9182
▁ક્રોક	-11.9185
▁કાર્	-11.9194
ાર્ટર	-11.9202
▁યુનો	-11.9203
▁દાઢીવાળ	-11.9215
▁દંડ	-11.9218
▁અથડાયા	-11.9225
▁ફર્નિચરન	-11.9237
▁લખાણવાળ	-11.9241
▁સન્	-11.926
▁તી	-11.9264
ીમાં	-11.9271
▁લાગી	-11.9288
▁ધારક	-11.9291
▁ફૂંકાત	-11.9292
▁જાળવવા	-11.9294
▁ઘા	-11.93
▁ઢળ	-11.9321
▁ભમરવાળ	-11.9324
▁ફેંકાય	-11.9341
▁કેમ્પસમાં	-11.9357
▁લોટ	-11.9357
ભુત	-11.9359
▁ભરાયેલ	-11.9363
્રે	-11.9372
▁આઈ	-11.9373
▁શ્રેણી	-11.9384
રામ	-11.9387
મ્સ	-11.9399
▁પગવાળ	-11.9401
રંપર	-11.9409
યો	-11.9414
ભર	-11.9414
▁વુડ	-11.9416
▁ટેક્સી	-11.9427
▁ઘરે	-11.9432
▁પ્રગટાવી	-11.9434
▁મચાવ	-11.9437
▁બળ	-11.9438
▁માલસામાન	-11.9457
▁હેમબર્ગર	-11.9457
▁ડુ	-11.946
▁પુ	-11.9461
▁કેથ	-11.9464
▁અમાર	-11.9464
▁ડેન	-11.9465
▁પ્રતિમાન	-11.9474
▁ડો	-11.9476
ંગી	-11.9488
▁ધ્રુવન	-11.9491
▁કોટન	-11.9491
ઉન્	-11.9497
▁જીત	-11.9506
લ્ટી	-11.9532
બલ	-11.9536
હાલ	-11.9549
▁સ્ટેડિયમન	-11.9561
સ્કેટિંગ	-11.9562
▁વાંચ	-11.9567
▁સ્ટોક	-11.9573
▁હૂક	-11.958
▁ફેરી	-11.959
▁ડેલ	-11.959
મમાં	-11.9603
ેસ્ટ	-11.961
▁સ્ક્વેરમાં	-11.9618
▁ગાદીવાળા	-11.9622
▁બિન	-11.9636
ોઇંગ	-11.9665
▁સરકત	-11.9673
▁હાથી	-11.9679
ડિયા	-11.9705
▁બ્લુજીન	-11.9735
▁પ્રો	-11.9737
▁બાળકી	-11.9748
▁પાન	-11.9756
સ્ટોન	-11.9758
જન	-11.9761
▁કોટવાળ	-11.9777
મી	-11.978
લાબ	-11.9782
▁ત્રણે	-11.9785
▁રમકડામાં	-11.9791
સેલ	-11.9808
▁આક્રમ	-11.9809
▁રેસલર	-11.9818
▁આર્કેડમાં	-11.9841
▁ફીણવાળ	-11.9846
▁હોઠવાળ	-11.9848
▁સાધનોન	-11.9853
▁બ્લે	-11.9857
▁તારા	-11.9862
▁હોકીન	-11.9871
સ્યુટ	-11.9877
નીચે	-11.988
▁નક્ક	-11.9886
▁ઉડવા	-11.9887
▁ચોંટેલ	-11.9895
રિક	-11.9897
મેટિયન	-11.99
રેલી	-11.9903
▁પતંગો	-11.9903
પાન	-11.9909
▁ક્ર	-11.991
▁પાત્રમાં	-11.9915
▁છલકાત	-11.9934
ફોમ	-11.9944
▁પેકમાં	-11.9947
▁કદા	-11.9991
▁પૂંછડીવાળ	-12.0007
▁બંદરમાં	-12.0018
ડિંગ	-12.002
ખે	-12.0043
▁જાહેરાતન	-12.0054
▁ટોળ	-12.0057
સમા	-12.0057
▁ઉનાળા	-12.0067
▁મોપ	-12.008
▁ચોંટાડ	-12.0089
▁ભય	-12.0113
▁બેઝબોલન	-12.0168
એમએ	-12.0172
▁અંગૂઠાન	-12.0179
બ્ર	-12.0227
ાઇટ	-12.0229
▁લાઇ	-12.0243
િપ્સ	-12.026
▁લિફ્ટમાં	-12.0266
વિ	-12.0267
જા	-12.0269
▁સ્કે	-12.0269
▁વન	-12.0274
▁ધર	-12.0286
કા	-12.029
▁કૅમેરામાં	-12.0291
▁સળ	-12.0296
▁પાંદડામાં	-12.0296
ુએ	-12.0311
▁ફેબ્રિકન	-12.0312
▁ઊડત	-12.0312
▁આક	-12.0324
▁પાઠ	-12.0331
▁પરાગરજમાં	-12.0362
કની	-12.0385
▁ખુલ	-12.0387
ડું	-12.0424
▁ખોરાકન	-12.0431
▁વેલા	-12.0434
▁હેન્ડલબારન	-12.0449
અને	-12.0452
▁બિયરન	-12.0464
▁મોન્	-12.0469
ાવડો	-12.0474
કરણ	-12.048
▁એમ	-12.048
▁હીર	-12.0497
ષણ	-12.0499
▁હે	-12.0523
▁ઇમારતોન	-12.0543
▁પૂર્વ	-12.0556
▁રણન	-12.0571
▁બોલતો	-12.0582
જાગ	-12.0595
ાયલ	-12.0596
યાં	-12.0608
જિસ્ટ	-12.0612
મેલ	-12.0622
▁છોડવા	-12.0636
સ્પ	-12.0644
▁ઓબામાન	-12.0645
રૂફ	-12.0699
ીક	-12.0707
મોટ	-12.0729
▁સ્ટ્ર	-12.0738
સ્ટિંગ	-12.0758
ોપ્સ	-12.0766
▁ઈંટો	-12.0851
▁ફેશનન	-12.0869
મ્બો	-12.0871
▁સન	-12.0875
ાસ	-12.0919
ંગના	-12.0921
▁કાનન	-12.0925
▁દાદરન	-12.093
ન્જ	-12.0936
▁બોલમાં	-12.0937
▁રીંગમાં	-12.0942
ળતા	-12.0952
ંચ	-12.0957
▁ચપળતાન	-12.0959
▁વરસાદન	-12.0979
▁સાંતાન	-12.0987
▁હાર્	-12.099
▁પોમ	-12.0994
▁વિલ	-12.1003
▁હાંફ	-12.1009
▁ટાંકામાં	-12.1012
નારાઓ	-12.1014
▁પ્લાઝા	-12.1034
પોટેડ	-12.1038
▁સ્પ્રિંકલરમાં	-12.1068
▁સમુદાય	-12.1069
▁પાડત	-12.1087
▁બટ	-12.1099
ૂટ	-12.1105
▁બાઇકન	-12.1109
▁સંતા	-12.1117
્યુટ	-12.1117
▁જહાજ	-12.1124
લાં	-12.1132
▁દર્શકોન	-12.1141
▁લેવાન	-12.1142
▁મરઘીઓન	-12.1153
સ્કી	-12.1164
▁સ્પ	-12.1164
▁બન	-12.1169
ન્ડી	-12.1174
▁પન્ટ	-12.1189
ઠ	-12.119
તિશ	-12.1197
ૂફ	-12.1207
ગા	-12.1213
ફોન	-12.1227
▁કેળા	-12.1227
ોન	-12.1231
▁ટાવર	-12.1305
રિયામાં	-12.1307
ળા	-12.1308
હેર	-12.1309
▁ટૂર	-12.1313
▁સળગાવ	-12.1334
▁ગલુડિયાઓન	-12.1338
્ન	-12.1354
▁પ્રતિસ્પર્ધીન	-12.1384
તૃત	-12.1388
ેઝન	-12.1394
▁મોઝ	-12.1399
ેલ્ફ	-12.1414
મણ	-12.145
▁જાળવ	-12.1476
▁બર્ગ	-12.1487
ોકર	-12.1517
ુંવાળ	-12.1551
ડતું	-12.1555
િક્સ	-12.1558
ર્થ	-12.1577
▁ડમી	-12.1581
▁ફેંકત	-12.1583
▁પૅ	-12.1584
▁તણા	-12.1587
▁તરાપોમાં	-12.1588
▁ફ્લાય	-12.1592
દર્શક	-12.1597
▁કન્યાન	-12.1603
▁બ્લૂ	-12.1603
▁સૂકવ	-12.1608
▁પકડાય	-12.1612
▁રેપલ	-12.1639
▁રા	-12.164
ાવાળી	-12.1641
ૂત	-12.1646
▁ગુસ્સ	-12.1667
▁શણગાર	-12.1667
▁ચમકાવ	-12.1675
રના	-12.1681
નિ	-12.1703
▁ખસે	-12.1703
▁કિલ્લ	-12.1708
ોટા	-12.1717
▁હૉ	-12.1719
▁જેક્સન	-12.1738
▁યુન	-12.1742
જમ્પ	-12.1745
▁ગુંબજ	-12.1753
▁હાઇસ્કૂલ	-12.1756
ૉડ	-12.176
▁ચીયરલિડ	-12.1772
હૂપ્સ	-12.178
▁નાખી	-12.1782
ફ્લિપ	-12.1798
▁ડોર	-12.1802
▁ટેબ	-12.1804
ફ્લાઇટમાં	-12.1805
▁છુપા	-12.1808
▁ડુક્કર	-12.181
વોટર	-12.1813
્ટમાં	-12.1816
▁નાકમાં	-12.1824
ચોવી	-12.1845
લાઇટ	-12.1852
કોસ્ટર	-12.1858
ૂપ	-12.186
ીના	-12.1862
પ્રિન્ટ	-12.1863
ઈસુ	-12.1865
ચોરસ	-12.1866
પસંદ	-12.1867
▁ઠ	-12.1869
પોસ્ટ	-12.1871
ાદ	-12.1872
ગ્લાઈડર	-12.1874
▁ખાઈમાં	-12.1876
▁સાવધાન	-12.1877
▁લપસ	-12.1878
હેન્ડ	-12.1881
▁કાયા	-12.1882
લર	-12.1895
ર્ક	-12.1902
ૅક	-12.1907
▁શિશુન	-12.1908
▁રાત્રિ	-12.1916
સ્ટ્રીમ	-12.1917
▁પૃથ્વી	-12.1938
જમ્પમાં	-12.1941
રહ્યો	-12.1941
▁વગાડવા	-12.1944
▁ટાઇમ	-12.1947
▁વાંસન	-12.1947
▁અભિ	-12.1949
▁હાડક	-12.1951
િગ્	-12.1954
▁બેન્ડન	-12.1957
▁કાટમાળ	-12.1958
▁ગેલેરી	-12.1963
▁મૂવ	-12.1965
▁ન્યાયાધીશ	-12.1968
▁આભૂષણ	-12.1969
▁અંધાર	-12.197
ોસ	-12.1972
▁મગમાં	-12.1983
રેડ	-12.1988
માર	-12.1997
હતી	-12.1998
▁કાફ	-12.1998
▁સમર્થક	-12.1998
કૂતરો	-12.2001
▁ઉત્સવ	-12.2001
▁ગાદલ	-12.2002
▁લોહ	-12.2002
િસ	-12.2022
બોક્સમાં	-12.2024
▁પેકેજ	-12.2031
▁અક્ષર	-12.2037
▁ઓલ	-12.2041
▁શબ્દ	-12.2048
▁થોભ	-12.205
▁દીધ	-12.2051
▁મણકા	-12.2057
્વિન	-12.2062
▁પ્રોફાઇલ	-12.2064
▁રેલિંગન	-12.2068
▁સામગ્રીન	-12.2075
િયર	-12.2077
▁કોન્સર્ટ	-12.2077
વાદળી	-12.2086
▁આર્ટવર્ક	-12.2096
▁ઉચ્ચ	-12.2096
જુ	-12.2097
▁ક્રુઝ	-12.2107
▁ઉત્પાદનો	-12.2108
▁પેરાગ્લાઈડ	-12.2108
ૅપ્સ	-12.2115
▁વ્હી	-12.2117
ુટ	-12.2121
હાડી	-12.2121
▁દીવા	-12.2122
▁ખડકોમાં	-12.2123
▁મિશ્ર	-12.2124
ારોહ	-12.2124
િપ્પી	-12.2125
▁રાહદારી	-12.2126
▁જિમ્નેસ્ટ	-12.2126
▁વંશ	-12.2127
પ્રાપ્ત	-12.2127
બ્બા	-12.2127
સ્લેડ	-12.2128
▁માઉન્ટ	-12.2128
▁મુલાકાત	-12.2128
▁વાર્તા	-12.2128
દક્ષિણ	-12.2128
લેબ્રાડૂડલ	-12.2128
▁અવકાશમાં	-12.2128
▁ઇન્ટરટ્યુબ	-12.2128
▁એક્ઝોસ્ટ	-12.2128
▁એન્ટેના	-12.2128
▁ઓટોમોબાઈલ	-12.2128
▁કોન્ટ્રાપ	-12.2128
▁ખચ્ચર	-12.2128
▁ગોટેગોટા	-12.2128
▁ઘુવડ	-12.2128
▁ઘોસ્ટબસ્ટર	-12.2128
▁ડાલ્મેટિયન	-12.2128
▁દશચ	-12.2128
▁દૃષ્ટિ	-12.2128
▁પિસ્તોલ	-12.2128
▁પેઈન્ટ	-12.2128
▁પ્રમાણપત્ર	-12.2128
▁ફિંગરપેઇન્ટ	-12.2128
▁બેકડ્રોપ	-12.2128
▁બૌદ્ધ	-12.2128
▁મજબૂ	-12.2128
▁મરજીવો	-12.2128
▁યાન્કી	-12.2128
▁લડવૈયાઓ	-12.2128
▁લવચીક	-12.2128
▁લિમોઝિન	-12.2128
▁લીઓટાર્ડ	-12.2128
▁લોખંડન	-12.2128
▁વ્યાખ્યા	-12.2128
▁સ્પાઘેટ્ટી	-12.2128
▁સ્પિગોટ	-12.2128
▁સ્પેલંકર	-12.2128
▁સ્ફટિક	-12.2128
▁અપેક્ષા	-12.2128
▁ઉતાવળ	-12.2128
▁ક્રેવેસ	-12.2128
▁ખાડાટેકરા	-12.2128
▁ટ્રાઇપોડ	-12.2128
▁પુનરુજ્જીવન	-12.2128
▁પુરવઠ	-12.2128
▁ભૂતકાળ	-12.2128
▁મહેંદી	-12.2128
▁મુકાબલ	-12.2128
▁રેન્ડીયર	-12.2128
▁વેઇટ્રેસ	-12.2128
▁વેશભૂષા	-12.2128
▁સુગંધ	-12.2128
▁હર્ડલ	-12.2128
▁અભાવ	-12.2128
▁ઇન્ટરને	-12.2128
▁ઓરેગોન	-12.2128
▁ત્રાટક	-12.2128
▁લીંબુ	-12.2128
▁સંપર્ક	-12.2128
▁સૂર્યમુખી	-12.2128
▁સ્વીકાર	-12.2128
▁નાઇટક્લબ	-12.2128
▁બુકશેલ્ફ	-12.2128
▁વર્ષન	-12.2128
▁ઇઝરાયેલ	-12.2128
▁બાયપ્લેન	-12.2128
▁લોબસ્ટર	-12.2128
▁સંગ્રહ	-12.2128
રેબિયન	-12.2128
▁જરૂર	-12.2128
▁રેડબુલ	-12.2128
▁ઇટાલ	-12.2128
▁વ્યાપક	-12.2128
▁સ્નોર્કલ	-12.2128
▁ટેરપ	-12.2128
▁હોલીવુડ	-12.2128
▁પુડલ્સ	-12.2128
▁પેન્સિલ	-12.2128
▁ફેસપેઇન્ટ	-12.2128
▁વિદેશી	-12.2128
▁ઉજવ	-12.2128
▁તપેલી	-12.2128
▁ફેડોરા	-12.2128
▁સ્ત્રોત	-12.2128
▁સ્કાઉટ્સ	-12.2128
▁ક્લાઈમ્બીંગ	-12.2128
▁ડ્રોઇંગ	-12.2128
▁દાણા	-12.2129
▁પીકઅપ	-12.2129
પોટીઝ	-12.2129
▁મેટ્રો	-12.2129
▁ટ્યુનિક	-12.2129
▁હથોડી	-12.2129
▁વેરહાઉસ	-12.2129
▁ક્યુબ	-12.2129
▁પ્રતીક	-12.2129
▁હાજર	-12.2129
▁આઇલેન્ડ	-12.2129
▁રીડ્સ	-12.2129
▁મુલાકાતીઓ	-12.2129
▁સાહેલીઓ	-12.2129
▁કાયદા	-12.2129
▁ભોંયરા	-12.2129
▁સ્પોન્સર	-12.2129
▁પંખા	-12.2129
▁સ્નેપ	-12.2129
▁સરહદ	-12.2129
▁સમારોહ	-12.2129
▁પ્રશ્ન	-12.2129
▁હાઇલેન્ડ	-12.2129
▁પાડોશ	-12.2129
▁પ્રતિબંધ	-12.2129
▁પોઝિશન	-12.2129
▁પેરાશૂટિસ્ટ	-12.2129
▁ઓઢ	-12.2129
▁છટાઓ	-12.2129
▁ઓલિમ્પિક્સન	-12.2129
▁ગ્લો	-12.2129
▁ટ્રિપ	-12.2129
▁ક્લિફ	-12.2129
▁સ્નોસ્યુટ	-12.2129
▁વપરાયેલ	-12.2129
▁બ્રાન્ડ	-12.2129
▁છાપરા	-12.2129
▁લાડુ	-12.2129
▁પત્ની	-12.213
ખોળ	-12.213
▁બાટલી	-12.213
▁નૃત્યનર્તિકાઓ	-12.213
▁છૂટક	-12.213
▁દેશભ	-12.213
▁ટગબોટ	-12.213
▁પિકેટ	-12.213
▁કેબિન	-12.2131
▁સ્કાયડાઇવર્સ	-12.2131
▁સ્મોક	-12.2131
▁સ્પેનિશ	-12.2131
▁ઓટો	-12.2131
▁પેટ્રિક	-12.2131
▁ડીશ	-12.2131
▁ચડાવતા	-12.2131
▁કરચલીવાળ	-12.2131
▁અદ્	-12.2132
▁ટસલ	-12.2132
▁નૂડલ્સ	-12.2133
▁સોમ્બ	-12.2133
▁મિશ્રણ	-12.2133
▁ઝરણ	-12.2133
▁રોવર	-12.2133
▁સાઈઝ	-12.2133
▁ફોક્સ	-12.2133
▁રેઈન	-12.2134
▁જોયું	-12.2134
▁ચોકીઓ	-12.2134
▁ખેંચતાણ	-12.2134
િન્ડર	-12.2134
▁ડોગહાઉસ	-12.2134
▁રેલરોડ	-12.2134
ટેન્ડર	-12.2135
ટપાથ	-12.2135
▁સ્કીયર	-12.2135
▁એથ્લેટ્સ	-12.2135
▁વાળંદ	-12.2136
▁ડમ્	-12.2136
▁સ્ટ્રીમર્સ	-12.2136
▁કેમ્પગ્રાઉન્ડ	-12.2137
▁શિપિંગ	-12.2137
▁કૉલ	-12.2138
▁બનાવ્યો	-12.2141
દિવા	-12.2141
▁છાજલીઓ	-12.2141
▁લગામ	-12.2141
▁શેડ્સ	-12.2142
▁બેગપાઈપ્સ	-12.2142
▁વેઇટ	-12.2144
▁ભારત	-12.2144
▁એસ્ટ્રો	-12.2144
▁સીગલ્સ	-12.2146
▁ગુલ	-12.2147
▁પેરાગ્લાઈડર	-12.2148
▁વૈ	-12.2148
▁વીજ	-12.2149
▁ચલાવવાન	-12.2149
▁મોટરબોટ	-12.2149
▁ફેંકનાર	-12.2149
ખોર	-12.215
રસાઇ	-12.215
▁ચીઝ	-12.2151
▁માછલીઘર	-12.2151
▁પુશ	-12.2153
▁છાંટતા	-12.2154
▁પેડ્સ	-12.2154
▁પરફોર્મન્સ	-12.2155
▁કરશે	-12.2155
▁આકર્ષણ	-12.2158
▁છાંટતો	-12.2158
▁ભરવા	-12.2158
▁મેનીક્ય	-12.2159
▁ઉથલાવેલ	-12.2163
▁પ્રભા	-12.2166
▁લેવાયેલ	-12.2167
▁વાનર	-12.2168
▁હેલ્મે	-12.2171
▁સેન્ટીપ	-12.2172
▁ઓપ	-12.2172
▁ચપટ	-12.2173
▁પારકા	-12.2176
▁ફૂંકતો	-12.2177
▁પેંટબ	-12.2178
▁વગાડનાર	-12.2179
▁શિપ	-12.2183
▁ચૂંટતી	-12.2183
▁રાફ્ટર	-12.2184
▁આવકાર	-12.2184
▁વોટરસ્કીસ	-12.2184
▁પૈડાં	-12.2185
▁રાફ્ટ્સ	-12.2185
▁મિક્સ	-12.2185
ન્સ્ટ્ર	-12.2186
▁ચુ	-12.2189
કબોક્સ	-12.2189
▁છાપ	-12.219
▁ઉઠ	-12.219
ણા	-12.219
▁સ્કો	-12.2193
▁ટ્રામ	-12.2194
▁બમ્પ	-12.2195
▁ડ્રિફ્ટ	-12.2196
▁ભેળ	-12.2199
▁ચોપડ	-12.2199
▁વેબ	-12.22
રેખ	-12.2202
▁ફ્રાઈસ	-12.2204
▁સુનર	-12.2204
હાઉસમાં	-12.2205
▁ડસ્ટ	-12.2206
▁શ્રી	-12.2207
▁તર્યા	-12.2208
▁વાંચન	-12.2208
▁ટપકા	-12.2208
▁બાઉન્ડ	-12.2211
▁પિચિંગ	-12.2211
▁ગાર્ડ્સ	-12.2212
દાન	-12.2212
▁વિભાગન	-12.2213
▁વાંકા	-12.2214
▁લીધેલ	-12.2217
▁મેળવ્યું	-12.2218
▁બુદ્ધ	-12.2219
▁ગાતું	-12.2222
▁ટપકત	-12.2224
▁ઊંધા	-12.2225
▁કરચલાન	-12.2228
▁ઓલવ	-12.223
▁મશર	-12.223
▁રોડવે	-12.223
▁મોતી	-12.2233
▁ડર	-12.2233
▁બરણી	-12.2233
કામના	-12.2236
▁રોકાયા	-12.2237
ત્તા	-12.2237
▁સ્ટ્રોલર્સ	-12.2239
▁બુક	-12.2246
્યુલ	-12.2248
▁ટેકલર	-12.2251
▁સ્ટ્રીમર	-12.2252
▁મીટ	-12.2252
▁ઓક્	-12.2257
▁ઇજ	-12.2258
▁તડકાવાળ	-12.2263
▁બેરેટમાં	-12.2265
▁ગુડ	-12.2267
▁ગંજ	-12.2269
▁સ્મ	-12.2271
▁રિમ	-12.2274
▁કેદી	-12.2276
▁બાસ	-12.2276
▁લાઈટો	-12.2287
▁લોહી	-12.2302
▁ફેંક્યું	-12.2303
ન્જા	-12.2307
▁વાવે	-12.2307
પડી	-12.2309
▁ઝૂંપડાન	-12.2319
▁ઝૂકતી	-12.2319
▁રસોડા	-12.2319
ાત	-12.232
▁ડૂ	-12.2321
▁આગન	-12.2321
ડતા	-12.2322
રીને	-12.2325
▁ફ્રેમમાં	-12.2326
ટાવી	-12.2326
▁નમાવ	-12.2331
▁છાંયડાવાળ	-12.2331
▁થાકેલ	-12.2335
▁ચૉ	-12.2336
▁આશા	-12.2345
ઝી	-12.2348
▁રોકડ	-12.2356
▁ઠંડક	-12.2363
▁ધડ	-12.2363
▁કપમાં	-12.2364
સફ	-12.2368
▁બનાવતા	-12.2372
સ્કેટ	-12.238
▁પુટ	-12.239
▁ઈસુ	-12.2402
▁કોરલ	-12.2405
્રોમ	-12.2409
િન્સ	-12.2417
િટ	-12.2422
▁માપવા	-12.2424
સ્તુ	-12.2426
િએ	-12.2429
▁બાથ	-12.2433
▁વધારાન	-12.2434
ૅગ	-12.2435
નિમ	-12.2437
▁તોડવા	-12.2439
ોડાય	-12.244
▁લોજ	-12.2476
▁એનર્જ	-12.2479
▁જંક	-12.2481
▁નાતાલ	-12.2486
ધી	-12.2489
▁વિશ્વન	-12.2493
સ્ત્રી	-12.2494
માલ	-12.2495
ફલ	-12.2497
ક્ષણ	-12.2498
સાઈકલ	-12.2505
▁પાઇલ	-12.2507
▁પલાળી	-12.251
ાડના	-12.2513
ેરીમાં	-12.2527
▁ફર્ન	-12.253
▁મિલાવ	-12.253
▁ક્લિપ	-12.2531
▁જેક્સનન	-12.2535
ગાર	-12.2545
▁દાંડ	-12.2545
▁માર્ડી	-12.255
▁ટકરા	-12.2556
▁સળગ	-12.2573
▁પાલન	-12.2585
▁વગાડતું	-12.2587
કને	-12.2592
્રાઇડ	-12.2593
▁વેલો	-12.2601
▁ગુસ્સા	-12.2611
▁સુરંગમાં	-12.2618
લિંક	-12.2627
એન	-12.2642
ેન્સ	-12.2656
સ્ટ્રાઇપ	-12.2658
▁મશીનન	-12.2664
▁દેશ	-12.2674
▁ખેતરન	-12.2686
▁કેમેરાન	-12.2689
▁મીન	-12.269
▁આફ્ર	-12.2701
▁જેકેટ્સ	-12.2708
▁બોટમ	-12.2711
▁જેટીન	-12.2712
▁ધકેલત	-12.2715
▁ફ્લોરિંગ	-12.2734
▁છું	-12.2736
▁લેપ	-12.274
▁દોરેલ	-12.2742
વર્સ	-12.2743
લીલ	-12.2744
▁કિકર	-12.2749
▁મીઠાઈન	-12.2752
લાવતો	-12.2762
ેન્જ	-12.2773
ીજી	-12.2777
રિયર	-12.2777
ેવી	-12.2802
ચન	-12.2805
▁સ્પી	-12.281
▁નીકળ	-12.2811
▁માહોલ	-12.2821
▁નેક	-12.2831
▁ડોલરન	-12.2839
▁આવવા	-12.2841
પાઈપ	-12.2846
▁ઘૂમ	-12.2856
▁ટૂંકો	-12.2867
્રાઉઝ	-12.2874
▁માઈક	-12.2877
રેખા	-12.2881
▁ભાષ	-12.2881
▁પડાવવા	-12.2883
▁વિન	-12.2889
▁ડૂબાડ	-12.2907
▁એલિવેટ	-12.2931
▁સિ	-12.2931
▁પ્રતિસ્પર્ધી	-12.2932
રેન્જ	-12.2939
▁આર્ટ્સ	-12.2939
▁સાબુ	-12.2941
▁કઠ	-12.2964
▁વિશ્વ	-12.2976
▁અથડાવાન	-12.2992
▁ડિગ	-12.2997
ઝલ્સ	-12.2998
▁વય	-12.3002
▁કાંગારૂ	-12.3007
▁ધી	-12.3007
▁ચોંટાડત	-12.3016
▁સર્જ	-12.3035
▁સ્ત	-12.3036
વાં	-12.3044
▁મૂછોવાળ	-12.3049
▁ઉદાસી	-12.3067
▁ચામડીવાળ	-12.3076
▁તેણીન	-12.3086
▁લવ	-12.3094
▁તોડ	-12.3107
ટફ્	-12.3113
રાઈ	-12.3142
▁સ્ટેટ્સ	-12.3153
▁ચો	-12.3157
શિ	-12.3172
ોટેડ	-12.3182
▁દરવાજાવાળ	-12.3186
લ્ફ	-12.3197
▁બેઠક	-12.3198
▁ટૂ	-12.3201
▁પે	-12.3202
▁મરઘીઓ	-12.3208
▁બેટમેનન	-12.3213
▁ચુસ્તી	-12.3228
▁ભાષા	-12.3231
ેક	-12.3238
▁ઝુક	-12.324
▁રંગે	-12.3255
▁અમેરિકા	-12.3263
મિત	-12.3264
▁નગરમાં	-12.3268
પસ	-12.3271
▁દોડવીરન	-12.3272
શી	-12.3276
▁પર્વતમાળાન	-12.3277
▁વ્યક્તિન	-12.3282
▁ઠંડીન	-12.3285
▁કાપત	-12.3285
▁ઝૂક	-12.329
▁જા	-12.3297
▁ચાંચિયાન	-12.3306
▁કાઢવા	-12.3339
પી	-12.3341
લેપ્સ	-12.3343
ટૂલ	-12.3345
▁કલરન	-12.3358
મોનો	-12.3387
▁કહી	-12.3401
▁પિઝાન	-12.3401
ઈસ	-12.3409
▁ટાંકા	-12.3412
ેસરી	-12.3436
▁બહારન	-12.3443
ેલિંગ	-12.3443
ણિય	-12.3444
▁શિ	-12.3476
▁ટ્રાય	-12.3485
▁લીધ	-12.35
ાળી	-12.3504
સણ	-12.3521
વિવ	-12.3534
▁તણ	-12.3534
▁માંસ	-12.3534
▁હાડકાન	-12.3544
્મ	-12.3545
▁રીંગ	-12.3559
▁પૅન	-12.3573
▁કરેલો	-12.3576
▁અમલ	-12.3583
▁ઢોળાય	-12.3599
ાસિક	-12.3618
રને	-12.3632
▁સ્પેનિ	-12.3633
▁કેનલ	-12.3643
ત્ય	-12.3694
બહાર	-12.373
્ચર	-12.373
વરિત	-12.3751
▁કાચમાં	-12.3753
▁પર્ણસમૂહન	-12.3761
ત્	-12.3774
ઢ	-12.3802
ન્ન	-12.3836
▁ટુકડાન	-12.3843
મના	-12.3858
તે	-12.386
▁ખસેડવા	-12.3881
િયો	-12.3882
▁સસલ	-12.3882
ેઇડ	-12.3883
▁ખવડાવત	-12.3889
▁પ્રે	-12.3891
▁પુલન	-12.3898
▁ચર્ચા	-12.3902
▁ખે	-12.3907
ભા	-12.3909
ર્જ	-12.391
▁ખાવાન	-12.3916
▁કચડ	-12.3923
જાણ	-12.3925
▁પાળ	-12.3928
ભૂરા	-12.3929
માણસ	-12.3934
લીડ	-12.3942
▁સેટમાં	-12.3954
▁રૂમન	-12.3954
▁છોકરાઓન	-12.3961
▁અનુક	-12.3982
સન	-12.3999
▁લક્ષ	-12.4003
▁એન	-12.4009
ધીન	-12.4018
ગ્રે	-12.4029
▁ગોળા	-12.4034
ડમાં	-12.405
▁જણા	-12.4079
▁રસોઇ	-12.4091
▁ઉડાડત	-12.4105
▁ખૂણાન	-12.4123
▁નેત	-12.4124
▁લગાવત	-12.413
રીના	-12.4157
▁સમૂહન	-12.4186
ેક્ટર	-12.4208
ડાઇન	-12.4214
▁વિસ્	-12.4218
▁વળી	-12.4225
▁શ્રેણીમાં	-12.4229
ક્ર	-12.4233
▁પાળત	-12.4242
▁એવ	-12.4253
▁ફૂંકવા	-12.426
્ટલ	-12.4287
▁પુરુષન	-12.4296
▁ય	-12.4306
▁પટ્ટાઓવાળ	-12.431
▁સ્લાઇડ્સ	-12.4322
્લાસમાં	-12.4334
▁છાંટામાં	-12.4342
ણો	-12.435
▁શંકુન	-12.4361
ઠવે	-12.4373
ાઇવ	-12.4414
ઘ	-12.4429
▁ઇયર	-12.4433
▁પેન્ટવાળ	-12.4461
ૂહ	-12.4465
રંગોમાં	-12.4483
ોક્સ	-12.4491
ઈન	-12.4501
રા	-12.4516
ાઇમ	-12.4524
▁નહેરમાં	-12.4532
▁બાળકન	-12.4539
ેશ	-12.4542
▁પીવાન	-12.4562
ડિયો	-12.4563
▁મેઘધનુષ્યન	-12.4563
▁ડ્રેસર	-12.4584
ર્જન	-12.4608
મામ	-12.4618
બાઇક	-12.4704
લં	-12.4706
▁દોરો	-12.4718
ેંક	-12.4727
▁પટકા	-12.4747
▁રસ્તાઓ	-12.4757
ટે	-12.4767
હો	-12.4781
▁દૃશ્યો	-12.4781
▁એલ	-12.4787
▁ચામડ	-12.4826
કિંગ	-12.483
ફેલ	-12.4844
▁પાઇપમાં	-12.4845
▁સનગ્લાસવાળ	-12.4846
ુને	-12.4848
રિયલ	-12.486
રણે	-12.4892
▁વેટ	-12.4902
▁નાતાલના	-12.4905
▁માછલીન	-12.4909
▁બેટન	-12.4923
▁બીટ	-12.4939
યેલી	-12.4944
▁ઓફિસર	-12.4948
મત	-12.4977
▁સ્ટીલન	-12.4986
ચા	-12.4991
▁મશ	-12.5
્વજન	-12.5015
ફ્ર	-12.5015
▁રજ	-12.5045
ડવામાં	-12.5055
ાતી	-12.506
▁ચહેર	-12.5069
ાયેલો	-12.5074
▁ટેબલન	-12.508
ીમ	-12.5083
▁થિયેટરમાં	-12.509
▁જોનારા	-12.509
છોકરાઓ	-12.5094
બ્	-12.5098
▁થા	-12.51
સમ	-12.5105
▁ટીન	-12.5126
▁આરસ	-12.5143
▁થાળીમાં	-12.5151
તુ	-12.5167
▁છાતીન	-12.5169
▁રોકાય	-12.5174
ગની	-12.5187
▁સોડાન	-12.5197
▁સરકાવ	-12.5199
▁તમ	-12.5205
લિન	-12.5207
▁ધુમ્મસમાં	-12.521
▁દૂરન	-12.523
ેક્સ	-12.5237
▁ખોપરીન	-12.5237
▁પીછ	-12.5248
▁સસ્પેન્ડર	-12.5248
્ધ	-12.5255
▁ડૉલરન	-12.5264
▁ટીશર્ટ	-12.5305
▁કચરાપેટીમાં	-12.5306
▁ગોઠવવા	-12.5336
▁બોક્સરન	-12.5341
પિયર	-12.5383
▁સ્લ	-12.5386
▁ઘોડી	-12.54
▁તોપન	-12.5409
▁દર્શાવ	-12.5449
ુમા	-12.5455
▁તરબૂચન	-12.5469
▁સ્ક્વેર	-12.5474
▁ઉડવાન	-12.5482
કલર	-12.5484
▁બતાવ	-12.5491
▁શીખવવા	-12.5495
બત	-12.5499
▁કુંડા	-12.5503
પીટ	-12.5509
▁સરકવા	-12.5514
▁ઢો	-12.5516
▁હોડીન	-12.5518
પોશાક	-12.5526
▁ફ્રીસ્બીન	-12.5532
▁ડબ	-12.5564
▁કોલેજન	-12.5566
▁ઉપાડવા	-12.5631
▁કંપનીન	-12.5631
ૉલ	-12.5631
▁દુલ્હનન	-12.565
▁લુ	-12.5653
ંડોળ	-12.566
▁રૂટ	-12.566
▁છોકરીઓન	-12.5662
રમે	-12.5666
માર્ટ	-12.5666
લાવે	-12.567
▁કરાવ	-12.5679
ધા	-12.5682
▁મેળવત	-12.5698
▁કૅમેરાન	-12.5702
અન્ય	-12.5719
▁બોલર	-12.5719
▁સીસ	-12.5739
▁શીખવત	-12.575
▁રમતો	-12.5752
િસ્સ	-12.5757
▁હેમબર્ગરન	-12.5766
▁માલસામાનન	-12.5767
ર્શિય	-12.5783
ાણી	-12.5784
ચવા	-12.5821
▁મોંવાળ	-12.5824
રક	-12.583
વડ	-12.5836
પરિ	-12.5865
▁મૂક્ય	-12.587
હા	-12.5879
▁લૉ	-12.5892
▁સાબુન	-12.5926
▁દેવ	-12.5939
સ્ટ્રો	-12.5952
▁ચિન	-12.5955
વાજ	-12.5958
▁લંબાવેલ	-12.597
ઇનર	-12.5982
▁મસ	-12.5989
ોને	-12.6004
રબી	-12.6005
▁ટ્રો	-12.6017
▁આર્ટ્સન	-12.6021
▁દ્રશ્યન	-12.6044
ેગવ	-12.6046
▁સ્ક્વ	-12.6083
સોનેરી	-12.6084
હેટ	-12.6097
શનમાં	-12.6108
▁ફેન	-12.6135
ઇમ	-12.6142
▁જ્વાળાઓમાં	-12.6142
િય	-12.6149
▁સસલા	-12.618
રાયેલા	-12.6182
▁મીઠાઈ	-12.6184
રેસ	-12.6188
▁અદભ	-12.6191
▁શર	-12.6194
તાળ	-12.6194
▁દિવાલમાં	-12.6197
ઝોન	-12.6203
▁થનાર	-12.6224
▁કસરતમાં	-12.6235
લોટ	-12.6238
શા	-12.6243
ડાઇવિંગ	-12.6245
મનો	-12.6268
▁ઝાડવા	-12.6269
▁ફટકારવાન	-12.635
રફ	-12.6353
▁સ્પાઈડરમેનન	-12.6355
્લેક્સ	-12.636
▁કોબલ	-12.6377
▁પીક	-12.6385
દી	-12.6395
▁વિસ્તરે	-12.6397
ક્તિ	-12.6405
્રો	-12.6408
▁ડાઇ	-12.6415
વેલા	-12.6422
▁ભીંજવ	-12.6436
▁ગધેડ	-12.6467
ીતે	-12.6472
▁ઝાડીવાળ	-12.6487
▁ત્	-12.649
▁ફિલ	-12.6491
યુવતીઓ	-12.6498
▁ટક્	-12.6506
બાજુ	-12.652
▁પાટ	-12.652
સ્કીઇંગ	-12.6542
ઊંચા	-12.6552
ાઈકલ	-12.6558
એનર્જી	-12.6581
▁ટ્વિ	-12.6601
▁બ્રો	-12.6602
ડીઓ	-12.6608
▁ફાર્મસી	-12.6613
▁ચીન	-12.6615
કોટમાં	-12.6624
▁ઉડાડે	-12.6627
▁મૂર્તિન	-12.663
▁પાતળ	-12.6639
ટેક	-12.6641
▁માલિકન	-12.6643
▁વાહ	-12.6649
પૂલ	-12.666
જમણ	-12.6661
▁તરંગન	-12.6667
▁એસ	-12.6687
ાવેલ	-12.6694
▁ઈમારતમાં	-12.6706
▁લોબ	-12.6717
▁લાગ્ય	-12.6718
ચક્ક	-12.6723
ઊંડા	-12.6737
ઘડ	-12.6747
▁ઘેટ	-12.6749
લીલો	-12.6762
રાઇડ	-12.6767
▁કોમ્	-12.6773
શોટ	-12.6778
▁સ્ક્ર	-12.6786
▁શર્ટમાંન	-12.6792
મેટલ	-12.6796
રાત	-12.6796
ફ્લોપ	-12.6803
ાકી	-12.6809
થિયેટરમાં	-12.6824
▁સળિય	-12.6828
નિર્માણ	-12.6836
▁આરોહ	-12.6837
યુદ્ધ	-12.6837
સ્ટોપ	-12.6837
▁હૃદયન	-12.6841
ફાઇટર	-12.6841
▁ફેલાય	-12.6842
▁શ્વાનો	-12.6845
ન્ઝા	-12.6845
જૂ	-12.6847
▁ચિ	-12.6848
▁રૂંવાટી	-12.6849
ાહિત	-12.6855
પૂર્વીય	-12.6857
▁રખડ	-12.6858
જીવન	-12.6858
ફૂડ	-12.6866
ંધ	-12.687
ગાર્ડ	-12.6871
ચામડીવાળ	-12.6874
બ્લોક	-12.6876
બેઝ	-12.6883
▁તલવારબાજ	-12.6889
▁હાથમોજ	-12.6893
▁ની	-12.6898
ટતા	-12.69
પ્રતિ	-12.6901
ુમ	-12.6903
શર	-12.6918
માત્ર	-12.692
્યૂ	-12.6929
▁નકશ	-12.6931
▁લેન્ડસ્કેપન	-12.6934
બેટ	-12.6941
▁પડવાન	-12.6941
▁કાર્ડબોર્ડન	-12.6947
ડોગ	-12.695
મિંગ	-12.6954
▁ટોસ	-12.6954
જેટ	-12.6961
▁જોડાય	-12.6965
▁બરણીમાં	-12.6976
▁પૈડ	-12.6977
વાયર	-12.6978
▁ધોધમા	-12.6984
આઈ	-12.6987
સ્ટાર	-12.6993
બિન	-12.6998
ફરતી	-12.7006
▁છાંયડા	-12.7011
▁પેન્	-12.7014
▁ખંજ	-12.7014
▁કરચલ	-12.7016
▁બાલ્ક	-12.7025
મ્પિંગ	-12.7034
▁અટવાય	-12.7044
▁કોમ	-12.7047
▁પ્રતિબિંબન	-12.7048
▁ઉછળ	-12.7059
ૅ	-12.7061
ઈડ	-12.7062
ઓકે	-12.7063
ઝેબ	-12.7063
પોટી	-12.7073
કારમાં	-12.708
▁સમર્થ	-12.709
પાર	-12.7092
પો	-12.7092
▁ઓરડા	-12.7092
▁વૉ	-12.7093
પ્રાય	-12.7094
▁સ્થાપ	-12.7095
▁પ્રશિક્ષ	-12.7099
▁ચીયરલીડ	-12.71
▁મનોરંજ	-12.7104
યુઝ	-12.7105
▁ગૂં	-12.7114
પુટ	-12.7118
▁એમ્	-12.7119
લના	-12.7122
▁હેન્	-12.7122
▁બુઝાવ	-12.7123
▁પ્રવેશવાન	-12.7123
▁ચપળ	-12.7124
▁નિયંત્ર	-12.7125
▁નૃત્યનર્તિકા	-12.7126
▁ઓવરહે	-12.7126
▁ચપ્પ	-12.7126
▁ઓલિમ્પિક	-12.7127
▁ફાર્મ	-12.7127
▁મીઠ	-12.7127
▁કાંગાર	-12.7128
▁ક્લાઈમ્બ	-12.7128
▁બેકગ્રાઉ	-12.7128
સ્પિટલ	-12.7128
ઠ્ઠી	-12.7128
પસ્ટિક્સ	-12.7128
▁વાઇબ્ર	-12.7128
▁કોસ્પ્લે	-12.7128
▁ટમ્બલવીડ	-12.7128
▁નમૂનાઓ	-12.7128
▁પ્રેઇરી	-12.7128
▁સેલિબ્ર	-12.7128
▁હેડવ્રેપ	-12.7128
થ્રિલર	-12.7128
શ્ચિ	-12.7128
▁અકસ્માતન	-12.7128
▁આતશબાજી	-12.7128
▁એન્ક્લોઝર	-12.7128
▁એમ્પ્લીફાયર	-12.7128
▁કિઓસ્ક	-12.7128
▁કેરોલિના	-12.7128
▁કોમ્પ્લેક્સ	-12.7128
▁ગઠ્ઠ	-12.7128
▁ગાયકવૃંદ	-12.7128
▁ગોદડાં	-12.7128
▁ઘોંઘાટ	-12.7128
▁છઠ્ઠ	-12.7128
▁ઝુમ્મર	-12.7128
▁ટોબેગન	-12.7128
▁ડિપાર્ટમેન્ટ	-12.7128
▁ડિરેક્ટર	-12.7128
▁ડેરડેવિલ	-12.7128
▁ડોનટ્સ	-12.7128
▁તરુણો	-12.7128
▁દ્રષ્ટિ	-12.7128
▁નમૂનો	-12.7128
▁નાયલોન	-12.7128
▁નિતંબ	-12.7128
▁નૈસર્ગિક	-12.7128
▁પરિપ્રેક્ષ્ય	-12.7128
▁પિંજરા	-12.7128
▁પિગલેટ	-12.7128
▁પિત્તળન	-12.7128
▁પેરાસેઈલ	-12.7128
▁ફાયરહોઝ	-12.7128
▁ફૂટબ્રિજ	-12.7128
▁બેડસ્પ્રેડ	-12.7128
▁બેલબોટમ	-12.7128
▁મસ્જિદ	-12.7128
▁મિનિવાન	-12.7128
▁મૂંઝાયેલ	-12.7128
▁લિમોઝીન	-12.7128
▁લુચ્ચ	-12.7128
▁વછરડ	-12.7128
▁વાવાઝોડા	-12.7128
▁વિદૂષક	-12.7128
▁વિષયન	-12.7128
▁વીંટળાયેલ	-12.7128
▁વીંધાવેલ	-12.7128
▁વેઇમરેનર	-12.7128
▁વેબસાઈટન	-12.7128
▁શાવરહેડ	-12.7128
▁શેમરોક્સ	-12.7128
▁સંકળાયેલ	-12.7128
▁સાધનસામગ્રી	-12.7128
▁સાન્તા	-12.7128
▁સિમ્પસન	-12.7128
▁એરોપ્લેન	-12.7128
▁જુનિયર	-12.7128
▁વિનંતી	-12.7128
▁એરોબેટિક	-12.7128
▁કોન્ફરન્સ	-12.7128
▁ખાદ્યપદાર્થો	-12.7128
▁ગૃહયુદ્ધન	-12.7128
▁ઝળહળ	-12.7128
▁ઝુંબેશન	-12.7128
▁ટૉસ	-12.7128
▁ટ્રાઉઝર	-12.7128
▁તબક્કા	-12.7128
▁તિજોરી	-12.7128
▁દસ્તાવેજ	-12.7128
▁નટક્રૅકરન	-12.7128
▁પેમ્ફલેટ	-12.7128
▁પૉંગ	-12.7128
▁પ્રગતિ	-12.7128
▁ફિનલે	-12.7128
▁બોહેમિયન	-12.7128
▁ભેંસન	-12.7128
▁વર્કશોપન	-12.7128
▁શિકાગો	-12.7128
▁સનબાથર્સ	-12.7128
▁સિંક્રનાઇઝ	-12.7128
▁સુવડાવ	-12.7128
▁સ્પાન્ડેક્સ	-12.7128
▁ઓળખ	-12.7128
▁વેઇમર	-12.7128
▁ઘેટાંપાળક	-12.7128
▁હિંમત	-12.7128
▁ઇન્સ્ટ્રુમેન્ટ	-12.7128
▁કલાકૃતિ	-12.7128
▁જીવનસાથી	-12.7128
▁નોટબુક	-12.7128
▁કિરણો	-12.7128
▁છાવણી	-12.7128
▁મશરૂમ	-12.7128
▁સંધ્યાકાળ	-12.7128
▁શૉર્ટ્સ	-12.7128
▁ટાપુ	-12.7128
▁પાઉચ	-12.7128
▁પોટેટો	-12.7128
▁ભોંયતળિય	-12.7128
▁સિક્વિન્સ	-12.7128
▁દેખાવકારો	-12.7128
▁નિબળ	-12.7128
▁એકાગ્રતા	-12.7128
▁ભંગાર	-12.7128
▁મેક્સિકો	-12.7128
▁બેનિસ્ટરન	-12.7128
▁સંસ્થાન	-12.7128
▁દેડકા	-12.7128
▁રકાબી	-12.7128
▁ઓજાર	-12.7128
ુષ્ક	-12.7128
▁પ્લેનેટા	-12.7128
▁ભગવાન	-12.7128
▁રોશની	-12.7128
▁કિમોનો	-12.7128
▁ગ્રાફિટી	-12.7128
▁રહસ્ય	-12.7128
▁કાબુ	-12.7129
▁ગ્રોવ	-12.7129
▁સનટેન	-12.7129
▁ફ્રોલિક	-12.7129
▁કોયોટ	-12.7129
▁હારમાળા	-12.7129
▁આંસુ	-12.7129
▁કૉલેજ	-12.7129
▁ટૅકલ	-12.7129
▁મોટરસાઈકલ	-12.7129
▁રાજ્ય	-12.7129
ંપ્રદાય	-12.7129
▁અજવાળ	-12.7129
▁પ્રક્રિયામાં	-12.7129
▁જમનારા	-12.7129
▁બુરખ	-12.7129
ગર્ભ	-12.7129
▁ભેજવાળ	-12.7129
▁એરોબ	-12.7129
▁ગ્રૉ	-12.7129
હુઆ	-12.7129
▁વેકેશન	-12.7129
▁ગમગીન	-12.7129
ઇમ્પીચ	-12.7129
▁કેપ્રિસ	-12.7129
▁પેસ્ટલ	-12.7129
▁બ્રેકડાન્સ	-12.7129
▁ક્લિયરિંગમાં	-12.7129
▁ટીનેજર	-12.7129
▁સ્પોર્ટસવેર	-12.7129
▁કેનોપી	-12.7129
▁વિઝાર્ડ	-12.7129
▁સ્ટાઈલ	-12.7129
▁ટ્રૅક	-12.7129
▁ફ્લેશ	-12.7129
▁સૂંઠ	-12.7129
▁વિકાસ	-12.7129
▁વિંડો	-12.713
▁મેકડોનાલ્ડ્સ	-12.713
▁સ્ટારબક્સ	-12.713
▁ડેવિડ	-12.713
▁એલિયન	-12.713
▁મથક	-12.713
▁આઉટક્રોપિંગન	-12.713
▁દાયકાન	-12.713
▁છલકાઇ	-12.713
▁બિસ્ક	-12.713
ાવલિ	-12.713
▁પ્રોડક્	-12.713
▁ગમાણમાં	-12.713
▁ગૂંચવ	-12.713
▁પ્લેઈડ	-12.713
▁એસ્કેપ	-12.7131
▁ડીંગી	-12.7131
▁ઓબ્	-12.7131
▁ઉત્પ	-12.7131
▁વિધવા	-12.7131
▁બંધારણ	-12.7131
મ્બલ	-12.7131
▁મીઠાઈઓ	-12.7131
▁યાર્ન	-12.7131
▁યાદ	-12.7132
▁મોટરચાલ	-12.7132
▁નમ્યો	-12.7132
▁રેશમ	-12.7132
▁પૂતળ	-12.7132
▁ભજવ	-12.7132
▁નમાવતો	-12.7132
▁રિવર	-12.7132
▁ડીનર	-12.7132
▁ફ્લોરિસ્ટ	-12.7132
ેલિકો	-12.7133
▁ક્રાફ્ટ	-12.7133
▁વેચનાર	-12.7133
▁મોડલ	-12.7133
▁કોલસાન	-12.7133
▁બચ્ચાઓન	-12.7133
▁વસ્તીવાળ	-12.7133
▁બુઝાવવા	-12.7133
▁સાહસ	-12.7133
▁ધ્વ	-12.7134
▁કુતરા	-12.7134
▁ડેકોરે	-12.7134
▁સંસ્	-12.7134
▁હકારમાં	-12.7134
▁હિપ્પી	-12.7134
▁સરસવ	-12.7134
▁બગીઓન	-12.7134
▁વૉલીબ	-12.7135
▁જાયન્ટ્સ	-12.7135
ૅન્ડ	-12.7135
▁હરાવી	-12.7136
▁બ્લોઅર	-12.7136
▁કિલ્લાઓ	-12.7136
▁જોડણી	-12.7136
▁પેરાસર્ફર	-12.7136
▁જમણવાર	-12.7136
▁કૅ	-12.7137
▁પીરિયડ્સ	-12.7137
▁લડાઇ	-12.7137
▁ડાન્સફ્લોર	-12.7137
▁સ્પેનીલ	-12.7138
▁રાફ્ટર્સ	-12.7138
▁બિલ્ડ	-12.7138
▁ભૂંસ	-12.7139
▁ચક્ર	-12.7139
▁હળ	-12.7139
વરઓલ	-12.7139
ાર્ટન	-12.7139
▁ધમક	-12.7139
▁ફલક	-12.7139
▁બુલેટ	-12.714
▁સ્કાયડાઇવર	-12.7141
▁ઇલેક્ટ્રોનિક્સ	-12.7141
▁નાંખ	-12.7142
▁વેગાસ	-12.7143
▁ઝારા	-12.7144
▁સ્ટાર્સ	-12.7145
▁ફીટ	-12.7145
▁માદાઓ	-12.7146
ૉર્ક	-12.7146
▁પંક્તિઓ	-12.7146
શ્ક	-12.7147
▁ડ્યુક	-12.7147
▁સ્નાયુઓ	-12.7147
▁ક્રોસવૉક	-12.7148
▁ટક્સ	-12.7148
ક્ષેપ	-12.7149
▁બુલડોગ્સ	-12.7149
▁જડબ	-12.7149
▁ઉછળ્યું	-12.715
▁બતાવતા	-12.715
▁નર્સરી	-12.7151
▁બાર્બ	-12.7152
▁ખુર	-12.7152
▁પેનલિંગ	-12.7153
▁સમર્થન	-12.7153
▁કચરાપેટીઓ	-12.7154
▁ચાલનારાઓ	-12.7154
▁વિકેટ	-12.7154
▁પોમ્પ	-12.7156
▁શટર	-12.7156
સ્કિન્સ	-12.7157
▁ગેજ	-12.7158
▁પ્રતિભા	-12.7158
▁કબ	-12.716
▁મેળાવડો	-12.716
▁મહિલાઓન	-12.7161
ંખો	-12.7161
▁હેન્ડ્રેલ્સ	-12.7162
▁સ્ટ્રિંગ	-12.7163
▁ક્રુઝર	-12.7164
રાઇઝ	-12.7164
▁હિંસ	-12.7164
▁નાગરિકો	-12.7165
▁બ્લીચર	-12.7167
▁ચૂનો	-12.7169
▁સ્થાપનાન	-12.7169
▁અટકાવ	-12.717
▁ફળિયા	-12.7171
▁એજન્	-12.7172
▁પાથવે	-12.7174
્યાત્મ	-12.7176
▁યુનિફ	-12.7176
▁ઓર્ક	-12.7176
▁પીઅર	-12.7177
▁કમ્પ્યુટર્સ	-12.7178
▁ગામડાઓ	-12.718
▁સ્ટી	-12.718
▁ઘેટું	-12.7181
▁લગાડ	-12.7182
▁વક્તા	-12.7183
▁ગાંડ	-12.7183
▁મૂક્યો	-12.7185
▁માઇક	-12.7188
▁ઉગાડ	-12.7189
▁વિસ્તરણ	-12.719
▁હિટર	-12.7191
▁લોન્ચર	-12.7192
▁ઉપાડતો	-12.7192
ક્રમમાં	-12.7193
▁ઉપાડતી	-12.7193
થપથ	-12.7193
ળમાં	-12.7195
ોલિક	-12.7195
▁રોલરબ્લેડર્સ	-12.7198
▁ઈઝરા	-12.7199
▁પ્રોપ	-12.7199
▁માઉન્ડ	-12.72
▁ચોકી	-12.72
▁અંડ	-12.7201
▁એવો	-12.7202
▁ચાર્ટન	-12.7202
▁છતવાળ	-12.7203
▁ઈંડ	-12.7206
▁વિદ્યાર્થી	-12.7207
▁વાગી	-12.7211
▁દ્વિ	-12.7212
▁કીડી	-12.7212
▁રોકાઈ	-12.7213
થિયા	-12.7213
▁ગૉ	-12.7215
▁કૅપ્સ	-12.7215
▁ઘડા	-12.7216
▁કૌ	-12.7217
▁દુલ્હનો	-12.7217
▁હીલ	-12.7217
સ્કિયર	-12.7219
પ્રા	-12.7221
લેલ	-12.7221
▁પેવ	-12.7222
▁બ્રિક	-12.7222
▁ઓવર	-12.7226
▁ચાટતી	-12.7228
▁છીએ	-12.7231
▁ફર્યો	-12.7232
▁દ્વ	-12.7232
▁પ્રોફાઇલમાં	-12.7234
▁ડાઘાવાળ	-12.7236
▁એસ્ક	-12.7238
▁સ્ટોર્સ	-12.724
▁કેનાલ	-12.7243
્રાફ્ટ	-12.7244
▁હૂં	-12.7245
ારા	-12.7246
▁વિદ	-12.7247
▁લોંગ	-12.7247
▁પેન્સ	-12.7249
્હા	-12.7251
▁સ્નોમોબાઇલર	-12.7252
▁પથરાયેલું	-12.7252
▁સૂર	-12.7253
▁ખૂટત	-12.7253
કૂટ	-12.7253
▁જાયન્ટ	-12.7253
ુવ	-12.7255
▁ટીપા	-12.7255
▁બેકપેકર્સ	-12.7258
▁પેદા	-12.726
સ્ટિ	-12.7263
▁અથડાતો	-12.7266
▁આલિંગ	-12.7267
▁ચાવતું	-12.7268
▁રાખવું	-12.7269
▁ભૂકી	-12.727
▁મન	-12.7274
▁વોશ	-12.7274
સાલ્	-12.7275
િબલ	-12.7278
મ્	-12.7286
▁માઉ	-12.7288
વેરમાં	-12.7288
▁લંબાવવ	-12.7289
સ્વી	-12.7289
▁સામસા	-12.729
▁પેકેજો	-12.7291
▁લીધી	-12.7291
▁ઝગ	-12.7295
▁કૂદ્યા	-12.7302
▁ભટકત	-12.7303
સ્ટેડ	-12.7306
▁ગ્રેશ	-12.7316
▁હાર્ડહાટમાં	-12.7318
ગલ્સ	-12.7324
▁બ્રાઇડ	-12.7325
ન્ય	-12.7325
ુત્વ	-12.7327
ટેન્ડમ	-12.7335
ર્કમાં	-12.7335
▁ડ્યુ	-12.7344
▁વણેલ	-12.7344
▁ગોરા	-12.7345
▁ઝૂલવા	-12.7345
▁સ્વેટસૂટ	-12.7346
▁બૉલ	-12.7347
▁ફ્લાઇ	-12.7348
▁વિન્ડબોર્ડ	-12.7349
▁મરીના	-12.735
▁સૂપ	-12.7353
▁ગુચ્છા	-12.7354
▁ચૂનાન	-12.7355
▁ઉંમર	-12.7356
▁સમર્થકો	-12.7359
▁ક્વીન	-12.7361
▁બોરી	-12.7366
આન	-12.7367
▁સિગ	-12.7369
▁નિય	-12.7369
શેલ્ફ	-12.7371
ડાલ	-12.7371
▁પ્રવ	-12.7372
ટોર	-12.7378
▁કાંકરીમાં	-12.7382
▁પીગી	-12.7382
▁કહેવા	-12.7387
▁નર્સ	-12.7388
ંકી	-12.7391
▁આભૂષણો	-12.7394
▁ન્યાયાધીશો	-12.7396
▁ઝળ	-12.7398
ચે	-12.7406
કીઝ	-12.7408
▁ભાવના	-12.7411
▁ખેત	-12.7412
▁કાટમાળન	-12.7413
▁રૂંવાટીવાળ	-12.7415
▁ખવડાવતી	-12.742
ઈને	-12.7426
લ્મ	-12.7431
યુ	-12.7431
▁ટુકડી	-12.7439
▁વાહક	-12.7449
મણિ	-12.7459
▁રંગવા	-12.7484
▁પાય	-12.7496
મ્યુનિ	-12.7501
▁વિતર	-12.7506
ઇંગ	-12.7509
ટન	-12.751
▁ચાઇના	-12.7519
હે	-12.7521
▁લટકાવે	-12.7524
▁ઓકે	-12.7524
પ્ર	-12.7528
▁સોન	-12.7546
▁કોરિય	-12.7552
ાપ્તિ	-12.756
પેન્ઝ	-12.7564
▁ઘેટા	-12.7575
ીડ	-12.7582
દ્રા	-12.7584
▁બધું	-12.7593
્વર	-12.76
શમાં	-12.7601
મોશન	-12.7621
▁ક્લિ	-12.7625
▁ચાટતા	-12.7629
▁સ્કાયડાઇવ	-12.7632
▁સ્લિં	-12.764
ોળી	-12.7642
▁ફ્લા	-12.7643
બેડ	-12.7644
મુખપ	-12.7647
ૂપમાં	-12.7648
રિયો	-12.7655
▁ઝુકાવત	-12.7671
▁ફાર્મસીન	-12.7671
▁નેમ	-12.7693
ુપર	-12.7702
વતો	-12.7706
ાઈન્ડ	-12.7706
▁ડંડ	-12.7707
▁ઇજિ	-12.7732
ર્વ	-12.774
▁આરોહકો	-12.7743
રતી	-12.7744
ંદ	-12.7744
▁ગિટારવાદકો	-12.7748
▁હૉપ	-12.7752
▁રોટ	-12.7754
▁હાઇસ્કૂલન	-12.7767
▁ગુંબજવાળ	-12.7773
▁બેકડ	-12.7775
▁મી	-12.779
મ્નેશિયમ	-12.7802
રતો	-12.7805
રીની	-12.7822
▁જોકર	-12.7836
▁ટેન્ડ	-12.7845
▁ખ્યા	-12.7872
▁કેરો	-12.7874
▁ઝુકાવી	-12.7882
▁ગાર્ડન	-12.7884
ટરસ	-12.7884
લંબાઈન	-12.7891
▁ચલાવવું	-12.7892
▁વેગ	-12.7908
િફ્ટ	-12.7914
જો	-12.7926
▁લૂ	-12.7939
બર્ડ	-12.7942
▁મુસ	-12.7943
▁મેનેક્વિન	-12.7945
▁વહેંચત	-12.7947
▁પંજામાં	-12.795
શક્તિ	-12.7953
▁કોથળ	-12.7959
▁ટ્રોલ	-12.7962
ટકા	-12.7962
▁ખાણ	-12.797
▁ફ્રિસબીસ	-12.7975
ડ્ર	-12.7981
ાફ્ટ	-12.7984
▁ચાવ	-12.7986
▁બકરીન	-12.7987
ાર્પ	-12.7989
▁અવગણી	-12.7995
▁ગોઠવ્ય	-12.8011
▁દીવાલન	-12.8016
જમાં	-12.8027
▁ઘોડેસવારી	-12.8039
▁ઝા	-12.8069
▁પહેરવા	-12.807
ટરમાં	-12.8073
િયમમાં	-12.8086
▁રગ	-12.8087
▁ચલાવવી	-12.8089
િયાત	-12.8092
▁ભીંજવી	-12.8105
ોળ	-12.8115
▁બાઉન્સર	-12.8126
દ્વ	-12.8135
▁હોલી	-12.8139
▁પોપડ	-12.8163
▁કેદ	-12.8164
▁ઊઠ	-12.8164
ુડિયા	-12.8165
ાઉટ્સ	-12.8181
▁બીજાઓ	-12.8182
▁ડબ્બી	-12.823
▁લાઈનો	-12.8246
▁કાંટ	-12.8246
▁ઊંઘત	-12.8253
▁તરબ	-12.8254
▁ચેરી	-12.8267
▁ચુસ્	-12.8283
▁બજા	-12.8301
▁તાળી	-12.8313
▁હાથન	-12.8316
▁સગ	-12.832
▁માર્કી	-12.8329
▁પફ	-12.8345
▁ડાક	-12.8351
ચેર	-12.8359
લ્ડિંગ	-12.8366
કના	-12.8368
▁બાળકીઓ	-12.8376
▁વિન્ડોઝ	-12.8382
રાવી	-12.839
સર	-12.8392
▁વિક્	-12.8397
▁ઢાં	-12.8402
▁હજા	-12.8406
▁યુનિવર્સિટીન	-12.8407
▁બેલ્ટવાળ	-12.8412
▁સળગાવત	-12.8421
▁ટ્રાફિકન	-12.8432
▁ભેટો	-12.8443
સામ	-12.8451
▁પહેલ	-12.8461
ગમતન	-12.8484
ંગો	-12.8518
લોન	-12.8523
▁સવારોન	-12.8525
▁જળ	-12.8533
▁વોલીબોલન	-12.8536
▁ફ્લે	-12.8545
▁બાંધકામન	-12.8548
▁ચમકાવત	-12.855
▁શંકા	-12.8558
ોગ	-12.8567
ેન્ટમાં	-12.8569
▁પોર્	-12.8577
બૉલ	-12.8605
▁ટાવરન	-12.8636
ટલ	-12.8644
▁હાય	-12.8645
▁પુસ્તકાલયન	-12.8649
ાર્થી	-12.865
ક્	-12.8665
▁ભારતીયો	-12.8683
▁રોટવે	-12.8708
▁બપોર	-12.8709
▁શિલ્પન	-12.8719
▁ફેમ	-12.8724
▁હેમ	-12.8742
▁સ્પે	-12.875
▁દુલ્હન	-12.8751
▁વૃક્ષોન	-12.8758
▁કન્ટેનરમાં	-12.8765
કડા	-12.8774
પ્લાય	-12.8779
ોટી	-12.878
રાગ	-12.8791
▁ખાબોચિયાં	-12.8803
▁સૂડ	-12.8805
▁તિરાડવાળ	-12.8816
▁મિસ્ટ	-12.8835
▁બહ	-12.8847
▁અગ	-12.8852
▁વાનગીન	-12.8859
▁લૉનમ	-12.8863
ગાડે	-12.8868
▁લપેટાયેલા	-12.8871
▁ટ્વિન	-12.8877
▁કંપની	-12.8881
▁નાટકન	-12.8893
ાઇડ	-12.8922
વતા	-12.8937
શોલ્ડ	-12.8945
▁નાખત	-12.8957
ટ્રે	-12.8966
▁બારીના	-12.8989
િવે	-12.9005
▁જહાજન	-12.9014
▁ગ્રાફિ	-12.9015
▁તો	-12.9018
ાડીઓમાં	-12.9028
મોન	-12.9028
લટ	-12.9029
▁જાતિ	-12.9035
▁યાટ	-12.9037
▁ઉતરવાન	-12.9037
▁કોથળા	-12.905
▁નર્તકોન	-12.9059
ંધા	-12.9061
ગમત	-12.9085
▁કેળાન	-12.9089
▁વેશ	-12.9119
▁વિનાન	-12.9123
▁સમુદાયન	-12.9138
▁હિં	-12.9142
▁લોન	-12.9158
લસા	-12.9159
▁ચાહકોન	-12.917
▁ફ્લોટી	-12.9172
ળવા	-12.9184
્લો	-12.9195
મોનિ	-12.9199
▁ઝૂમત	-12.922
▁નાતાલન	-12.9238
▁પેટ્રોલ	-12.9245
મિલ	-12.9254
ાંફળા	-12.9269
મતા	-12.9287
▁બિડ	-12.9299
▁સાંતા	-12.9323
તીવ	-12.9329
ણમાં	-12.9329
▁ટ્રાન્	-12.9337
▁પડદ	-12.9345
▁બુ	-12.9351
▁સ્ટો	-12.9353
▁શિંગડાવાળ	-12.937
ક્યુ	-12.94
▁ડૉલર	-12.9406
ડીને	-12.9415
રવા	-12.9419
▁ચીયરલીડર્સન	-12.9434
▁ઝાડીઓન	-12.9448
▁ડાલ	-12.9465
▁સર્ક	-12.9466
▁સંગીતકારોન	-12.9481
લૂ	-12.9485
▁પોટી	-12.9492
ેચ્યુ	-12.9526
▁દોરવાન	-12.9541
▁આપત	-12.9567
▁ઝાકળમાં	-12.9575
સ્કો	-12.96
ફિલ્ડમાં	-12.9613
ક્વિન્ટ	-12.9618
▁તરવાન	-12.9618
▁હમીંગબર્ડ	-12.9623
ેકર	-12.9644
▁ડાયનાસોર	-12.9648
મિન	-12.9673
જર	-12.9716
▁સ્લેડરન	-12.9762
ર્મો	-12.9766
ોડી	-12.9779
▁સંત	-12.9803
▁પરપોટાન	-12.9816
▁ક્રે	-12.9827
▁સૂર્યપ્રકાશન	-12.9827
િમ્પ	-12.9834
▁હાડકાંન	-12.9836
દિ	-12.9838
▁યુદ્ધન	-12.9857
ેગિંગ	-12.9861
ત્વ	-12.9874
▁બોક્સમાં	-12.9877
▁નીંદણમાં	-12.9878
▁આઉટફિ	-12.988
▁પાથરેલ	-12.9883
▁ગરદનવાળ	-12.9884
▁ફફડાવત	-12.9886
▁સ્ટીલ	-12.9891
▁કઠપૂતળી	-12.9895
ાથી	-12.99
▁ફ્લો	-12.9905
વો	-12.9909
▁મોલન	-12.9923
▁ટોટ	-12.9932
▁ડ્રેડલોકવાળ	-12.9957
▁પીડાન	-12.9978
ખી	-12.9984
▁પલ	-13.0014
▁પહોંચાડ	-13.0021
▁ટનલન	-13.0041
ટ્રેક	-13.0078
▁લડત	-13.0089
▁ધરે	-13.0107
તીય	-13.0129
▁પોપટ	-13.0131
▁ગ્રાહકન	-13.0136
સ્ટલ	-13.0137
▁ચડાવ	-13.0141
▁સાધનોમાં	-13.0142
▁મેળાન	-13.0155
ુંડ	-13.0157
ત્રણ	-13.018
િફ	-13.0186
▁જેકેટવાળ	-13.0191
▁મોટરસાયકલો	-13.0201
દેશ	-13.0202
બો	-13.0205
▁ફોડી	-13.0207
રોમાં	-13.021
▁ઓશ	-13.0237
▁સ્વિ	-13.0244
ેન	-13.0252
▁રી	-13.0257
▁ડાય	-13.0265
▁ખેંચવાન	-13.0276
▁તેટલ	-13.0282
▁પશુધન	-13.0285
▁બરલેપ	-13.0293
ડામાં	-13.0316
▁મહિલાન	-13.0322
ઇલ	-13.0329
ેપ	-13.0363
▁કટઆઉટન	-13.0376
▁યોજા	-13.0382
▁ચોર	-13.0397
▁કાંઠાવાળ	-13.0401
ાઈઝ	-13.0402
▁અટકાવવા	-13.0403
ેનુ	-13.0408
▁સીડ	-13.0415
▁હમર	-13.0429
ાણીઓ	-13.0456
▁પરપોટામાં	-13.0465
▁વર્	-13.0469
▁અજ	-13.0469
▁મેસે	-13.047
▁વાદ	-13.0497
ઝવે	-13.0518
ચીન	-13.055
▁હોલ્ડ	-13.0569
ાળું	-13.059
્ટિક	-13.0617
ટિલ	-13.0622
▁જંગલવાળ	-13.0627
ગ્રેજ	-13.0639
ડવોક	-13.0654
કીપર	-13.0674
▁લૉનમાં	-13.0678
પેનમાં	-13.0685
▁પીડા	-13.0693
ભી	-13.0709
સ્ટન	-13.0715
સું	-13.0735
▁વણ	-13.0742
ડવે	-13.0757
ાળવા	-13.0763
ફેક્ટ	-13.082
રહ	-13.0823
▁જોડાયેલો	-13.0874
▁અનુસરવા	-13.0877
બીમાં	-13.0882
્લિ	-13.0909
લ્ટિ	-13.0912
▁સ્ત્રીઓન	-13.0965
▁સભ્યોન	-13.0969
▁ઉઠાવવા	-13.1003
ઘાસવાળ	-13.1008
▁સાદ	-13.1034
શિય	-13.1037
▁ટીમોન	-13.1054
વેમ્પ	-13.1066
ોય	-13.1069
▁વેગનન	-13.1073
ાગ્ર	-13.1076
▁બારીન	-13.1095
પોન્ટ	-13.1097
ટેશન	-13.1116
▁વ્હા	-13.1136
ક્ષ્	-13.1138
ાખી	-13.1181
▁નમ	-13.1183
▁ચાઇન	-13.1233
▁સ્ટા	-13.1257
▁ગ્ર	-13.1262
રેઝન	-13.1293
▁ક્રુ	-13.1298
બેન્ડ્સ	-13.13
▁ઊંટન	-13.1307
▁આળ	-13.1365
ળો	-13.1396
રિંગ	-13.1411
ફેશન	-13.1417
▁જેટી	-13.1425
▁ખોદત	-13.1435
ોઇયા	-13.1451
▁ચર	-13.1454
જીન્સ	-13.1472
▁ઢ	-13.1485
▁આર્	-13.1508
▁ટ્રકોન	-13.1512
▁ટોપ્સ	-13.1513
ળિયા	-13.1524
▁ગલીન	-13.1569
ાઈલ	-13.1602
▁ક્રોસબોન્સન	-13.1608
પાણી	-13.1609
▁અથડાત	-13.161
ોવર	-13.163
ેન્ડ	-13.1635
ડ્યું	-13.1639
્ટો	-13.1657
▁બાઇકરો	-13.1658
▁પિતાન	-13.166
રિ	-13.1675
છોકરો	-13.1684
હેલા	-13.1723
▁બરલેપન	-13.1739
▁પશુધનન	-13.1748
કરે	-13.1762
રેટ	-13.1768
▁ગાઈ	-13.1778
▁હમરન	-13.1801
▁સાંભળ	-13.1815
ભૂત	-13.1821
ેમોન	-13.1827
▁શેલ	-13.1829
▁ફ્રે	-13.1832
રુ	-13.1835
▁પાત્રોન	-13.1835
શાય	-13.1856
નખ	-13.1868
જે	-13.189
છા	-13.1904
હિત	-13.1928
ેર	-13.1942
પાછળ	-13.1967
▁પોપટન	-13.197
બોર્ડર	-13.1982
બોય	-13.199
▁લાકડ	-13.1995
તરો	-13.2002
્રેશ	-13.2006
▁ઉછાળત	-13.2006
ઈઝર	-13.2012
▁કોથળી	-13.2015
રિઝ	-13.2017
લેમ્પ	-13.2048
ચલ	-13.2065
ેટર	-13.2075
▁વર્ગન	-13.2082
▁સૂટવાળ	-13.2087
▁લટકાવત	-13.2121
ટિવ	-13.2142
પાસ	-13.2152
ફર	-13.2172
ખીચ	-13.2207
સતી	-13.2214
▁કઠપૂતળીન	-13.2215
બર્ગર	-13.222
ઝન	-13.2222
▁પ્લેયરન	-13.2255
ુટિલ	-13.2264
▁જણન	-13.2264
▁વાદળોન	-13.2296
વિભાગ	-13.2318
▁થાંભલાવાળ	-13.2323
▁હાડકાં	-13.2336
ાવવા	-13.2343
્ટૂન	-13.2381
છોકરી	-13.2384
▁સ્લેડર	-13.2385
ંગ્સ	-13.2391
▁ઘોડ	-13.2416
ીબોર્ડ	-13.2446
▁આપવાન	-13.2454
▁સ્પેન	-13.2455
ેચર	-13.2467
▁મોજાન	-13.2472
▁ડાયનાસોરન	-13.253
▁ગાડીન	-13.2561
▁હમીંગબર્ડન	-13.2564
▁સ્પાઇક્	-13.2566
ગુલાબી	-13.2581
ચ્છ	-13.2593
▁અલ	-13.2617
▁શા	-13.262
▁માઇ	-13.2646
હાઉસન	-13.2654
▁દુ	-13.2672
▁ઢાંકવા	-13.2673
▁ઇગ	-13.2674
પુરુષ	-13.2678
નારંગી	-13.2698
▁ડા	-13.2702
▁ફૂ	-13.2715
અ	-13.2719
હાથ	-13.2726
▁રાહદારીઓન	-13.2729
ટોપી	-13.2775
▁મેદાનોમાં	-13.2788
▁રાજ	-13.2798
▁વર્ચ	-13.2818
▁એસે	-13.2822
કેપ	-13.2823
▁હેડલ	-13.2825
▁નિહાળી	-13.2836
▁વાદળમાં	-13.2847
▁ગોર	-13.2848
લગ	-13.2861
તરી	-13.2862
▁ડૂબત	-13.2889
ડક	-13.2912
ક્ચર	-13.2933
▁લેપટોપન	-13.2934
▁ચૂસત	-13.2935
ટ્રી	-13.294
ુલા	-13.2955
ેશમાં	-13.2974
▁લાવ	-13.2991
હેન્ડલર	-13.3009
વ્યુ	-13.3017
શ્વાસન	-13.3025
ેટિંગ	-13.3027
્યે	-13.3028
▁બેકલે	-13.3037
▁જીતે	-13.304
▁હલ	-13.3046
પીળા	-13.3082
શર્ટવાળ	-13.309
▁નવપર	-13.3097
▁ગૌ	-13.3108
▁ક્લબન	-13.3117
▁સમયસ	-13.3131
▁ગ્લોવ્	-13.3139
ફાર	-13.3148
ફોર્મ	-13.3211
રેસવે	-13.3226
ીટી	-13.3263
િયર્સ	-13.329
▁કિનારાન	-13.3309
▁માર્ક	-13.3312
ંદન	-13.3312
લ્લા	-13.3318
એલ	-13.332
▁રાઈ	-13.3341
ાટી	-13.3362
▁સ્લેક	-13.3434
▁ઇનરટ્યુબન	-13.3448
ીનો	-13.3453
ક્રમણ	-13.3515
▁ચોપ	-13.3515
કલરમાં	-13.3552
▁રેન્જર	-13.3557
વારા	-13.356
▁રંગી	-13.3578
ેઇન	-13.3582
▁ટટ્ટુન	-13.3594
નાઈટ	-13.3624
સ્ટ્રી	-13.3634
જિં	-13.3641
વર્	-13.3647
▁સળગે	-13.3651
▁બાથરૂમન	-13.3656
ોડવે	-13.3656
▁લટકવાન	-13.3663
▁મૂ	-13.3665
▁ટુકડાઓમાં	-13.3668
▁સ્ટેટ્સન	-13.3675
▁સંધ	-13.3677
▁અમેરિકનો	-13.3678
મને	-13.3686
બ્રાઉન	-13.3688
▁સાઇડકારમાં	-13.3699
ચાઈ	-13.3701
યોજન	-13.3703
▁સાંક	-13.3721
▁હવ	-13.3749
▁અભ્યાસક્રમમાં	-13.3756
પૂલમાં	-13.376
▁સું	-13.3768
▁ફૂટબ	-13.379
▁ઓડી	-13.3822
▁શેડન	-13.3835
▁બને	-13.3909
સ્ટાઇલ	-13.3919
પ્લ	-13.392
ેઝ	-13.3921
ેટમાં	-13.3925
▁અસ	-13.3926
િવ	-13.3941
▁ઉછળ્ય	-13.3948
ાઈની	-13.3949
વાદ	-13.398
્લેટ	-13.404
વોલ	-13.4065
લાવી	-13.408
▁કાંગારૂન	-13.4082
એમ	-13.4084
ચાલી	-13.4112
સમાપ્ત	-13.4123
ન્ડ્સ	-13.4127
▁હિ	-13.4132
▁એકલ	-13.4154
▁એલિવે	-13.4161
▁નિર	-13.4203
▁શંક	-13.4205
▁તળે	-13.4216
▁કાંઠામાં	-13.4219
▁પાથન	-13.4238
લોકો	-13.4248
જીક	-13.4258
▁ઉછાળવા	-13.4279
▁ટા	-13.428
રપૂર	-13.4284
▁ટેક્	-13.4286
નીટ	-13.4288
ગમ	-13.4317
ગનો	-13.434
ાશ	-13.4358
▁આકાશન	-13.4379
▁કેમ્પસ	-13.4385
રાશ	-13.441
બીજા	-13.4428
દના	-13.4477
ંડા	-13.4492
ન્ડ્રેસ	-13.4506
ઝિલ	-13.4509
▁શોર	-13.4594
ાનું	-13.4608
▁કેટ	-13.4625
▁સ્ક્વિ	-13.4635
▁ઝુકાવ	-13.4644
ઈકલ	-13.4664
▁જ્યાર	-13.4666
▁ગર્	-13.467
ુત	-13.4702
ીધું	-13.4703
▁ડાર્ટ	-13.4715
ટ્ર	-13.4724
▁વાંચેલ	-13.4748
સંગ	-13.4814
▁ઇસ્ટ	-13.4816
▁પર્ફો	-13.4818
▁કોનન	-13.4818
ીડો	-13.4834
ેઝીન	-13.4856
▁પોત	-13.4883
▁ઓસ્	-13.4884
ાર્થ	-13.4902
પોઝ	-13.4921
ટકી	-13.4921
ાસન	-13.4941
ાઉન્સ	-13.4996
▁ઊંચક	-13.5001
▁માટ	-13.5015
લરમાં	-13.5025
▁ગાયોન	-13.5036
િંક	-13.5043
▁ફેબ્રિકમાં	-13.5066
પેટ	-13.509
્ટર	-13.5091
▁અવગણ	-13.5108
કબોર્ડ	-13.5113
▁પગથિયાંન	-13.512
▁ખડકમાં	-13.5122
▁રૂ	-13.5142
દર્શન	-13.5146
▁ફ્લોરિડાન	-13.5187
▁ફિલ્ડમાં	-13.5202
▁બ્લોક્સન	-13.5207
▁પ્લેહાઉસ	-13.5231
દો	-13.5245
ટુ	-13.5261
▁હોલવે	-13.5301
નેક્વિન્સ	-13.5304
લિમ	-13.5305
વુ	-13.5312
▁ગોચર	-13.5367
▁ચે	-13.537
શાળ	-13.5385
▁નિશાનવાળ	-13.5405
▁બૉક્સમાં	-13.5406
રહી	-13.5415
▁ઓળંગ	-13.5426
▁વહાણમાં	-13.5437
ૃ	-13.5439
▁સ્પોટમાં	-13.5439
ભુરો	-13.5501
ાઇક	-13.5505
િલ્ડ	-13.5522
રૂમમાં	-13.5557
▁રેમ્પન	-13.5566
▁ઉત્	-13.5568
▁સાયકલન	-13.5604
કેમો	-13.5612
સર્ફિંગ	-13.5616
સર્ફર	-13.5633
ટેલ	-13.5634
રહ્યા	-13.5638
કૂતરા	-13.5656
▁એક્સપ	-13.5656
▁સાયકલમાં	-13.5661
▁ઘોડાઓન	-13.5665
▁ટાઈમ	-13.5681
▁પલાળ	-13.569
રેલ	-13.5701
▁રેડવા	-13.5706
▁બાઉલન	-13.5716
▁નાટ	-13.5729
કાનમાં	-13.5736
રસ	-13.5754
પાર્ક	-13.5779
કેમ	-13.5781
▁પગથિય	-13.5781
▁બં	-13.5786
▁કલાકારન	-13.5788
ીશ	-13.5803
રાવે	-13.5813
ાક્ષ	-13.5821
ફ્લોર	-13.5836
▁રાઈડન	-13.5851
પા	-13.586
્રમણ	-13.5892
▁ગેલેરીન	-13.5896
▁પૈસાન	-13.5908
વયના	-13.5919
ડોટ	-13.5925
ગ્	-13.5927
▁થાંભલાઓમાં	-13.5929
ધિત	-13.594
્ટી	-13.5952
ંદા	-13.5968
▁શી	-13.5982
ાલીન	-13.5987
▁પક્ષ	-13.5994
▁કોતરમાં	-13.5998
ોર્ડિ	-13.6025
ાંસ	-13.6026
માર્ગ	-13.6027
્ટેડ	-13.6044
▁લંબાવ	-13.6048
ગના	-13.6054
▁રૉ	-13.6054
ીમોન	-13.6059
▁કલાકારોન	-13.6074
▁વિશ	-13.6082
ોઇ	-13.6102
ોળું	-13.6112
કુસ્તી	-13.6117
ાન્ડ	-13.612
▁સંક	-13.6147
વેસ્ટ	-13.6148
▁સ્લાઇડમાં	-13.6168
ર્ક્યુ	-13.6168
▁ડે	-13.6168
▁કચરાપેટીન	-13.6198
▁પ્રદેશ	-13.6205
ફ્લે	-13.6212
▁ગાડ	-13.6219
્ડિંગ	-13.6222
લીલી	-13.623
▁તરાપ	-13.6243
નદી	-13.6254
▁પલટા	-13.6259
ચેટ	-13.6261
નૃત્ય	-13.6274
ઘર	-13.6279
્શન	-13.6295
ચિહ્ન	-13.6299
▁ફુગ્ગ	-13.6311
▁ફ્રિસ્બ	-13.6312
માણ	-13.6331
▁સ્થિતિ	-13.6332
▁બગીચ	-13.6332
▁વેન	-13.6333
પેઇન્ટ	-13.6338
▁એશ	-13.6342
▁સુરંગન	-13.6347
િનિયમ	-13.6349
સ્કર્ટ	-13.635
ાઉઝ	-13.6361
સ્પષ્ટ	-13.6365
રેલિંગ	-13.637
▁થાંભલ	-13.637
વાળવાળો	-13.6386
▁પહેલવાનન	-13.6392
પેન્ટમાં	-13.6424
દંપતી	-13.6445
લાઇફ	-13.6461
▁ગાઇ	-13.6487
નગ્ન	-13.6488
્યુમ	-13.6496
ક્લાઇમ્બીંગ	-13.65
જોડાયેલ	-13.651
▁શણગારે	-13.6517
▁કુટ	-13.653
▁ખસ	-13.6536
▁કાંટા	-13.6539
▁મારવ	-13.6542
ોપ	-13.6542
સ્કૂટર	-13.6549
રણી	-13.655
ગીત	-13.6553
ગિયર	-13.6564
▁મણકાન	-13.6565
સ્વ	-13.6568
▁ગુચ્છ	-13.6578
અંતર	-13.6585
▁છાંયડ	-13.6603
યર્સ	-13.6608
શૂટ	-13.6612
બાઈક	-13.6617
ઉંચ	-13.6626
રોક	-13.6629
ગોળ	-13.6633
સ્કીસ	-13.6635
િઓ	-13.6639
▁કોઠારમાં	-13.6641
પાઇપ	-13.6644
પાટા	-13.6648
ક્રીમ	-13.665
સર્ફ	-13.665
ક્લાઇમ્બર	-13.6667
પાઇલ	-13.6669
સ્કેટર	-13.6672
ઝાંખ	-13.6674
પાટ	-13.668
શેફર્ડ	-13.6684
ફ્રેમ	-13.6687
હોડીમાં	-13.6689
▁પિઝ	-13.6689
▁ગોંડોલ	-13.6694
▁મરીન	-13.6695
ગોલ	-13.6696
ડુ	-13.6697
ડ્યુ	-13.6702
સ્ક્રીન	-13.6704
રેપિડ્સ	-13.6705
▁ગૂંથ	-13.6708
દાંડી	-13.6712
તનો	-13.6716
પીડા	-13.6717
બજારમાં	-13.6718
લડતા	-13.672
વિમાન	-13.672
બચાવ	-13.6723
▁તૂટે	-13.6734
ગરમ	-13.6734
ાવતા	-13.6736
બર્ગ	-13.6737
▁તરવૈય	-13.6738
જમ્પિંગ	-13.674
ક્લાઇમ્બિંગ	-13.6741
▁છુપાય	-13.6742
પ્રેમ	-13.6745
ધિક	-13.675
ેક્ટ	-13.6757
િપ્ત	-13.6758
▁ભીડભાડ	-13.676
ફીલ્ડ	-13.6768
આર્ટ	-13.6768
ફરત	-13.677
ઓબામા	-13.6772
▁વીંટાળ	-13.6773
સ્લીવ	-13.6775
લીપેડ	-13.6781
ફાટ	-13.6783
પહ	-13.6785
વેગન	-13.6794
ગેમ	-13.6795
રાઇડર	-13.6797
રાફ્ટિંગ	-13.6797
સ્ટમ	-13.6798
▁મૂછ	-13.6799
માળા	-13.6801
શોધ	-13.6805
આર્મ	-13.6807
રક્ષણ	-13.681
તૃ	-13.6816
પેચ	-13.6817
સ્ટ્રીપ	-13.6817
મુજ	-13.6824
ફેબ્રિક	-13.6824
વૃક્ષ	-13.6824
▁કોફીન	-13.6824
ફિશ	-13.6826
જેક	-13.6827
સ્કૂલ	-13.6829
બેકયાર્ડ	-13.683
ઝિપ	-13.683
▁આંગણ	-13.6833
ક્લબ	-13.6834
લાઉન્જ	-13.6835
▁વાંક	-13.6841
સ્થળ	-13.6842
ડ્રિફ્ટ	-13.6851
સ્ટેશન	-13.6851
▁અધિકાર	-13.6852
સ્પ્રિંગ	-13.6853
ચુસ્ત	-13.6854
▁મરઘ	-13.6856
▁લેવ	-13.6856
ચંદ્ર	-13.6857
ળામાં	-13.6857
ઘટના	-13.6858
ફ્લોપ્સ	-13.6859
શૉટ	-13.686
પથરાયેલ	-13.6861
ગાર્ડ્સ	-13.6862
બિંદુ	-13.6862
ભેળ	-13.6867
સ્નો	-13.687
ચના	-13.6877
શાહી	-13.688
સ્પોર્ટ્સ	-13.688
ટેગ	-13.6883
પ્રમો	-13.6886
ખાડી	-13.6887
ગ્રાફ	-13.6889
▁લડવા	-13.689
▁લાઇનન	-13.6891
ટાઇમ	-13.6891
▁વોર્	-13.6895
▁સ્ટ્રાઇ	-13.6895
▁ખડ	-13.6904
લૂપ	-13.6908
▁ફફડા	-13.6908
હૂડવાળ	-13.6909
શ્વ	-13.6909
સ્થાન	-13.6914
સવારો	-13.6917
એન્ડ	-13.6918
ાન્સ	-13.6919
ંડ	-13.692
જમ્પર	-13.6921
▁વિદ્યાર્થ	-13.6924
િસ્તે	-13.6925
▁સ્કિ	-13.6927
▁માસ્ટ	-13.693
િન્ટ	-13.6934
▁સીવીડન	-13.6937
▁લશ્કર	-13.6938
▁ગં	-13.6939
શિપ	-13.6942
લાઈન	-13.6942
ક્લાઇમ્બ	-13.6942
જીમમાં	-13.6944
▁આફ્રિક	-13.6947
▁સંભ	-13.6947
કુશ	-13.6948
એક્શન	-13.6954
▁પરં	-13.6955
ંટાળા	-13.6955
સ્તંભ	-13.6955
▁પ્રવાસ	-13.6961
▁બિકીન	-13.6962
▁સિટ	-13.6963
▁પૈડાંન	-13.6964
માર્કેટમાં	-13.6967
▁પીંછ	-13.6969
▁કીચડવાળ	-13.6972
▁છાજલ	-13.6972
▁બર્ફીલ	-13.6976
ચેસ	-13.6976
કેશિય	-13.6977
▁ઉથલાવે	-13.6984
▁પેટર્નન	-13.6984
રાત્રિ	-13.6989
શેડો	-13.6991
▁ભટક	-13.6993
▁પ્રદર્શનન	-13.7
ૂથ	-13.7003
વહ	-13.7005
▁લંબા	-13.7008
▁વસ્ત્ર	-13.7008
હોલ	-13.7014
કાર્યકર	-13.7015
▁બ્લીચ	-13.702
▁તંબુઓમાં	-13.7023
પંજ	-13.7027
મેદ	-13.7027
બિલ	-13.7031
▁નિશ્ચ	-13.7032
▁નાગરિક	-13.7036
▁વયસ્ક	-13.704
ાંધી	-13.704
વર્ક	-13.7042
બ્રેક	-13.7045
બુક	-13.7046
ઇઝ	-13.7047
▁પુરસ્કાર	-13.7048
શેતાન	-13.7049
ઓવર	-13.705
▁રોઇ	-13.7052
ૂદી	-13.7052
ૉપ	-13.7053
સ્ક્ર	-13.7054
મેક્સ	-13.7057
થિ	-13.706
▁કેય	-13.7063
ગોળો	-13.7065
▁ટ્રા	-13.7066
ર્ષક	-13.7067
સ્વિંગમાં	-13.7072
▁વાતાવરણ	-13.7078
▁કંઈ	-13.7083
▁કુરકુરિય	-13.7084
ગત	-13.7085
ેપ્ચ	-13.7086
હવા	-13.7087
▁એક્રોબેટ	-13.7091
▁દોડવાન	-13.7091
પાઠ	-13.7091
્લિટ્	-13.7098
▁પેરાસર્ફ	-13.7108
▁દીવ	-13.7109
▁કાઉન્ટ	-13.711
▁અશ્	-13.7111
▁ટેલિફો	-13.7111
્રૅન્	-13.7112
લિવ	-13.7113
િંદુ	-13.7115
▁ઢંકા	-13.7115
ક્વ	-13.7117
હેંગ	-13.7117
્લાઇડ	-13.7118
વેમાં	-13.712
▁સસ્પેન્	-13.7121
કર્ષણન	-13.7122
ૉલ્ટ	-13.7123
સ્ટેશ	-13.7123
ક્વિન્સન	-13.7124
▁આઉટક્રોપ	-13.7124
▁કન્	-13.7124
િપસ્ટિક	-13.7124
ત્સવમાં	-13.7125
▁મેકડોનાલ્ડ	-13.7125
ક્ષીઓન	-13.7125
ષ્	-13.7125
▁સ્ટારબક	-13.7126
▁ટ્યૂલિપ	-13.7126
▁ટોડલર	-13.7126
▁ભોંય	-13.7126
મુદાય	-13.7126
ભૂખ	-13.7127
ૃશ્ય	-13.7127
▁ક્લિયર	-13.7127
બ્લેડર	-13.7128
વિદ્	-13.7128
ૂંઠ	-13.7128
▁સ્પ્રિંક	-13.7128
▁સ્પાઇડર	-13.7128
▁ધ્રુજ	-13.7128
ાલ્કન	-13.7128
▁વ્યક્ત	-13.7128
મ્પોલિન	-13.7128
▁જાદુ	-13.7128
ન્સ્ટ્રુમેન્ટ	-13.7128
વર્ષા	-13.7128
ડિલિઅન્સ	-13.7128
શુન્ડ	-13.7128
▁શૌચ	-13.7128
ગ્લૂ	-13.7128
પ્રક્રિયા	-13.7128
ટારવાદક	-13.7128
મધમ	-13.7128
ુચિત	-13.7128
▁ફાયરપ્લ	-13.7128
▁જન્મ	-13.7128
ંજામ	-13.7128
ષ્ઠ	-13.7129
▁પશુ	-13.7129
▁સંધ્યા	-13.7129
▁હાઇડ્ર	-13.7129
▁દુર્	-13.7129
▁ડાલ્મે	-13.7129
▁ડ્રેડલ	-13.7129
ૂંકા	-13.7129
▁મેગેઝ	-13.7129
▁સ્ટુડ	-13.7129
▁મિલ્ક	-13.713
▁સાહેલી	-13.713
▁ગોગલ્	-13.713
ગ્ગા	-13.7131
બત્તીઓ	-13.7131
ફ્લિ	-13.7131
▁સ્પેશ	-13.7131
▁પ્રયોગ	-13.7131
અંદ	-13.7131
ંચવાયેલ	-13.7131
દાયક	-13.7131
ઝાર્ડ	-13.7131
▁સિમ્	-13.7131
▁રેપિડ	-13.7132
▁ડેવિ	-13.7132
▁મુંડા	-13.7132
▁વોટરસ્પ	-13.7133
▁ટેલિ	-13.7133
▁ખાદ્ય	-13.7133
▁ટમ્બલ	-13.7134
▁રેસ્ટોર	-13.7137
▁અન્ડર	-13.7137
ૂમિ	-13.7138
ુઆન	-13.7138
હાટમાં	-13.7138
▁ભીંત	-13.7138
મ્પીચ	-13.714
▁એલિ	-13.714
▁એમ્બ્	-13.714
્રેસવે	-13.7141
ચુ	-13.7141
્ડસ્કેપ	-13.7142
▁બુલડો	-13.7144
ુમાવી	-13.7145
મ્નેસ્ટ	-13.7147
▁સજાવ	-13.7147
▁ખંડ	-13.7149
ંધેલા	-13.7149
▁અસ્પ	-13.7149
▁ગૂ	-13.7149
ટેન્	-13.7149
મ્પિ	-13.7154
▁ડિસ્	-13.7154
ખ્ત	-13.7155
ોરન્ટ	-13.7156
્ટિક્સ	-13.7156
ીચર્સ	-13.7157
▁વિડિ	-13.7157
ઇઝર	-13.7158
ંડમ	-13.7158
બત્તી	-13.7158
કેપ્સ	-13.7159
ટુંબ	-13.7159
ષિત	-13.716
િંગ્સવ	-13.716
▁સિલુ	-13.7163
ભિ	-13.7164
▁કોમ્પ	-13.7165
ૉક્સ	-13.7166
ૂગ	-13.7167
હ્ય	-13.7167
▁પુસ્ત	-13.717
▁પ્લાસ્ટ	-13.7171
પેસ્ટ	-13.7174
સીવર	-13.7174
િવાલ	-13.7174
મ્બર	-13.7178
શિશ	-13.7178
પોલિ	-13.7182
વનન	-13.7182
ંટડી	-13.7183
▁યુરો	-13.7185
▁પ્રભ	-13.7189
રકતો	-13.7189
▁ટ્યુન	-13.7193
ચિ	-13.7196
▁એપ્ર	-13.7197
કોન્સ	-13.7198
કડાઓ	-13.7199
▁હળવ	-13.7199
▁ટાઇલ્	-13.72
▁ડિઝ	-13.7201
ૂળ	-13.7204
▁બુટ	-13.7205
▁પથરા	-13.7206
▁દર્	-13.7207
ફ્લો	-13.7208
▁રિબ	-13.721
ગમગ	-13.721
િકાઓ	-13.7214
રૂડ	-13.7218
▁દં	-13.7219
ડ્રિફ	-13.7219
શોર	-13.7221
બંદ	-13.7221
▁ચૂ	-13.7223
ાંતવા	-13.7225
્વેટ	-13.7228
પથ	-13.7229
માર્ક	-13.7229
દળ	-13.7233
શલ	-13.7236
▁ક્લાઇમ્બ	-13.7237
▁વિન્ડસ	-13.7237
ઇલર	-13.7238
તળા	-13.7238
▁બેકહ	-13.7241
▁સ્પ્લે	-13.7242
યુદ્ધમાં	-13.7246
▁ટાય	-13.7247
કાર્પેટવાળ	-13.7248
▁બાઉ	-13.7248
કૂ	-13.7251
ુલ્લ	-13.7252
ટાયેલા	-13.7252
ોગ્રાફ	-13.7256
પેન્ડ	-13.7256
▁પોશ	-13.7263
▁સ્પોર્ટસ	-13.7265
▁આર્ટવર્કન	-13.7265
ફળ	-13.727
▁મિત્	-13.7272
બીમ	-13.7273
ગેટો	-13.728
ંકિત	-13.7282
▁બાઇ	-13.7283
▁દૂ	-13.7283
▁નિર્મા	-13.7284
▁લટ	-13.7291
▁ગોલકીપ	-13.7291
ઇન્ટિ	-13.7292
▁બનવા	-13.7293
ન્ટ્સ	-13.7302
ંડન	-13.7303
ર્જના	-13.7306
યોગ	-13.7308
ગ્રહ	-13.7309
▁ફુલ	-13.7313
ડલ્સ	-13.7316
▁ઓક	-13.7316
▁કોપન	-13.7317
ંગ્સમાં	-13.7327
ગાલ	-13.733
િચ	-13.7333
જવા	-13.7337
▁જીમ	-13.734
▁ગ્રેહા	-13.7342
▁ફૂલવા	-13.7343
ંઈક	-13.7344
▁ફુગ	-13.7348
▁સ્નોસ્	-13.7348
▁શેફ	-13.7353
▁વિદ્ય	-13.7358
ંદરમાં	-13.7361
સંત	-13.7364
્ટિંગ	-13.7367
મોહ	-13.737
▁દેવાય	-13.7379
્સમેન	-13.7386
ચેત	-13.7392
ફોડ	-13.7393
સમેન	-13.7394
ાઉલ	-13.7395
▁મેદ	-13.7403
▁મરઘી	-13.7404
ાંઠ	-13.7419
▁વૃક્ષન	-13.7419
▁કમ્પ	-13.7419
▁આશ	-13.7422
▁રેફ	-13.7423
ાઇટ્સ	-13.7424
▁પોપ્સ	-13.7425
્કાર	-13.7427
ાઇપ	-13.7435
▁જીવ	-13.7435
કોચન	-13.7435
લાન્ટ	-13.744
▁કાર્ય	-13.7446
▁સવા	-13.7469
ેબ્રા	-13.7477
▁સ્ટ્રોમ	-13.7477
કિસ	-13.7481
▁હગ	-13.7482
ેશિયર	-13.7488
હૂપ્સમાં	-13.7492
ડોબ	-13.7497
▁લેન્ડફ	-13.7497
ુટુ	-13.7498
ુઓ	-13.7507
ંખ	-13.7509
ેરાશ	-13.7512
ાક	-13.7531
ોલિન	-13.7531
▁કિલ્લાન	-13.7538
▁ધ્યાનપ	-13.7542
▁નાળા	-13.7546
▁સ્નોબ	-13.7548
િયરમાં	-13.7551
્લાસ્ટ	-13.7555
ત્રી	-13.7556
ેલ્મે	-13.7565
▁દોડાવ	-13.7568
▁સ્લાઇ	-13.7577
વાહી	-13.758
▁પેપ	-13.7582
ળંગ	-13.7584
▁સુરંગ	-13.7586
પર્સ	-13.7587
▁બાસ્ક	-13.7588
▁મૉ	-13.7589
ફોલ	-13.7601
કોચ	-13.7604
ફિસ	-13.7607
કેસન	-13.7608
વક્તા	-13.7621
▁નામ	-13.7625
▁ટિ	-13.7631
ન્ક	-13.7634
ઇન	-13.7642
યામા	-13.7643
સ્લાઇડ	-13.7645
▁ઊભુ	-13.7646
▁ખભ	-13.7653
િયેટ	-13.7653
ાટ્સ	-13.7661
▁બીચન	-13.7662
પેપ	-13.7675
▁ધાબ	-13.7681
▁કેળ	-13.7682
ાથમાં	-13.7683
લ્લ	-13.7689
ઇજિ	-13.7693
▁જેટલ	-13.7704
વજ	-13.7704
ટરટ	-13.7716
ુસ	-13.7718
્બ્સ	-13.7735
ફાય	-13.7739
ેનો	-13.7742
હારન	-13.7743
પહેરેલો	-13.7744
▁પરિપ	-13.7747
▁રીડ	-13.7754
કેશન	-13.7762
હીં	-13.7775
ફ્ટ્સ	-13.7802
થિત	-13.7804
▁નિર્માણન	-13.7807
ોલ્ફ	-13.7819
▁જી	-13.7821
▁પ્રતિસ	-13.7826
▁વાળવા	-13.7844
કવર	-13.7846
ૂલન	-13.7848
માથાવાળ	-13.785
▁અનુ	-13.7856
▁રેસટ્રેકન	-13.7868
ુળ	-13.7871
▁ટેકરીન	-13.7878
ક્ષિત	-13.7894
▁પર્વતમાળામાં	-13.7898
ગ્યા	-13.7903
યેલ	-13.7903
▁જેલ	-13.791
કોણ	-13.7916
સુટમાં	-13.7917
▁નાકન	-13.792
તુમાં	-13.792
તાર	-13.792
ઘો	-13.7923
▁પવનન	-13.7938
▁હગ્	-13.7942
▁વાંસ	-13.7943
તીયન	-13.795
▁પૃથ્વીન	-13.7957
ુઝ	-13.7965
મિનિયમ	-13.7965
પ્લે	-13.7978
ંગમ	-13.7984
વીડ	-13.7986
▁સંકેતન	-13.7989
ફત	-13.8002
િસ્ટમ	-13.8014
ટાળે	-13.8033
રાતો	-13.8042
▁ગણ	-13.8049
તાઓ	-13.8054
તિમ	-13.8058
▁શંકુમાં	-13.8065
લાઓ	-13.8072
▁ફીણન	-13.8075
કેટમાં	-13.8082
▁માપ	-13.8085
ોઝન	-13.8087
ળવ	-13.8094
▁વાનમાં	-13.8099
ાખે	-13.8122
ટ્રા	-13.8201
લીસ	-13.8212
રવ	-13.8218
▁સંતુ	-13.8222
પેટી	-13.8226
ેવાન	-13.8253
નિશ	-13.8283
▁અસા	-13.8283
▁સીવી	-13.8293
્રૉ	-13.8298
▁કૂદવ	-13.8306
ોલ્ટ	-13.8307
સુ	-13.831
ીચ	-13.8314
▁હૉલ	-13.8316
લવાળા	-13.8323
▁કમ્	-13.8328
▁પેડલર	-13.8346
િલ્	-13.8367
ગળ	-13.8368
▁મનોરંજનન	-13.8374
▁તરવ	-13.8386
જિ	-13.839
▁જાંબ	-13.8392
નેજર	-13.8409
શિયા	-13.8426
▁ચીનન	-13.843
કડીન	-13.8446
િંગમાં	-13.8451
ડાન	-13.8452
▁ચડવા	-13.8471
▁થાંભલાન	-13.8479
વાઈ	-13.8483
ર્ટમાં	-13.8493
ટવો	-13.8497
▁બીયરન	-13.8498
્કેટ	-13.8507
વિત	-13.8541
▁ચિત	-13.8544
સ્કે	-13.8556
સાહિત	-13.8558
ખલ	-13.8561
યરમાં	-13.8619
ંકર	-13.8626
બીએ	-13.8668
▁બબલમાં	-13.869
▁રંગમ	-13.8704
▁ઉત્પાદનોન	-13.8711
▁સ્વે	-13.8719
▁ટેલ	-13.8739
ટ્રેનર	-13.875
▁ફ્લાઇટમાં	-13.8755
લકી	-13.8759
▁ભાગવા	-13.8759
વ્ઝ	-13.8762
▁બ્રશન	-13.8764
લીઓ	-13.8787
કાળો	-13.8797
પેકર્સ	-13.8813
▁મંડ	-13.8822
▁વેડ	-13.8822
ઘાસ	-13.8826
▁કિલ	-13.884
જમ	-13.886
▁ભેખડન	-13.8862
લોટમ	-13.8864
રેલો	-13.8876
મ્પી	-13.8887
ીખ	-13.8894
ડિંગમાં	-13.8894
▁સોક	-13.8909
ેન્ટ	-13.8979
▁નાખવ	-13.9006
▁નોર્	-13.9012
▁ઉત્સાહી	-13.9019
▁જૂથન	-13.9075
ોશ	-13.909
▁મં	-13.91
તેના	-13.911
્રપ	-13.9128
લિપ્સ	-13.9132
▁સ્પર્શત	-13.9141
ોલ્ડ	-13.9147
▁સાંભળત	-13.9174
▁પાઈ	-13.9176
બ્સ	-13.9189
▁પરિ	-13.9214
ૂઆત	-13.9224
ટકાવવા	-13.9227
લીપ	-13.9231
ચાન	-13.9258
ોજ	-13.9278
ીઅર	-13.9279
ડિ	-13.9308
અમેરિકનો	-13.9309
યેલો	-13.9342
વ્યા	-13.9344
▁ફળન	-13.9359
▁શોટન	-13.9361
▁હોઠન	-13.9366
પીડ	-13.9398
પેટીઓ	-13.9415
ંદર	-13.9451
▁કુસ્તીબાજન	-13.9464
▁જાક	-13.9464
ર્મ	-13.9496
પૂર	-13.9513
ોટલી	-13.9535
ુલ	-13.9544
પોમ્	-13.9547
▁રહેવાન	-13.9556
▁દોડવીરોન	-13.9567
્યસ	-13.9594
ડીવાળા	-13.963
વ્યક્તિ	-13.9644
ચાં	-13.9646
▁સૂ	-13.9652
લાસ	-13.9691
▁પાર્કા	-13.9712
▁ધરા	-13.9719
▁બ્રિજન	-13.9726
▁યોજ	-13.9729
▁ટુટ	-13.9737
▁સેક	-13.9741
ન્ચ	-13.9742
પાસે	-13.9763
▁સમક	-13.9799
▁આંતરછેદન	-13.9816
ર્યા	-13.9848
પડે	-13.985
▁ડમીન	-13.9865
યેલું	-13.9884
▁પ્લેસ	-13.9893
શકો	-13.9942
બાળક	-13.9951
▁સરકવાન	-13.9961
મતી	-13.9979
ાનિક	-13.9989
નાનો	-14.0019
ભળે	-14.0021
▁કેનો	-14.0039
▁પર્ફોર્	-14.0103
▁રડત	-14.0107
ેલમાં	-14.0134
▁ક્ષેત્રન	-14.0147
▁મુક	-14.015
ખરે	-14.0153
▁ઓસ	-14.0161
▁હાર્ડહ	-14.0198
▁શિકારન	-14.0217
્લીગ	-14.0229
▁બારન	-14.0288
રેડે	-14.0297
મગ્ર	-14.0306
કોર	-14.032
સુટ્સ	-14.035
▁એક્સ	-14.0357
▁વગાડવાન	-14.0357
▁સ્ટે	-14.045
▁એરેનાન	-14.0462
ટાઇલ	-14.0497
ંકેત	-14.0526
કારો	-14.0547
ાર્ગ	-14.0554
▁ડ્રાઇવરન	-14.0554
▁મોટરસાયકલોન	-14.0559
્રદ	-14.0579
▁રોકવા	-14.0584
કિન	-14.0607
▁ખો	-14.0616
ૃત્	-14.0623
▁પેલ	-14.0627
યોન	-14.0633
▁અન્	-14.0645
ાઇન	-14.0713
બેર	-14.0755
ત્રો	-14.0756
▁બેનરન	-14.0757
▁ઇમારતોવાળ	-14.0778
ળાકાર	-14.0783
▁વાઇનન	-14.0809
કમ	-14.0817
▁શરૂઆતન	-14.0824
▁નમત	-14.083
ક્ષા	-14.0861
વેલ	-14.0924
િશા	-14.0935
પટ	-14.0956
પ્સ	-14.0965
થાર	-14.0966
▁શબ	-14.097
ફિલ્ડ	-14.0986
▁પગથિયાન	-14.0993
▁ફટાકડાન	-14.1018
રિત	-14.1032
▁ચિહ્નન	-14.1065
▁કપડાવાળ	-14.1073
્રેસમાં	-14.1081
ગીન	-14.1088
▁સ્ટ્રે	-14.1097
ંગર	-14.1105
▁અમે	-14.1112
િયાક	-14.1115
ાફ	-14.1115
ાળો	-14.1157
સ્કર	-14.1201
▁શૌચાલયન	-14.1243
▁થિયેટરન	-14.125
ર્ટર	-14.1284
▁ફ્રીસ્	-14.1347
▁હેડલાઇ	-14.1385
વાય	-14.1386
રદ	-14.1426
લેડ	-14.1436
▁પીણાંન	-14.1474
ડના	-14.1482
અવ	-14.1561
કલર્સ	-14.1575
દ્ય	-14.1611
▁રેફ્રિજરેટરન	-14.1616
નીચ	-14.1623
▁ઉપાડવાન	-14.1649
લેટો	-14.1666
પરાગ	-14.1671
યમ	-14.1676
▁રમકડ	-14.1682
ૂડ	-14.1707
નેસ	-14.172
▁અડ	-14.1751
▁ટુકડામાં	-14.1752
▁સ્ટ્રોમાં	-14.1756
ેનિસ	-14.1841
▁દેખાવા	-14.1846
િસ્ટર	-14.186
મય	-14.189
ાંધીન	-14.1897
ફામાં	-14.2013
▁ડોલત	-14.2017
ેસમાં	-14.2029
િન્	-14.2097
▁પાંખોવાળ	-14.2117
પચ	-14.2153
ેરી	-14.2211
્સન	-14.2302
▁ડેલમે	-14.2304
▁મોડેલન	-14.2319
▁બેન્	-14.2435
ાત્ર	-14.2452
▁ઇમારતોમાં	-14.2464
▁ઉપરન	-14.2469
▁એકોસ	-14.2534
શિયલ	-14.2554
િયામાં	-14.257
કૂદી	-14.2573
બાય	-14.2591
ોડતી	-14.2661
ાઇસ	-14.2678
ડીઓન	-14.2695
▁ઘો	-14.2706
▁બેસ	-14.2707
રિજ	-14.2739
ાડો	-14.2778
ન્	-14.284
▁ટેક્સીન	-14.286
▁હર	-14.2871
▁નકશાન	-14.2881
▁બેરલન	-14.2886
▁પેનલન	-14.289
પહેરેલી	-14.2901
▁બાસ્કેટબોલન	-14.2971
કનો	-14.3007
▁પ્	-14.3012
ીતી	-14.3048
▁વેલ	-14.3052
▁સાર	-14.308
ારો	-14.3111
રોડવે	-14.3125
દામ	-14.3137
ુવિધ	-14.3164
▁પકડ્ય	-14.3196
નલ	-14.3203
▁ચંદ	-14.3231
▁ફિલ્	-14.3259
▁પુર	-14.3263
ડાઇવર્સ	-14.3263
્સ્ટ	-14.3271
સામે	-14.3283
રૂમ	-14.3288
્રોસ	-14.3295
સ્લ	-14.3302
▁માર્ય	-14.3311
સ્તા	-14.3327
▁ધ્વજન	-14.3329
▁સુશ	-14.3402
ોજિ	-14.3443
▁તાળ	-14.3456
ોલ્લ	-14.3473
ાખીને	-14.3477
▁ગૌર	-14.3481
તિક	-14.3512
ગ્રાઉન્ડમાં	-14.352
ર્ગે	-14.3608
▁બ્	-14.3614
તાના	-14.3625
િન્ડલ	-14.3692
▁ફેં	-14.3713
લેજ	-14.3718
મહિલા	-14.3721
યનો	-14.3774
ુષ્ટ	-14.3851
▁પુસ્તકન	-14.3904
ગ્ન	-14.3945
▁ઘોડે	-14.3963
િકી	-14.3972
પાં	-14.398
નવ	-14.4018
હિ	-14.4049
▁શ્રેણીન	-14.4079
▁જાળીન	-14.4148
▁અધિકારીઓન	-14.4198
ક્સર	-14.422
મેરા	-14.4264
તાનો	-14.4276
તના	-14.4289
રેલું	-14.4302
રાઇડ્સ	-14.4305
ંગલ	-14.4332
સ્લી	-14.4347
ખાડામાં	-14.4385
ઈલ	-14.4391
▁ગેટવ	-14.4393
ેગા	-14.4461
ીવ	-14.4466
સ્ટેજ	-14.4472
રચના	-14.4485
ન્જર	-14.4524
▁પાસેન	-14.4534
ેચ	-14.4577
્રેટ	-14.4637
પાય	-14.4681
▁પાટિયાન	-14.4839
▁મીણ	-14.4871
▁વ્	-14.4896
વિભાગન	-14.4924
▁કાય	-14.4924
ડવા	-14.4959
ક્લાઇ	-14.4967
▁આધારન	-14.4979
▁વળ્ય	-14.5019
થેન	-14.5027
વમાં	-14.5067
દ્યા	-14.5068
ોનિક	-14.5087
મળ	-14.513
ાથ	-14.5159
ગલામાં	-14.5205
ઈઝ	-14.5236
ોમ્બો	-14.5239
ાઇ	-14.5251
દોડી	-14.5261
ેલીઓ	-14.5296
ટફ	-14.5315
રવે	-14.5322
▁ડિપ	-14.5365
▁માળખાન	-14.537
▁આંખોન	-14.5426
▁ફાઇટરન	-14.5429
રતન	-14.544
કાઈ	-14.5486
ાઇકલ	-14.5499
શાલ	-14.5507
▁ઢા	-14.5509
નાઇટ	-14.553
જ્યારે	-14.5536
ગિય	-14.5549
▁ખુલ્	-14.5622
બાળકો	-14.5676
્રિસ્	-14.5685
રીમાં	-14.5704
▁ટ્રેનરન	-14.5766
ૂટીન	-14.5798
▁ગેલ	-14.5821
સાય	-14.5835
▁સબ	-14.584
ન્ટિંગ	-14.5895
▁કર્	-14.5906
▁ઇગ્	-14.5914
ુનો	-14.595
ેમ	-14.5957
▁ખી	-14.5964
▁એસ્કે	-14.6039
▁પુસ્તકમાં	-14.6059
લ્પન	-14.6068
ૂઝ	-14.6102
▁મિશ	-14.6128
▁આત	-14.6129
ળું	-14.6162
પાણીમાં	-14.6194
યુવાન	-14.6218
▁ચૂંટત	-14.6229
ોલમાં	-14.63
▁બેર	-14.6308
▁મર	-14.6329
રાયેલી	-14.6375
▁તુ	-14.6381
▁ગંધા	-14.6391
્પ	-14.6406
ાટ	-14.6411
▁જમીનન	-14.6417
▁ટેકર	-14.6459
▁કમ	-14.6482
િત્ર	-14.6482
▁સની	-14.6489
▁વાયરન	-14.6545
ીજ	-14.6556
્રેમ્પ	-14.6669
▁બલૂનન	-14.671
▁ને	-14.6711
સાં	-14.6747
▁સીગલન	-14.6759
ામે	-14.6791
▁ભાગત	-14.6839
ર્ટી	-14.6846
િરામિ	-14.6847
લેટર	-14.6858
િયોન	-14.686
▁ખાડીન	-14.6911
▁શ્વાનોન	-14.6959
ગે	-14.7157
▁પર્	-14.7222
▁છંટકાવન	-14.7234
ાતા	-14.7242
નમાંથી	-14.7325
▁રાફ	-14.7327
▁અન્ડરવેરન	-14.7417
▁સ્ટ્રી	-14.7417
▁સાન્ટાન	-14.7429
▁નરસંહારન	-14.7522
ંથી	-14.7595
કીને	-14.7634
હેરન	-14.7651
▁તરાપાન	-14.7706
▁મિન	-14.7724
સીમાં	-14.7776
▁ખંડેરન	-14.7833
▁ફૂંકત	-14.7872
્સિંગ	-14.797
ેખ	-14.7974
▁જોડીન	-14.7981
▁પીણા	-14.8
િયમ	-14.812
▁વાનન	-14.8219
ેરે	-14.822
ેઈન	-14.8252
તેન	-14.8356
▁સ્કેટબોર્ડન	-14.8484
ળે	-14.8563
▁ક્લા	-14.863
માટે	-14.8661
ટેબલ	-14.8741
▁થેલીન	-14.8757
▁ગ્રી	-14.8757
રાળ	-14.8766
ોવેલ	-14.8882
▁બોક્સન	-14.8942
▁સ્કેટબોર્ડરન	-14.8945
ંટી	-14.8969
નિફ	-14.9065
▁લેક	-14.9127
▁બેડર	-14.9225
ગભ	-14.9247
▁નાસ્	-14.9251
▁લાવવાન	-14.9266
ટ્રેક્	-14.9269
કડિયા	-14.9304
▁જળમાર્ગન	-14.9336
ોકીઓ	-14.9364
▁સામયિકોન	-14.9366
હવામાં	-14.9462
ુર	-14.9516
▁રેઝ	-14.9558
▁ફૂલોમાં	-14.9638
▁લોગોન	-14.9674
મ્ર	-14.9674
▁ફર્	-14.9683
નાના	-14.973
▁ગણવેશવાળ	-14.9811
પોર	-14.9897
▁વરરાજાન	-14.9906
▁ઇયરફ	-14.9943
ાવ	-14.9957
▁વયસ્કોન	-14.9971
ીવાળા	-14.9983
લને	-15.0083
▁દૂધન	-15.0106
મિ	-15.0137
થે	-15.0138
ીઓમાં	-15.0208
▁ડોકન	-15.0222
ાળમાં	-15.0314
્લિંગ	-15.0329
▁પરન	-15.0382
▁જોન	-15.0446
રેટ્સ	-15.046
▁છલ	-15.0492
▁વિસ્તારો	-15.0524
ીઇંગ	-15.0553
ઝા	-15.0573
▁અંદરન	-15.0584
ૉ	-15.0975
ૈ	-15.0976
ઊ	-15.0977
