<pad>	0
<s>	0
</s>	0
<unk>	0
<PAD>	0
▁છે	-2.63724
.	-2.69049
▁એક	-2.80329
▁પર	-3.68119
▁અને	-3.92303
ની	-4.03992
▁માણસ	-4.07701
▁રહ્યો	-4.12907
ના	-4.4645
▁બે	-4.53529
▁રહ્યા	-4.65474
▁કરી	-4.66036
▁રહી	-4.66668
▁પહેરેલો	-4.69961
▁લોકો	-4.73761
▁સ્ત્રી	-4.8555
થી	-4.97794
▁સાથે	-5.05282
ો	-5.0946
નો	-5.12241
ને	-5.12649
▁શર્ટ	-5.17645
ી	-5.17704
▁પહેરેલી	-5.19928
▁સફેદ	-5.19987
નું	-5.26205
▁	-5.27984
▁વાદળી	-5.3235
માં	-5.33394
ા	-5.34102
▁જોઈ	-5.35376
▁લાલ	-5.38251
▁કરે	-5.39511
▁છોકરી	-5.43498
▁છોકરો	-5.47609
▁તે	-5.48648
▁સામે	-5.49219
ે	-5.52097
▁મહિલા	-5.58724
▁કૂતરો	-5.61597
▁કાળા	-5.61666
▁પહેરેલા	-5.65376
▁જૂથ	-5.72719
▁બાળક	-5.74485
▁બહાર	-5.7503
▁પુરુષ	-5.78183
▁માટે	-5.7978
▁વ્યક્તિ	-5.82592
▁યુવાન	-5.83199
▁પાસે	-5.84253
▁ચાલી	-5.85678
▁માણસો	-5.86708
▁ત્રણ	-5.88677
▁બાળકો	-5.90492
▁રહ્યું	-5.92561
▁તેના	-5.93841
ું	-5.95153
▁રસ્તા	-5.98567
▁નાનો	-6.00648
▁જ્યારે	-6.01771
▁રંગના	-6.08316
▁ટોપી	-6.11187
▁તરફ	-6.1254
▁બેઠો	-6.14692
▁વૃદ્ધ	-6.18947
▁બાજુમાં	-6.2032
▁રમી	-6.23657
▁પોશાક	-6.26613
▁કૂદી	-6.30034
▁પકડીને	-6.30048
▁પાછળ	-6.317
▁ભૂરા	-6.34607
▁પાણી	-6.36267
▁દોડી	-6.3655
▁બોલ	-6.37181
▁લઈને	-6.37333
▁નાના	-6.38049
▁ઉભા	-6.38522
▁નાની	-6.3864
▁કામ	-6.39019
▁હાથ	-6.39176
▁હોય	-6.39909
▁લીલા	-6.4188
-	-6.42688
▁નીચે	-6.44051
▁ઊભો	-6.4467
▁સ્ત્રીઓ	-6.46251
▁કૂતરા	-6.47078
▁ફૂટબોલ	-6.47329
▁પ	-6.47828
▁પીળા	-6.48957
▁પુરુષો	-6.50074
▁શેરીમાં	-6.50663
▁ઘણા	-6.53807
▁જેકેટ	-6.54465
▁પહેરીને	-6.55001
▁કાળો	-6.56675
સાર	-6.57668
▁નારંગી	-6.57689
▁ફૂટપાથ	-6.57944
▁બેઠા	-6.58124
▁રંગનો	-6.59732
▁ટેબલ	-6.60567
▁ઉપર	-6.60829
▁પકડી	-6.62208
▁સાયકલ	-6.62992
▁બેઠી	-6.63051
▁બાઇક	-6.63993
▁ગુલાબી	-6.65058
▁કિનારે	-6.67465
▁પાણીમાં	-6.67696
▁જે	-6.69157
▁પોતાન	-6.71525
▁છોકરાઓ	-6.72444
▁મોટા	-6.73495
▁હવામાં	-6.73936
▁છોકરીઓ	-6.74646
▁ઉભી	-6.74892
▁વખતે	-6.75214
▁વાત	-6.76389
▁એશિયન	-6.76865
▁થઈ	-6.7703
▁કપડાં	-6.78388
માંથી	-6.79551
▁ઇમારત	-6.80004
▁ખેલાડી	-6.80704
▁ચાર	-6.81384
▁વગાડી	-6.83722
▁દિવાલ	-6.87021
▁મહિલાઓ	-6.87728
▁ઘાસ	-6.87812
▁સવારી	-6.88617
▁ચલાવી	-6.88814
▁કેમેરા	-6.89551
▁શેરી	-6.91373
▁દરિયા	-6.91498
▁પોતાના	-6.92629
▁લઈ	-6.94394
▁બીજા	-6.94646
▁ગિટાર	-6.96156
▁રમે	-6.96386
▁કરતી	-6.968
▁સોનેરી	-6.97177
▁ઉભ	-6.97352
▁આ	-6.97474
▁આસપાસ	-6.97772
▁રહેલ	-6.97951
▁રમત	-6.98496
▁રાખે	-6.98527
▁શહેર	-6.9967
▁કોઈ	-6.998
▁ફોટો	-7.00191
▁જીન્સ	-7.05915
▁પોઝ	-7.06858
▁કંઈક	-7.0716
▁બેન્ચ	-7.07399
▁જુએ	-7.0836
▁ભીડ	-7.09412
▁કાર	-7.09623
▁જઈ	-7.09955
▁પ્રયાસ	-7.12489
▁વચ્ચે	-7.12489
▁ઝાડ	-7.13328
▁બરફ	-7.15082
▁જ	-7.16141
િંગ	-7.16259
વાળા	-7.16271
▁આપી	-7.16813
▁કરવા	-7.16841
▁ચશ્મા	-7.17314
▁કરતા	-7.18184
▁શોર્ટ્સ	-7.18252
▁રંગની	-7.18485
▁સવાર	-7.19615
▁સ્ટેજ	-7.19864
▁મોટી	-7.20611
▁ટી	-7.21212
▁ગ્રે	-7.23295
▁મેદાનમાં	-7.23461
▁બેઠેલા	-7.25291
▁પૃષ્ઠભૂમિમાં	-7.2579
▁નાનું	-7.26485
▁રાહ	-7.26586
▁પેન્ટ	-7.27122
▁તેમ	-7.28316
▁બેઝબોલ	-7.28487
થાય	-7.2873
▁ઉપયોગ	-7.2908
▁જમીન	-7.29298
▁વાળવાળી	-7.29585
▁બરફમાં	-7.29698
▁કરતો	-7.2975
▁સમૂહ	-7.30727
▁હાથમાં	-7.31777
▁બાંધકામ	-7.32019
▁સૂઈ	-7.32479
▁કેટલાક	-7.33251
શર્ટ	-7.34974
▁ઘોડા	-7.35367
▁હેલ્મેટ	-7.356
▁ખેતરમાં	-7.35826
▁પાર્કમાં	-7.38431
▁પડે	-7.38893
▁યુવતી	-7.39282
▁કોટ	-7.39864
▁ત્યારે	-7.40807
▁વાળ	-7.40877
▁એકબીજા	-7.41472
▁તેમના	-7.43982
▁જાય	-7.44125
▁મોટો	-7.44377
િત	-7.44448
▁ચઢી	-7.44645
▁ખડક	-7.45767
▁કાળી	-7.46123
▁લાકડાના	-7.46364
▁શર્ટમાં	-7.4658
▁ટોપ	-7.46584
▁રાખીને	-7.4683
▁બેન્ડ	-7.4715
▁ડ્રેસ	-7.47238
▁જાંબલી	-7.47364
▁નજીક	-7.479
ક	-7.48287
▁રંગ	-7.48346
▁ઊભ	-7.50271
ર	-7.5042
ન	-7.50705
▁ખેલાડીઓ	-7.50971
▁વિસ્તારમાં	-7.51381
▁કરીને	-7.52089
▁સૂટ	-7.52108
▁યુવાનો	-7.52954
▁ટેનિસ	-7.53999
▁બનાવી	-7.54005
▁માઇક્રોફોન	-7.54477
▁બેઠેલી	-7.54573
▁કામદારો	-7.55256
▁માથા	-7.55545
▁વગાડ	-7.56212
▁દોડ	-7.5684
▁રમતા	-7.57888
▁ઘાસમાં	-7.58826
વા	-7.59068
▁બાળકને	-7.59132
▁બાસ્કેટબોલ	-7.59382
▁કૂદકો	-7.59886
▁ભાગ	-7.60841
▁બોર્ડ	-7.61211
▁ખૂબ	-7.61722
▁વાંચી	-7.62135
▁પર્વત	-7.62346
▁ભૂરો	-7.6267
▁દરમિયાન	-7.63173
▁લાંબા	-7.63279
▁સનગ્લાસ	-7.63487
▁સ્મિત	-7.63907
▁દ્વારા	-7.64012
▁અંદર	-7.64575
▁બીચ	-7.65178
▁અન્ય	-7.65285
▁પગ	-7.65775
▁વ્યસ્ત	-7.66573
્સ	-7.66902
▁બેસીને	-7.67254
▁ખોરાક	-7.67441
▁આપે	-7.67575
▁પટ્ટાવાળા	-7.6784
વાળી	-7.68239
▁બીજ	-7.68416
▁રંગબેરંગી	-7.68537
▁યુગલ	-7.68689
▁સાફ	-7.68868
▁બેગ	-7.68957
▁સ્કેટબોર્ડ	-7.69168
એ	-7.69945
▁આનંદ	-7.70316
▁કે	-7.70344
▁દેખાય	-7.70542
▁વડે	-7.7133
▁વાળવાળો	-7.71484
▁દિવસે	-7.72071
▁રૂમમાં	-7.72114
▁પથ્થર	-7.7254
▁તૈયાર	-7.72934
▁ટેકરી	-7.73131
▁પુખ્ત	-7.74204
▁મારી	-7.74221
▁સીડી	-7.74994
▁પ્રદર્શન	-7.75442
▁બીજી	-7.75517
▁ચહેરા	-7.75527
▁આવી	-7.76813
▁તેજસ્વી	-7.77283
▁વાડ	-7.77427
▁ફ્લોર	-7.77482
▁રહેલો	-7.77686
▁ભેગા	-7.77736
▁પાંચ	-7.78158
લ	-7.79509
▁પી	-7.79559
▁આગળ	-7.80586
▁લાકડી	-7.82063
▁ડ્રેસમાં	-7.82772
▁હસતી	-7.84256
▁સુંદર	-7.84366
▁""	-7.85046
▁બાજુ	-7.85201
▁પાર	-7.85566
▁સ્વેટર	-7.86342
▁ટ્રક	-7.86957
▁ફૂલો	-7.87548
▁પાર્ક	-7.88098
▁ઈંટ	-7.88146
▁પૂલમાં	-7.88191
▁મોટરસાઇકલ	-7.88201
▁નૃત્ય	-7.8825
▁મોંમાં	-7.89013
▁દૂર	-7.89673
▁લે	-7.90497
▁ચિત્ર	-7.90585
▁દુકાન	-7.90792
▁રહીને	-7.90922
▁સાધનો	-7.91158
▁ટીમ	-7.91967
▁સ	-7.93105
▁ટોચ	-7.9315
▁રમકડા	-7.93171
▁ટ્રેન	-7.93362
▁બારી	-7.93374
▁જેકેટમાં	-7.93444
▁બેઠેલો	-7.94143
▁માણી	-7.94289
▁ઘર	-7.9462
▁બજારમાં	-7.94628
▁આરામ	-7.94712
▁શહેરમાં	-7.96042
▁પડી	-7.96154
▁સેલફોન	-7.963
▁વયના	-7.96395
▁ધ્વજ	-7.96448
▁ભોજન	-7.96591
▁ટ્રેક	-7.96666
▁મોજા	-7.97193
▁હોડી	-7.98242
▁ખુરશી	-7.98888
▁ગાડી	-7.99906
▁વસ્તુ	-7.99971
▁ચાલે	-8.00236
▁વેસ્ટ	-8.00313
▁મેદાન	-8.01082
▁ચાલતા	-8.01222
▁વાતો	-8.0261
▁તળાવ	-8.03151
▁કૂતરાઓ	-8.04035
▁છત્રી	-8.04669
▁સંગીત	-8.0475
▁રાત્રે	-8.05113
▁જંગલમાં	-8.05152
▁તૈયારી	-8.05254
▁આફ્રિકન	-8.05591
▁બરફીલા	-8.05591
▁પુસ્તક	-8.0698
▁અથ	-8.07357
▁રહેલી	-8.0778
▁ખાઈ	-8.08343
▁ચલાવ	-8.08768
▁થાંભલા	-8.08971
▁રેસ	-8.09142
▁ઘેરા	-8.09186
▁રેતી	-8.09228
▁રીત	-8.09498
▁રસોડામાં	-8.09614
▁પુલ	-8.09993
▁સ્વિમિંગ	-8.10345
▁પીળી	-8.10858
▁જેમાં	-8.118
▁લાકડા	-8.11872
ઓ	-8.12106
▁દરવાજા	-8.1304
▁ગણવેશમાં	-8.1377
▁બહારના	-8.14353
▁ફોન	-8.14797
▁હોકી	-8.14955
▁ફેંકી	-8.15329
▁રેસ્ટોરન્ટમાં	-8.16264
▁વિવિધ	-8.16545
▁ખેંચી	-8.16666
લા	-8.17015
▁ઢગલા	-8.1727
▁આવે	-8.17453
▁દર્શકો	-8.18926
▁યુવતીઓ	-8.18962
▁ટેન્ક	-8.1907
▁કાઉબોય	-8.19436
▁સમુદ્ર	-8.19535
▁પોલીસ	-8.19617
▁છોકરા	-8.19727
▁પગથિયાં	-8.19988
▁હસતો	-8.19989
▁બેકપેક	-8.20445
▁ઝૂકી	-8.21064
▁અમેરિકન	-8.21108
▁ધાતુ	-8.21472
▁લીલી	-8.22791
▁મારે	-8.23013
ુ	-8.24023
▁ગાય	-8.24423
▁સોફા	-8.24705
▁ભરેલા	-8.25006
ં	-8.25453
▁ખડકો	-8.25679
ણ	-8.25806
▁હતો	-8.26658
▁મદદ	-8.26749
▁પરિવાર	-8.2682
▁પીછ	-8.272
▁કામદાર	-8.27257
▁જેવ	-8.27263
▁પીઠ	-8.27454
▁પોશાકમાં	-8.27665
▁પહેરે	-8.27965
▁ખુલ્લા	-8.27986
▁કાગળ	-8.28428
▁વાતચીત	-8.28446
▁માછીમારી	-8.28737
▁દુકાનમાં	-8.28928
▁જેના	-8.29227
▁શર્ટલેસ	-8.29605
▁ટોળું	-8.29657
▁ભરેલી	-8.29785
▁સ્કર્ટ	-8.29792
▁લીલો	-8.30268
▁દોરડા	-8.30452
▁જ્યાં	-8.31088
▁માથું	-8.32123
▁વોલીબોલ	-8.32332
▁રેતીમાં	-8.32463
▁નદી	-8.3249
▁વિશાળ	-8.3338
▁મશીન	-8.33607
▁સ્વેટશર્ટ	-8.34444
▁જાહેર	-8.34866
▁સબવે	-8.35391
▁માતા	-8.35478
▁દોડતો	-8.35766
▁લાગે	-8.35885
▁બધા	-8.35906
▁બસ	-8.35954
▁દાઢીવાળો	-8.36163
િક	-8.36966
▁યુનિફોર્મ	-8.36982
પ	-8.37142
▁વૃક્ષો	-8.37365
▁વસ્તુઓ	-8.37954
▁ગ્રેફિટી	-8.38151
▁ઊંચા	-8.38233
▁એકસાથે	-8.38348
▁ચાલતી	-8.38351
▁શોપ	-8.3893
▁બેસે	-8.38965
▁લાત	-8.39463
▁આંગણામાં	-8.39534
▁સ્કેટબોર્ડર	-8.39757
▁ચુંબન	-8.40136
▁છ	-8.40436
▁સ્કાર્ફ	-8.40588
▁કાપી	-8.40837
▁ઘૂંટણિયે	-8.41042
▁ધૂળિય	-8.41428
▁પ્રકાર	-8.41655
▁પ્લેઇડ	-8.41727
▁કેપ	-8.41803
▁છત	-8.41882
▁ખભા	-8.41957
▁રેમ્પ	-8.41957
▁રેલિંગ	-8.41984
▁સવારો	-8.42215
▁ગણવેશ	-8.42371
▁મારતો	-8.4288
▁મારવા	-8.42892
▁ગીત	-8.43415
▁પકડવા	-8.44865
▁પાડી	-8.44987
▁પહેરેલું	-8.45289
▁ચહેરો	-8.457
▁પછી	-8.45938
▁સ્લાઇડ	-8.46129
▁કોંક્રિટ	-8.46417
▁ખરીદી	-8.46417
▁લાંબી	-8.4642
▁ધરાવતો	-8.47087
▁બેઠેલું	-8.47627
સ	-8.47883
▁પ્લાસ્ટિક	-8.48112
▁ફર	-8.48696
▁લાઇન	-8.50137
▁સજ્જ	-8.50781
▁રમતમાં	-8.50793
▁માટી	-8.50932
▁ઝૂલા	-8.50956
▁જૂતા	-8.51097
▁બેઠ	-8.51143
▁કિનારા	-8.51362
▁ટોળા	-8.51751
▁સામાન	-8.51838
ડ	-8.52039
▁ઘણી	-8.52146
▁લગાવી	-8.52267
▁આછા	-8.52633
▁દૃશ્ય	-8.53008
▁મોં	-8.53373
▁બનાવે	-8.53844
▁સિગારેટ	-8.53893
▁સમુદ્રમાં	-8.54792
▁મિત્રો	-8.54914
▁ઢંકાયેલા	-8.55399
▁ઈશાર	-8.55472
▁આગ	-8.5556
▁ત્યાં	-8.55721
▁સમયે	-8.56167
▁વસ્ત્રોમાં	-8.56224
▁ઘેરાયેલા	-8.5629
▁દિવસ	-8.56377
▁ફોટા	-8.56628
▁સજ્જન	-8.56647
▁અવરોધ	-8.57497
▁પીળો	-8.57622
▁ખડકાળ	-8.57861
▁તળાવમાં	-8.57979
▁કલાકાર	-8.58045
▁માણસને	-8.5814
▁ખૂણા	-8.58181
▁ક્રોસ	-8.58324
▁કમ્પ્યુટર	-8.58342
ીય	-8.58499
▁નજર	-8.58799
▁મજા	-8.58877
▁રેસ્ટોરન્ટ	-8.59638
▁ધ્યાન	-8.59753
▁ચાલતો	-8.60582
▁આઉટ	-8.60627
▁ઢંકાયેલ	-8.60864
▁ફરતા	-8.60898
▁સ્નોબોર્ડર	-8.62232
▁જોવા	-8.62306
▁કરવામાં	-8.62632
▁બોક્સ	-8.62875
▁અભ્યાસ	-8.63101
▁જર્સી	-8.63185
▁માસ્ક	-8.63385
ઝ	-8.63634
▁રહે	-8.63937
▁લેવા	-8.64092
▁ધરાવ	-8.64115
▁હોડીમાં	-8.6412
▁સર્ફર	-8.64487
તા	-8.64501
▁એપ્રોન	-8.6453
▁જમણ	-8.64818
▁વાહન	-8.64824
▁હસતા	-8.65376
▁માર્શલ	-8.65397
▁મકાન	-8.65406
▁માછલી	-8.65641
▁સ્ટેન્ડ	-8.6572
▁પલંગ	-8.65992
▁જંગલ	-8.66085
▁બંને	-8.66271
▁ખાલી	-8.66565
▁છોકરાને	-8.67222
▁યુક્તિ	-8.6742
▁ગ્રીલ	-8.67748
▁ટુકડા	-8.67996
▁તરી	-8.6807
▁પ્રકાશ	-8.68216
▁હતા	-8.68341
▁ગરમ	-8.68473
▁મ	-8.68722
▁પ્રતિમા	-8.69849
▁ધાર	-8.70202
▁સ્ટેશન	-8.70727
▁શાકભાજી	-8.70763
▁ઇમારતો	-8.71549
▁રમતી	-8.71834
▁રંગીન	-8.71888
▁પક્ષી	-8.71983
▁આવેલ	-8.72002
▁વિદ્યાર્થીઓ	-8.72011
▁ડોલ	-8.72153
ડોર	-8.72293
▁બોલિંગ	-8.725
▁સ્કેટબોર્ડિંગ	-8.72524
▁આકાશ	-8.72525
▁પ્રેક્ષકો	-8.72853
▁લાઇનમાં	-8.72901
▁ચલાવતો	-8.72918
▁ભારતીય	-8.73245
▁સ્પર્ધા	-8.7339
▁ટૂંકા	-8.73565
▁એકબીજાને	-8.73579
▁ડેસ્ક	-8.73874
▁બાર	-8.73946
▁સર્ફિંગ	-8.74519
▁વગાડતો	-8.74532
▁નંબર	-8.74562
▁લગ્ન	-8.74821
▁મોટું	-8.74826
▁જોતા	-8.75121
▁નદીમાં	-8.75223
▁સૂતો	-8.75231
▁વાદ્ય	-8.75492
▁ઊભેલા	-8.75595
▁પહેર્ય	-8.7597
▁બાઇકર	-8.75992
▁ચલાવત	-8.76221
▁પર્ફોર્મ	-8.76367
▁ફ્રીસ્બી	-8.76434
▁બંધ	-8.76511
▁કાઉન્ટર	-8.76782
ઠી	-8.76853
▁કપડા	-8.77395
▁અખબાર	-8.77443
▁ચિહ્ન	-8.77449
▁કાર્યક્રમમાં	-8.77644
▁લશ્કર	-8.77739
▁કિશોર	-8.77858
▁સૂર્યાસ્ત	-8.78068
▁પૂલ	-8.78092
▁એકલો	-8.7813
▁જોઈને	-8.7819
▁સ્કી	-8.78813
▁સર્ફબોર્ડ	-8.79003
વું	-8.79313
▁આઈસ્ક્રીમ	-8.79729
▁છોકરીને	-8.7975
▁ટીમો	-8.79879
▁બળદ	-8.80401
▁શિયાળા	-8.80653
▁સ્કીઇંગ	-8.80741
▁ફરવા	-8.80836
▁થોડા	-8.81253
▁વાદ્યો	-8.81391
▁ઉંચા	-8.8203
▁બતાવી	-8.82109
▁બગીચામાં	-8.82344
▁બાથિંગ	-8.82795
▁મોટરસાયકલ	-8.82849
▁બિકીની	-8.83136
ટ	-8.83196
▁કોફી	-8.83832
ઈ	-8.83899
▁આંખો	-8.83924
▁ભીડભાડવાળ	-8.83968
▁બોટલ	-8.84006
▁સિમેન્ટ	-8.84182
▁ડોક	-8.84203
▁વિક્રેતા	-8.84503
▁બોટ	-8.84602
▁ડાન્સ	-8.84739
▁મેચ	-8.85006
▁ગલીમાં	-8.85138
▁વિરોધી	-8.85215
▁દોરી	-8.85228
▁છોડ	-8.85506
▁સેટ	-8.85552
▁પર્વતો	-8.85633
▁ખુરશીમાં	-8.86032
▁પિતા	-8.86048
▁બારમાં	-8.86081
▁ભીડમાં	-8.8621
▁સ્કીઅર	-8.86259
▁વાળો	-8.86421
▁રસોઈ	-8.86659
▁હતી	-8.86668
▁કોર્ટ	-8.86698
▁સ્કૂટર	-8.87029
▁ધાબળા	-8.87385
▁બીયર	-8.87747
▁ડર્ટ	-8.88476
▁બતાવે	-8.88482
▁કારણ	-8.88574
▁કપ	-8.88753
▁ફુવારા	-8.89216
▁નાચી	-8.8938
▁રમકડ	-8.89451
▁ન	-8.89486
મ	-8.89625
▁અ	-8.89669
▁ઘાસવાળા	-8.89767
ેડ	-8.89782
▁હવા	-8.90438
લી	-8.9046
▁ઉંચ	-8.90562
▁ઝડપ	-8.90694
▁અલગ	-8.90726
▁લખેલું	-8.90937
▁દાઢી	-8.91059
▁લૉન	-8.91376
▁પ્રાણી	-8.9139
▁ગિયર	-8.91709
▁લેપટોપ	-8.91822
▁બૂટ	-8.91822
▁દોડતા	-8.91922
▁પરપોટા	-8.9226
▁સ્ટોર	-8.92368
▁પીણ	-8.9254
▁ટ્રેનમાં	-8.92551
▁રજૂ	-8.92581
▁વગાડતા	-8.92649
▁નવ	-8.92846
▁ટેટૂ	-8.92852
▁રોક	-8.9294
▁નિરીક્ષ	-8.93342
▁દંપતી	-8.93346
ખાય	-8.94065
▁કરિયાણા	-8.94116
▁રોડીયો	-8.94407
▁ખુરશીઓ	-8.94418
▁ગેમ	-8.94458
▁એવ	-8.94467
▁ઇલેક્ટ્રિક	-8.94506
▁મનોરંજન	-8.94507
▁ગાઈ	-8.94509
▁લડી	-8.9461
▁તપાસ	-8.94689
્ડ	-8.94848
▁ઉતરી	-8.94893
▁ચામડાન	-8.94922
▁પણ	-8.94957
▁તેઓ	-8.95085
▁ફૂડ	-8.95284
▁કેક	-8.95889
▁વેચી	-8.95993
▁કરતબ	-8.9607
▁સ્ક્રીન	-8.96079
▁કરેલી	-8.96155
▁બસમાં	-8.96281
▁કાચ	-8.96507
▁સાંભળી	-8.96699
▁ઊભી	-8.96956
▁ફેરવી	-8.97084
▁કાપડ	-8.97661
ણે	-8.97825
▁સંગીતકારો	-8.98107
▁સરકી	-8.98528
▁પેન્ટમાં	-8.98719
▁વળાંક	-8.98822
▁થત	-8.98912
▁પગે	-8.98978
▁લખેલ	-8.99193
▁સુધી	-8.99276
▁ર	-8.99485
▁2	-8.9961
▁પકડે	-8.99649
▁સ્કેટ	-8.9994
▁તડકા	-9.00005
▁મધ્ય	-9.00008
▁પુલમાં	-9.00104
▁ઝૂકીને	-9.00172
▁પાંદડા	-9.00398
▁પાટા	-9.00563
▁કાન	-9.00752
▁ટાલવાળો	-9.01021
▁તંબુ	-9.01183
▁ટાઈ	-9.01275
▁અધિકારી	-9.013
▁પરફોર્મ	-9.01332
▁ઢોલ	-9.01334
▁આર્ટ્સ	-9.01368
▁ફૂલ	-9.0152
▁વાયોલિન	-9.01749
▁થયા	-9.01753
▁ચાંદી	-9.01759
ગળે	-9.01808
▁હસી	-9.02426
▁ભાગમાં	-9.02962
▁ગયો	-9.03013
▁વિમાન	-9.03055
▁ફ	-9.03077
▁રેસમાં	-9.031
▁બ્રાઉન	-9.03438
▁જૂની	-9.03555
▁કિશોરો	-9.03807
▁નીકળી	-9.0386
▁ફેંકવા	-9.0388
▁સ્પર્ધામાં	-9.04089
▁દેખાત	-9.04114
▁ગોલ	-9.04708
▁માંસ	-9.04721
▁વાળવાળા	-9.04754
▁સ્કેટિંગ	-9.04811
▁3	-9.05046
▁કેટલીક	-9.0515
▁ભારે	-9.05205
▁ટોપીઓ	-9.05209
▁ફળો	-9.05221
▁મેરેથોન	-9.05581
▁વિચિત્ર	-9.05581
▁સંતુલ	-9.05581
▁પીણાં	-9.05623
▁સીટ	-9.0567
▁ક	-9.05679
▁બિલાડી	-9.05964
▁છાંટા	-9.06016
▁પ્લેટફોર્મ	-9.06016
▁રેતાળ	-9.06019
▁ખુશ	-9.06757
▁કૂદકા	-9.06891
▁કારમાં	-9.06989
▁ટાયર	-9.07617
▁ડ્રમ	-9.07672
▁વિસ્તાર	-9.07703
▁ફાયર	-9.07773
▁દ્રશ્ય	-9.07835
▁ટુકડ	-9.08033
▁ઊંચી	-9.08054
▁રસ્તો	-9.08188
▁જૂન	-9.08352
▁પર્સ	-9.08466
ધેડ	-9.09117
▁પરંપરાગત	-9.09121
▁ચિત્રો	-9.09785
▁કાઢે	-9.10016
ફ	-9.10084
▁વાતાવરણમાં	-9.10096
▁પાર્ટીમાં	-9.10337
▁જાહેરાત	-9.10753
ેફ્ટી	-9.10924
▁મળી	-9.10946
▁દોડમાં	-9.11085
▁જોતી	-9.11388
▁વરસાદમાં	-9.11722
▁પરેડમાં	-9.11754
▁રમતગમત	-9.11847
▁સ્લેજ	-9.11931
▁બારીમાં	-9.12304
▁કુસ્તી	-9.1231
▁ખોળામાં	-9.1231
▁યુનિફોર્મમાં	-9.12408
▁શ્યામા	-9.1252
▁પ્રેક્ટિસ	-9.12775
▁ભૂખરા	-9.12804
▁બનાવવા	-9.12817
▁થતા	-9.12852
▁સૂટમાં	-9.12852
▁ફુવારામાં	-9.13196
▁કરાટે	-9.13242
▁હેડફોન	-9.13242
▁ડાબ	-9.13526
▁વગરનો	-9.13574
▁સ્થળે	-9.13641
▁રેલ્વે	-9.14184
▁સ્થળ	-9.14253
▁ઉજવણી	-9.14657
▁સ્પર્શ	-9.14963
▁સમ	-9.15005
▁ગઈ	-9.15141
▁ગોલ્ફ	-9.1543
▁પડેલ	-9.1553
▁નાખે	-9.15612
જ	-9.16048
▁ધક્ક	-9.16093
▁શહેરી	-9.16659
▁ટીમના	-9.16682
▁ફોટોગ્રાફર	-9.17054
▁બિલ્ડિંગ	-9.17252
▁ફોટોગ્રાફ	-9.17276
▁ગાતો	-9.1755
▁ચડ્ડી	-9.18039
▁મૂકી	-9.18447
M	-9.18495
▁ગૌરવર્ણ	-9.18532
▁સૂર્ય	-9.18532
▁કોસ્ચ્યુમ	-9.18536
▁કલા	-9.18604
▁પ્રકારન	-9.18694
▁સ્ત્રીને	-9.189
▁શરૂ	-9.19524
▁હસતાં	-9.19569
▁ધૂળ	-9.19636
▁શિલ્પ	-9.19885
▁હેઠળ	-9.20024
▁રેકેટ	-9.20027
▁હાર્ડ	-9.20032
▁રમકડાં	-9.20122
▁છીછરા	-9.21056
▁રાખોડી	-9.2154
▁ઉડી	-9.22051
▁ટ્રેમ્પોલિન	-9.22051
▁સ્થાનિક	-9.22054
કી	-9.22243
▁ટ્રંક	-9.22514
▁વ્યક્તિઓ	-9.22976
▁શ	-9.23031
;	-9.23078
▁લાઇફ	-9.2308
▁મધ્યમ	-9.23092
▁અધિકારીઓ	-9.2312
▁દોડવીરો	-9.23143
▁માળખા	-9.23232
▁ખુરશીઓમાં	-9.23297
▁પટ્ટાવાળી	-9.23435
▁ટ્રાફિક	-9.23483
▁હાઇકિંગ	-9.23599
▁દોડતી	-9.2369
▁વર્ગખંડમાં	-9.2374
▁ડૂબ	-9.24093
▁સ્ટંટ	-9.24114
p	-9.24118
▁લગાવે	-9.24248
▁ત	-9.24317
▁જીમમાં	-9.24337
▁બજાર	-9.24426
▁ક્રિસમસ	-9.24645
▁રાખેલ	-9.24786
▁ટોપલી	-9.24918
▁ફળ	-9.25103
▁ગોગલ્સ	-9.25167
▁ગોરો	-9.25168
▁હૂડી	-9.25604
વાળો	-9.25923
ગ	-9.26126
▁વ્હીલ	-9.26159
▁વસ્ત્રો	-9.2634
▁થેલી	-9.26424
▁પાર્કિંગમાં	-9.27312
▁જતા	-9.27445
▁નાક	-9.27562
▁સભ્યો	-9.2757
▁નામ	-9.27812
▁પહેરી	-9.27823
▁ઔ	-9.27856
▁ખાવા	-9.2786
▁એ	-9.28014
ય	-9.28225
▁હલાવી	-9.28559
▁દોડવીર	-9.28862
▁સાઇન	-9.28929
▁રક્ષણ	-9.28931
▁રોલર	-9.28958
▁જોડાયેલ	-9.28971
ાઈ	-9.29439
▁વિરોધ	-9.29459
▁ઉડે	-9.29481
પાડે	-9.29505
▁ગોઠવી	-9.29528
▁સાથી	-9.29627
▁ચર્ચા	-9.29794
▁સંગીતકાર	-9.29982
▁સ્ટોપ	-9.30033
▁ઊંચો	-9.30411
▁ફુગ્ગા	-9.30559
▁પિકનિક	-9.30588
▁દાંત	-9.30589
▁રાહદારીઓ	-9.30597
▁કોન્સર્ટમાં	-9.30628
▁એકોર્ડિયન	-9.31147
▁કસરત	-9.31147
▁ઉભેલી	-9.31164
▁રેસિંગ	-9.31411
▁લાઇટ	-9.31559
▁"	-9.3159
▁નથી	-9.31659
▁આર્ટ	-9.31682
▁ફેંકે	-9.31788
▁ધોઈ	-9.32274
▁લીલાછમ	-9.32285
▁ગળા	-9.3245
▁પ્રોજેક્ટ	-9.32737
▁પૃષ્ઠભૂમિ	-9.32862
▁ઉંચી	-9.33146
▁ધૂમ્રપાન	-9.33413
▁મેકઅપ	-9.33414
▁શોટ	-9.33425
▁કલાકારો	-9.33578
▁શાળા	-9.33803
▁દારૂ	-9.33988
▁ડેક	-9.34069
▁બેઝ	-9.34447
▁ધકેલી	-9.34605
▁ટેન	-9.34731
▁સમય	-9.34768
▁કાર્ટ	-9.3493
▁બાંય	-9.35083
▁બેકગ્રાઉન્ડ	-9.35155
ણાં	-9.35216
▁મધ્યમાં	-9.35255
▁ઉત્સાહિત	-9.35788
▁જંગલવાળ	-9.36087
▁ગ્લાસ	-9.36122
▁પુસ્તકો	-9.3621
દ	-9.36275
▁સફાઈ	-9.36321
▁દોરડ	-9.36381
▁ગંદા	-9.36384
▁જાળી	-9.36875
▁સ્ટ્રીટ	-9.36912
▁રાખી	-9.36965
▁કોન્સર્ટ	-9.37465
▁વિરામ	-9.37508
▁ફુગ્ગાઓ	-9.37539
▁સુટ	-9.37578
▁પટ્ટા	-9.37603
▁B	-9.37617
▁સીડીઓ	-9.37659
▁બૂથ	-9.38021
▁મૂકે	-9.3817
▁શોધ	-9.3832
શ	-9.38425
▁ચલાવવા	-9.38565
ાત્મક	-9.38571
▁નળી	-9.38638
▁વિશે	-9.38709
▁સોકર	-9.38713
▁ખાડામાં	-9.38739
▁મુસાફરી	-9.38812
▁બેજ	-9.38851
▁વયનો	-9.39206
▁હુલા	-9.39315
▁કૂચ	-9.39436
▁ગાયક	-9.39515
▁જાળ	-9.39681
▁સાત	-9.39927
▁અહીં	-9.40538
▁સેન્ડલ	-9.40543
▁શો	-9.40846
▁તરતો	-9.41174
▁બધ	-9.4161
▁ઉત્સાહ	-9.41761
▁લખી	-9.41776
▁ક્રોસવોક	-9.41777
પૂર્વક	-9.41784
▁ચીયરલીડર્સ	-9.41787
▁ફ્લિપ	-9.4179
▁રમવા	-9.41842
▁ખેતર	-9.41859
વ	-9.41941
▁બેટ	-9.41972
▁ફરી	-9.41994
▁પકડવાનો	-9.42104
▁પહેર્યા	-9.42109
▁શરીર	-9.42188
▁ટેલિસ્કોપ	-9.42249
▁દિશા	-9.42374
▁સમારકામ	-9.42402
▁પહેલા	-9.42476
▁પડેલો	-9.42632
▁આપત	-9.42764
▁જિમ્નાસ્ટ	-9.4303
▁ખોદી	-9.43047
▁કિક	-9.43078
▁પરેડ	-9.43079
▁બાળકોને	-9.43141
▁દોરે	-9.43571
▁રગ્બી	-9.43663
▁વરરાજા	-9.43663
▁તરીકે	-9.4367
"	-9.43763
▁ભીડવાળા	-9.43801
▁ખુશી	-9.43857
▁કોલર	-9.43975
▁ગ્રાહકો	-9.43985
▁સ્ટોલ	-9.44173
▁સોના	-9.44276
▁લટકતો	-9.443
▁વ્યાવસાયિક	-9.44303
▁હમ	-9.44347
▁આપવા	-9.44406
▁ચાલવા	-9.44425
▁હરોળ	-9.4479
▁રડ	-9.44829
▁સૈનિકો	-9.44875
▁ઘોડો	-9.44941
▁ભીંતચિત્ર	-9.44941
▁જીભ	-9.44941
▁ફાયરમેન	-9.44945
▁ચઢવા	-9.44962
▁સ્વિંગ	-9.44962
▁છત્રીઓ	-9.45069
▁બાજુએ	-9.45166
પૂર્વીય	-9.45484
▁અપ	-9.4558
▁ઢોળાવ	-9.45586
▁ખાતા	-9.45588
▁રેલ	-9.45602
▁જવા	-9.46042
▁પ્રવાસીઓ	-9.46253
▁માણે	-9.46256
તી	-9.46279
▁ભેગ	-9.46396
▁ફૂંકી	-9.46487
▁થઈને	-9.46542
▁કોટમાં	-9.46786
▁પાઇપ	-9.46893
▁વગાડતી	-9.46941
▁સ્વિમસ્યુટ	-9.47058
▁ઇમારતમાં	-9.47236
▁બંદૂક	-9.47588
ર્સ	-9.47604
▁રસ્ત	-9.47762
▁ગોળ	-9.4782
▁રેડી	-9.47839
▁હૂપ	-9.48033
▁સ્નોબોર્ડ	-9.48063
▁રસોઈયા	-9.48182
▁મારતી	-9.48211
ચારિક	-9.48213
▁લગ	-9.48226
▁મિત્ર	-9.4832
▁તેવ	-9.48483
▁કેન્દ્ર	-9.48589
▁નર્તકો	-9.48876
▁તરતા	-9.48893
▁બારીઓ	-9.48987
▁દુલ્હન	-9.49096
▁કચરાપેટી	-9.49237
▁ઉપાડી	-9.49547
▁વાંકડિયા	-9.49547
તો	-9.4965
▁લાકડીઓ	-9.49706
▁કોન	-9.49774
ખત	-9.4994
▁હૂડ	-9.50164
▁કાળું	-9.50223
▁રાત્રિભોજન	-9.50223
▁ઘરે	-9.50367
▁કાર્યક્રમ	-9.50419
▁સ્ટેડિયમમાં	-9.50531
▁બ	-9.50734
▁માઇક્રોસ્કોપ	-9.50803
▁પાલખ	-9.50903
▁મેળવવા	-9.50903
▁વાદળછાય	-9.50903
▁ભીના	-9.51032
▁પાર્ટી	-9.51104
▁ઝૂલી	-9.51171
▁પેઇન્ટ	-9.51528
▁પર્વતારોહક	-9.51654
▁સૈનિક	-9.51659
▁શેરીઓમાં	-9.51867
▁વાસણ	-9.51968
▁વેટસૂટ	-9.52278
▁વાઇન	-9.52278
▁ચઢે	-9.52339
▁યુવક	-9.52346
ભગ	-9.52347
▁વોટર	-9.52971
▁વાંચે	-9.52972
▁ગાતી	-9.52974
▁સંપૂર્ણ	-9.52974
▁સ્ટ્રો	-9.52999
▁વર્તુળમાં	-9.53112
▁બનાવેલ	-9.53173
▁ખુલ્લ	-9.53304
▁પિયાનો	-9.53672
▁હસતું	-9.53674
▁ઉપકરણ	-9.53751
્	-9.53757
▁દેખાતી	-9.5391
▁ગાડીમાં	-9.54031
▁હ	-9.54213
િ	-9.54319
▁ધોધ	-9.5433
▁શાંત	-9.54368
▁રેફરી	-9.54376
▁યોર્ક	-9.54393
▁વેચ	-9.54406
▁ઉભેલા	-9.5442
▁સંભાળ	-9.54803
▁રણમાં	-9.54984
▁ગોલકીપર	-9.55085
▁શાંતિ	-9.55106
▁ખેંચે	-9.55113
▁સપાટી	-9.5521
પૂર્ણ	-9.55299
▁સ્ટ્રોલર	-9.55755
▁સેક્સોફોન	-9.55797
▁ખાખી	-9.55799
▁ટ્રેક્ટર	-9.55799
▁બ્લાઉઝ	-9.55799
▁ડેનિમ	-9.55799
▁ચિત્રકામ	-9.55806
▁સ્પોર્ટ્સ	-9.5581
▁ફરતો	-9.55891
▁રૂમ	-9.55911
બ	-9.55929
ત	-9.55946
ંગ	-9.55972
▁પોલો	-9.56163
▁વધ	-9.56383
▁રંગમાં	-9.56461
▁સ્ટૂલ	-9.56519
▁પહોંચે	-9.56555
▁ઢાળ	-9.57123
▁પૈસા	-9.57243
▁બિઝનેસ	-9.57243
ેટ	-9.57324
▁પ્રાણીઓ	-9.57348
▁ચીની	-9.57397
▁આંગળી	-9.57941
▁પાંદડાઓ	-9.58236
▁માર્ગ	-9.58259
▁સ્વચ્છ	-9.58709
▁બ્લુ	-9.58715
▁બીમ	-9.5873
▁કચરો	-9.59449
▁વાન	-9.59452
ક્ષ	-9.59499
મુજ	-9.59562
▁છદ્માવરણ	-9.59701
ચ	-9.59894
▁ઘરમાં	-9.59928
▁ભાષણ	-9.60196
▁પડીને	-9.60269
▁ફરતી	-9.60316
▁પ્લેટ	-9.60368
▁ટોપમાં	-9.60548
▁કરડ	-9.60552
▁થોડી	-9.60576
▁ચાલીને	-9.60586
▁વયન	-9.60615
▁જોડીને	-9.60733
▁ડાઇવિંગ	-9.60999
▁ગિટારવાદક	-9.61091
સ્ટિક	-9.61114
લેસ	-9.61148
▁પીવ	-9.61682
▁મોટરબાઈક	-9.61705
▁પથ્થરો	-9.61999
▁રાખત	-9.62142
▁લ	-9.6219
ગ્ન	-9.62458
▁નાચતા	-9.62479
▁લેબ	-9.63134
▁પાછ	-9.63233
▁એસ્કેલેટર	-9.63238
▁કન્યા	-9.63238
▁પ્રેઝન્ટેશન	-9.63238
▁ભરી	-9.63337
▁પકડેલ	-9.63377
▁ખોદકામ	-9.64013
▁રસ	-9.64078
▁ચાલ	-9.64218
▁સંગીતના	-9.64223
▁લગાવીને	-9.64277
▁4	-9.64638
▁ઘેટાં	-9.64795
▁રાંધી	-9.6482
▁મોઢામાં	-9.6493
▁વાગ	-9.64969
▁ગાડીઓ	-9.6497
▁ખોલી	-9.64979
▁વિડીયો	-9.65582
▁મારતા	-9.65585
▁પાવડો	-9.65589
▁જતી	-9.65675
▁દે	-9.65752
▁ટેકરા	-9.66347
▁ઉઘાડ	-9.66375
▁ઝભ્ભો	-9.66375
▁લિવિંગ	-9.66375
▁ટુવાલ	-9.66375
▁રેસટ્રેક	-9.66375
▁મળે	-9.66446
▁કાદવવાળા	-9.66569
▁ગયેલા	-9.66693
▁જર્સીમાં	-9.66938
▁ઇન્ડો	-9.6694
▁ખુલ્લી	-9.67031
▁કોમ્પ્યુટર	-9.67175
▁ફ્રિસ્બી	-9.67175
▁કાગળો	-9.6724
▁સ્ક	-9.67336
▁મોટર	-9.67971
▁થયું	-9.67982
▁બેનર	-9.68382
▁ચેક	-9.68465
▁કેવ	-9.68742
▁સ્કેટર	-9.68801
▁લેતી	-9.6884
▁ચાહકો	-9.68965
▁પેલે	-9.69313
▁ધરાવત	-9.69549
▁માદા	-9.69572
▁કુરકુરિયું	-9.69614
▁થયેલ	-9.69614
▁લેતા	-9.69719
▁ફેરવે	-9.69726
▁ઘેરાયેલી	-9.69761
▁પક્ષીઓ	-9.69778
▁પાકા	-9.69941
▁A	-9.70023
▁ફ્રેમ	-9.70232
▁આપતા	-9.70393
▁હાર	-9.70428
▁ઘૂંટણ	-9.70441
▁મેગેઝિન	-9.70441
▁ક્લોઝઅપ	-9.70441
▁ગોદી	-9.70441
▁તાર	-9.7045
▁તરતી	-9.70464
▁કર્મચારીઓ	-9.7047
▁સૂતી	-9.70647
▁જોડી	-9.70792
▁હાર્નેસ	-9.71182
▁ડાળી	-9.71231
▁ઓવરઓલ	-9.71274
▁છાંટી	-9.71274
▁મૂળ	-9.71274
▁લાઈનમાં	-9.71274
▁થડ	-9.71278
▁વ	-9.71358
▁અંધારાવાળા	-9.71367
▁છાતી	-9.71419
▁ઉત્પાદન	-9.71497
▁પાયજામા	-9.7161
▁બાળકી	-9.71667
▁ભેટ	-9.71763
▁5	-9.71872
્ય	-9.71954
▁કાર્નિવલ	-9.71996
▁વગર	-9.72058
▁ઘોડાઓ	-9.72065
▁સ્ટ્રોલરમાં	-9.72109
▁લટકતી	-9.72114
▁ડાબા	-9.7216
▁પ્ર	-9.72244
▁પુરૂષ	-9.7234
▁કાઢી	-9.72364
▁પુત્ર	-9.72387
▁રોકવા	-9.72391
▁મેળામાં	-9.72477
▁દેખાતો	-9.72491
▁કાફે	-9.72793
▁ચેકર્ડ	-9.72965
▁ગોરી	-9.72965
▁ઉછાળી	-9.73439
▁જોતો	-9.7382
▁મોડેલ	-9.73833
▁ઓરડામાં	-9.73927
▁નમી	-9.73997
ેજ	-9.74009
▁સાર	-9.74048
ીન	-9.74159
▁સાંજ	-9.74278
▁રંગો	-9.74557
▁કીબોર્ડ	-9.74679
▁વેચાણ	-9.74679
▁સુરક્ષા	-9.74679
▁પ્રદર્શ	-9.74682
▁હથોડી	-9.74726
▁સ્નોબોર્ડિંગ	-9.7478
▁ઝાંખા	-9.74828
▁રસોડા	-9.74934
▁ચર્ચ	-9.75006
▁જંગલમાંથી	-9.75323
ુબા	-9.75494
▁કાપવા	-9.75575
▁પીતી	-9.75604
▁ઊંડા	-9.75741
▁કાર્યકર	-9.75794
▁હાથે	-9.75847
▁પક	-9.75861
જાત	-9.75899
રી	-9.75922
▁પુત્રી	-9.76142
▁જેમ	-9.76391
▁જર્મન	-9.76425
▁સામગ્રી	-9.76425
▁પોડિયમ	-9.76428
▁બાંયનો	-9.76444
▁ટ્રિક	-9.7645
▁મશીનરી	-9.76451
▁પીતા	-9.76573
▁જમ્પસૂટ	-9.76821
▁નિશાની	-9.76892
▁સ્વિમ	-9.77233
▁ઓલિમ્પિક	-9.77261
▁મહેનત	-9.7731
▁વ્યવસાય	-9.7731
▁સોફ્ટબોલ	-9.77311
▁બહુરંગી	-9.77311
▁પાવડા	-9.77322
▁લટકાવી	-9.77334
▁આંગળીઓ	-9.77349
▁ટેક	-9.7742
▁લટકાવેલ	-9.77674
ઘર	-9.77675
ૂ	-9.77799
▁દરવાજામાં	-9.77833
▁ધરાવતી	-9.77961
▁ગ	-9.78104
▁કર્મચારી	-9.78171
▁સાદડી	-9.78173
▁પોલ્કા	-9.78203
▁પ્રવેશદ્વાર	-9.78203
▁હોસ્પિટલ	-9.78203
▁સામનો	-9.78203
▁નેવી	-9.78206
▁બ્લોક	-9.78229
▁ટ્રે	-9.78414
▁નેટ	-9.78593
્યા	-9.78684
▁નર	-9.78685
▁ઝૂલામાં	-9.78782
▁મેચમાં	-9.78797
▁છબી	-9.79081
▁માલ	-9.79092
▁ઉનાળા	-9.79104
▁એરપોર્ટ	-9.79104
ન્ટ	-9.79168
▁ઊંચ	-9.79213
▁બનેલા	-9.79293
ાય	-9.79426
▁કોર્સ	-9.79489
▁ઊંઘ	-9.79579
▁પાર્કિંગ	-9.79611
▁નાટક	-9.79916
▁ભરેલ	-9.79953
▁રિબન	-9.80013
▁પરિવહન	-9.80013
▁સીધ	-9.80014
▁શિક્ષક	-9.80019
▁પ્રિન્ટ	-9.80044
▁વિદેશી	-9.80169
▁નાવડી	-9.80414
▁બાલ્કનીમાં	-9.80474
▁પાટિયા	-9.80932
▁ઘાટ	-9.80939
▁સૂકા	-9.81116
▁ભેટી	-9.81561
▁જોકી	-9.81803
▁સરસ	-9.81851
▁કાર્પેટ	-9.81857
▁ગાર્ડ	-9.81984
ક્ત	-9.82016
▁પટ્ટાવાળ	-9.82205
▁ઝભ્ભા	-9.82301
▁સ્કૂલ	-9.82568
▁બચાવ	-9.82591
▁પ્રતિબિંબ	-9.82732
▁આપતો	-9.82778
▁ટ્રમ્પેટ	-9.82791
▁હતું	-9.82795
▁કૂદવા	-9.82823
▁જાપાની	-9.82918
▁હસ	-9.83052
▁ઇવેન્ટમાં	-9.83155
▁ફૂલેલ	-9.8323
▁વરસાદ	-9.83415
▁બ્લેક	-9.83732
▁હસ્તકલા	-9.83735
▁તોફાન	-9.83735
▁કોલેજ	-9.83736
▁શૂઝ	-9.83736
▁ઠંડા	-9.83756
▁પેટ	-9.83831
ુદ્ધ	-9.83832
મિક	-9.84048
▁ઉતારી	-9.84051
▁પોસ્ટર	-9.84107
▁પ્રદર્શનમાં	-9.84149
▁અરીસામાં	-9.84288
▁વિદ્યાર્થી	-9.8464
▁કોકેશિયન	-9.84687
▁કમર	-9.84689
▁સલામતી	-9.84751
▁પેઇન્ટિંગ	-9.84796
▁બગીચા	-9.8497
▁સાધન	-9.85037
▁ઓફિસમાં	-9.85159
▁મોટોક્રોસ	-9.85653
▁ભી	-9.85693
▁સાંભળ	-9.85901
▁બોક્સિંગ	-9.85915
▁બટન	-9.86208
▁વજન	-9.86308
▁પેરાશૂટ	-9.86617
▁કેન્ડી	-9.8662
▁ચઢત	-9.86709
▁પિન	-9.8675
▁મુસાફરો	-9.868
▁ઘેરાયેલો	-9.86807
▁સાંકળ	-9.86958
▁વાયર	-9.86959
▁રેસર	-9.87027
▁નાસ્ત	-9.87103
▁નાવડીમાં	-9.87136
હ	-9.87591
▁પકડ્યો	-9.87683
ાળીઓ	-9.87796
▁કાફેમાં	-9.87796
▁વર્ગ	-9.87916
ધાર	-9.88566
▁લટકતા	-9.8859
▁શંકુ	-9.8859
▁થવા	-9.88636
▁કેન	-9.88926
▁પૂર	-9.89313
▁ઉત્પાદનો	-9.89326
▁કાદવમાં	-9.8935
▁વધી	-9.89382
▁શેર	-9.89468
▁કાચના	-9.89486
▁આકાર	-9.89504
▁ચપ્પુ	-9.8959
▁ડિસ્પ્લે	-9.8959
▁એકઠ	-9.89744
જી	-9.8983
અપ	-9.89947
▁ઉછાળ	-9.89977
▁ટ્રી	-9.90068
▁ઊંધી	-9.90076
▁ગ્રેહાઉન્ડ	-9.90552
▁ઉંમર	-9.906
▁વાળંદ	-9.90601
▁કદ	-9.90625
▁વાળમાં	-9.90902
▁વગરના	-9.90968
▁ધોવા	-9.91094
▁હોડીઓ	-9.91382
▁સ્નાન	-9.9162
▁બનાવતી	-9.91621
▁ગયા	-9.91623
▁ટેક્સી	-9.91628
A	-9.92126
▁ઉડાન	-9.92651
▁શકાય	-9.92653
▁જગ્યાએ	-9.92682
▁કોચ	-9.92701
▁ચાઇની	-9.92828
▁પહેરેલ	-9.92999
▁ઊંટ	-9.93059
▁જોકર	-9.93084
▁ચોકમાં	-9.93133
▁લોકોને	-9.93158
▁સ્ટોરમાં	-9.93435
▁બાઉલ	-9.93522
▁શણગારેલ	-9.93585
▁તાલીમ	-9.93693
▁પેશિયો	-9.93693
▁એથ્લેટિક	-9.93702
▁વિર	-9.93727
▁ડ્રમર	-9.93824
▁આકાશમાં	-9.94005
▁ઘડિયાળ	-9.94111
▁આંખ	-9.9413
▁ટ	-9.94228
▁પટ્ટી	-9.94591
▁પટ્ટ	-9.94732
▁ક્રિકેટ	-9.94746
▁મોહૌક	-9.94746
▁આવ્યો	-9.94746
▁પ્રાચ	-9.94746
▁ઓર્કેસ્ટ્રા	-9.94754
સ્ટ	-9.94846
િશ	-9.94947
▁વ્હીલચેરમાં	-9.95037
▁ભરેલું	-9.95055
▁આવતા	-9.95215
▁કૂતરાના	-9.95416
▁કાઢીને	-9.95494
વી	-9.95619
▁વાસણો	-9.95698
▁ઢગલામાં	-9.95751
▁ક્રેન	-9.95753
▁પ્રાર્થના	-9.95809
▁ટેગ	-9.95814
▁આઇસ	-9.95815
▁ગાલ	-9.95817
▁ચર્ચમાં	-9.95867
▁સાધી	-9.95877
ત્મક	-9.96054
▁તાજા	-9.961
▁બાઇકર્સ	-9.96179
▁તસવીર	-9.96252
▁લેન્ડસ્કેપ	-9.96272
▁ડ્રાઇવ	-9.96802
▁સુશોભ	-9.96885
રૂન	-9.96885
▁નૃત્યાંગના	-9.96885
▁સ્પ્રે	-9.96885
▁શોમાં	-9.96897
▁સૂતા	-9.97118
▁નિશાન	-9.9712
▁દરિયામાં	-9.97153
▁બેલે	-9.97329
▁અગ્નિશામકો	-9.9734
ખ	-9.97763
▁રાખવા	-9.97931
▁ટોળો	-9.97972
▁નિયોન	-9.97972
▁ખાતી	-9.97973
▁ભવ્ય	-9.97974
▁ગાતા	-9.97975
▁મોજાં	-9.98167
▁પાનખર	-9.98316
▁દોડવા	-9.98378
▁કાદવ	-9.98468
▁પ્રવાહી	-9.98493
▁પિચર	-9.98772
વે	-9.98858
▁આશ્ચર્ય	-9.99071
▁મકાઈ	-9.99071
▁ગંદકી	-9.99073
▁ક્લાઇમ્બિંગ	-9.99086
▁સ્થિતિમાં	-9.99211
▁બોક્સર	-9.99403
્યો	-10.0017
▁છરી	-10.0018
▁પાડવા	-10.0018
▁તળિયે	-10.0018
▁દેખાઈ	-10.0018
▁કાપતો	-10.0018
▁રાત્રિ	-10.0019
▁મુખ્ય	-10.0019
▁કાયક	-10.0032
▁ઓછા	-10.0033
▁હૂડવાળ	-10.0047
▁ખેડૂત	-10.0067
▁દુકાનો	-10.0074
▁કેમેરામાં	-10.0109
▁પ્રવેશ	-10.0115
▁નીકળે	-10.0131
▁રસોઇયા	-10.0131
▁બોર્ડવોક	-10.0131
▁મીટિંગ	-10.0132
▁આઠ	-10.0132
▁થોડ	-10.0133
▁બ્રેડ	-10.0133
▁સ્ટુડિયોમાં	-10.0134
▁બતક	-10.0181
ઉ	-10.0186
▁પીરસ	-10.0198
▁ઝાડીઓ	-10.0206
▁કપમાં	-10.0217
▁સારા	-10.0218
▁ડાઇવ	-10.023
▁રિંક	-10.0244
▁વેચવા	-10.0288
▁લંબાવીને	-10.0293
▁વૃક્ષ	-10.0297
ળ	-10.0305
▁શ્યામ	-10.0307
▁રિંગમાં	-10.0331
ંત	-10.0357
▁રાઈડ	-10.0359
▁ગોરા	-10.0359
▁ગ્રીન	-10.036
▁પદયાત્રીઓ	-10.0361
▁ફિલ્ડ	-10.0364
▁કબૂતરો	-10.0381
ડોળ	-10.0401
▁નાખી	-10.0415
▁લિફ્ટ	-10.0418
▁સબવેમાં	-10.0423
દાર	-10.0456
▁તડકામાં	-10.0462
▁પોસ્ટ	-10.0475
▁બ્રશ	-10.0475
▁ઢગલો	-10.0475
▁જુદ	-10.0475
▁બિયર	-10.0476
▁કાર્ડબોર્ડ	-10.0476
ફ્લોપ	-10.0478
▁ઠંડી	-10.0478
▁ખેંચવા	-10.0479
▁શકે	-10.0487
▁છોડી	-10.0487
▁તડકાવાળા	-10.0491
▁સળગત	-10.0507
▁બાંધી	-10.0544
ધાર્	-10.0548
▁સીવણ	-10.0593
▁વર્ષ	-10.0593
▁થયો	-10.0593
▁ન્યુ	-10.0594
▁તરવૈયાઓ	-10.0596
▁ટોપલીઓ	-10.06
▁નકલી	-10.0606
▁જતો	-10.0607
▁ટેકવીને	-10.0608
▁ઊંધ	-10.0628
▁ટ્રકમાં	-10.0638
▁બોલી	-10.0687
િયા	-10.0689
▁જેટ	-10.0702
▁કોરિડોરમાં	-10.0709
▁સૂતેલા	-10.0712
▁સ્લીવ	-10.0716
▁કોલરવાળ	-10.0721
થ	-10.0721
▁સેટિંગ	-10.0738
ંધ	-10.0749
▁પીસ	-10.0757
▁નવા	-10.0765
અમેરિકન	-10.0781
▁શૈલી	-10.0785
▁વાડવાળા	-10.0786
▁પ્રવાહ	-10.0797
▁રેક	-10.0802
▁વાહનમાં	-10.0816
▁કુહાડી	-10.0833
▁પ્રશંસ	-10.0833
▁રબર	-10.0833
▁પોલ	-10.0889
▁ગ્રાહક	-10.0893
▁શણગારેલી	-10.09
▁લપેટાયેલ	-10.0904
▁વરસાદી	-10.0906
▁કલાકૃતિ	-10.0952
▁કોન્ફરન્સ	-10.0955
▁ડર્બી	-10.0955
▁મ્યુઝિક	-10.0955
▁ક્રૂ	-10.0955
▁આઈસ	-10.0955
▁ચાક	-10.0959
▁વાંચત	-10.0965
▁બાઉલમાં	-10.0975
▁બેબી	-10.0996
▁ડિઝાઇન	-10.1011
વામાં	-10.1013
▁સભ્ય	-10.1016
▁બાંધીને	-10.1017
▁નાચ	-10.1018
▁પર્વતોમાં	-10.1058
▁ટાંકી	-10.1061
▁મેઘધનુષ્ય	-10.1078
▁હુમલ	-10.1078
▁ક્રીમ	-10.1078
▁સફરજન	-10.1078
▁ગોળાકાર	-10.1078
▁ગયેલ	-10.109
▁તડકાન	-10.1092
્ર	-10.1129
ચક	-10.1136
▁ઇવેન્ટ	-10.1154
▁પાક	-10.1154
▁બપોર	-10.1162
▁અંત	-10.1181
▁ખાડા	-10.1197
▁ઉતરે	-10.1203
▁ગાયકવૃંદ	-10.1203
▁પ્લેયર	-10.1203
▁રીંછ	-10.1203
▁હેડબેન્ડ	-10.1203
▁કરાવ	-10.1216
▁વિરોધીઓ	-10.1216
▁છાયા	-10.1241
▁ઓફિસ	-10.1262
▁ખૂણામાં	-10.1301
▁ઓર્ડર	-10.133
▁અગ્નિ	-10.133
▁ટેપ	-10.1331
▁વંશીય	-10.1331
▁ખવડાવી	-10.1337
▁માછીમાર	-10.1338
▁પીતો	-10.1338
▁વાહનો	-10.1353
▁ફોટામાં	-10.1362
▁ધૂળમાં	-10.1363
▁દેશમાં	-10.1377
▁રસ્તાઓ	-10.1391
▁દર્શાવે	-10.1394
▁ત્રીજ	-10.1408
▁ચિત્રમાં	-10.1421
▁પલટ	-10.1423
▁ટ્યુબ	-10.1425
▁બોટલો	-10.143
▁અરીસા	-10.1434
▁દિવાલો	-10.1443
▁યુનિસાયકલ	-10.1458
▁લાંબો	-10.1459
▁પેડલ	-10.1465
િયું	-10.1465
▁ઘેરી	-10.1476
▁ઢંકાયેલો	-10.1488
▁રેડ	-10.1495
▁શિયાળામાં	-10.1512
▁ઊભેલી	-10.1515
▁ઉત્સવ	-10.1539
વાળું	-10.1549
▁રચના	-10.155
▁કાયકમાં	-10.1555
▁ઘાસવાળી	-10.1577
▁ડૉક્ટર	-10.1588
▁દર્દી	-10.1588
▁બંદના	-10.1588
▁ઓરિએન્ટ	-10.1588
▁સાવરણી	-10.1588
▁આવ્યા	-10.1588
▁ખાડો	-10.1588
▁કિલ્ટ	-10.1588
▁કાયાકિંગ	-10.1588
▁બાસ	-10.1589
▁દેશ	-10.1589
▁સાઇકલ	-10.1591
▁ડાળીઓ	-10.1595
▁હલાવ	-10.1596
▁રોડ	-10.1606
▁ટીવી	-10.1607
▁કાર્ડ	-10.1616
ામી	-10.1641
▁પતંગ	-10.1654
્ટ	-10.1669
▁ભાગી	-10.1674
▁ઓ	-10.1676
▁સજ્જનો	-10.1682
▁ચિહ્નો	-10.1705
▁રોલરબ્લેડ	-10.1705
▁રંગી	-10.1713
▁વેચત	-10.1718
▁આલિંગન	-10.1719
▁જન્મદિવસ	-10.1719
▁તરબૂચ	-10.1719
▁પૈડાવાળી	-10.1725
▁લોડ	-10.1728
▁ટબમાં	-10.1738
▁ઢાંકી	-10.1794
▁કેસ	-10.1811
▁પ્રવાહમાં	-10.1828
▁બકરી	-10.1848
▁બરબેકયુ	-10.1853
▁હૃદય	-10.1853
▁કદાચ	-10.1853
▁ટેલિફોન	-10.1853
▁બિલબોર્ડ	-10.1853
▁ટ્રેલર	-10.1853
▁યુક્તિઓ	-10.1866
▁જમતા	-10.1872
▁થાંભલાઓ	-10.1877
▁ઉદ્યાનમાં	-10.1879
▁તરાપા	-10.1936
▁પેન	-10.1941
▁ઊભેલ	-10.1969
િન	-10.1972
▁ગાઉન	-10.1988
▁ટાવર	-10.1988
▁સ્મારક	-10.1988
▁કરવત	-10.1988
▁કિશોરવયન	-10.1988
▁ફટકારી	-10.1988
▁ફુગ્ગો	-10.1988
▁મૂર્ખ	-10.1988
▁ચૂલા	-10.1988
▁છંટકાવ	-10.199
▁બોય	-10.1992
▁માછલીઓ	-10.2007
▁ગલી	-10.2028
પણ	-10.2057
શન	-10.206
▁બાંધેલ	-10.206
▁વિચાર	-10.2067
▁ભીનો	-10.2073
▁કાપેલ	-10.2084
લું	-10.2109
▁હાઇ	-10.2116
▁સિલુએટ	-10.212
▁વાંસળી	-10.2125
▁ચાદર	-10.2125
▁ઉડાડી	-10.2125
▁પવન	-10.2125
▁ધકેલતો	-10.2125
▁મીણબત્તીઓ	-10.2127
▁ટૂંકી	-10.2128
શર્ટમાં	-10.2136
▁સ્નો	-10.2137
કા	-10.2139
▁ચશ્માવાળો	-10.2144
▁રોડીયોમાં	-10.2159
▁ઉત્સવમાં	-10.2176
▁ઝૂકે	-10.2191
▁બોટમાં	-10.2193
▁છેડે	-10.2196
▁લંબાવી	-10.2204
▁કરનાર	-10.2212
▁વગાડીને	-10.2216
▁માણત	-10.2226
▁જંગલી	-10.2252
▁બૂમ	-10.2264
▁લટકેલ	-10.2264
▁ગ્રામીણ	-10.2264
▁વાછરડા	-10.2264
▁પત્તા	-10.2264
▁કરતું	-10.2264
▁બ્લોક્સ	-10.2271
▁સ્કીઅર્સ	-10.2282
એક	-10.2291
િવ	-10.2304
▁પેડ	-10.2306
રો	-10.231
▁રેકોર્ડ	-10.2314
શિક	-10.2319
▁ઉ	-10.2327
મા	-10.233
▁લહેર	-10.235
▁પ્લાઝામાં	-10.2355
▁શરૂઆત	-10.2355
▁ડબ્બા	-10.2365
▁ટનલમાં	-10.2373
▁એકઠા	-10.2379
ડા	-10.2381
▁પોનીટેલ	-10.24
▁તબીબ	-10.2404
▁ફર્નિચર	-10.2404
▁અવ્યવસ્થિત	-10.2404
▁સોડા	-10.2405
▁વિગ	-10.2405
▁જિમ્નેસ્ટિક્સ	-10.2405
▁ઇ	-10.2406
▁ડિસ્ક	-10.2406
▁સળિયા	-10.2421
▁બેલ્ટ	-10.2427
▁પ્રયોગશાળામાં	-10.2428
▁કમાન	-10.2436
▁કિલ્લા	-10.2436
▁ટેકલ	-10.2442
▁આં	-10.2464
▁બાંધેલી	-10.2465
▁કારીગર	-10.2483
▁ફ્લોટ	-10.2487
▁વર્ગમાં	-10.2501
ાન	-10.251
▁એન્જિન	-10.2541
▁ઢીંગલી	-10.2543
▁ઉપાડવા	-10.2547
▁કચરા	-10.2547
▁ખાદ્ય	-10.2547
▁ટેલિવિઝન	-10.2547
▁ફિલ્માંકન	-10.2547
▁માર્ચ	-10.2547
▁બનાવતો	-10.2547
▁હંસ	-10.2548
▁ગાલીચા	-10.2548
▁સેવા	-10.256
▁ચામડી	-10.2572
▁ઉડતા	-10.2582
▁ટપકાંવાળ	-10.2593
▁વેચતો	-10.2617
▁હોલમાં	-10.2624
▁તલવાર	-10.2629
ાં	-10.2631
▁છત્ર	-10.2638
▁ક્લબમાં	-10.2641
વાનો	-10.2662
▁ધુમાડા	-10.2673
▁ગો	-10.2684
▁ન્યૂ	-10.269
▁ઝૂલ	-10.2691
▁કર્બ	-10.2692
▁જહાજ	-10.2692
▁સ્ટાર	-10.2693
ધ	-10.2696
▁ચમચી	-10.2697
▁ફોલ્ડિંગ	-10.2698
▁મેળાવડામાં	-10.2703
▁માણતા	-10.2744
▁ટોળામાં	-10.2754
▁કાપે	-10.2761
▁અગ્નિશામક	-10.2777
હર	-10.2801
▁ભીડવાળી	-10.2801
▁યુ	-10.2827
▁બંદૂકો	-10.283
▁ખોલે	-10.2839
▁ચઢાણ	-10.2839
▁ડ્રાઈવર	-10.2839
▁નકશા	-10.2839
▁મોબાઇલ	-10.2839
▁હેડસ્કાર્ફ	-10.2839
▁ફેલાવી	-10.2839
▁એન્ડ	-10.284
▁લહેરાવી	-10.2841
▁ફૂંક	-10.2844
▁અંધારામાં	-10.2847
▁ગૂંથેલી	-10.2857
▁બેરલ	-10.2857
▁હાવભાવ	-10.2865
▁ઓફ	-10.2865
રા	-10.2866
ટી	-10.2939
▁પુરૂષો	-10.2948
▁ધ	-10.2955
્પ	-10.2961
▁દ	-10.2978
▁ડોગ	-10.2984
▁વેક્યુમ	-10.2988
▁સાન્ટા	-10.2988
▁સ્ટીલ	-10.2988
▁બનાવતા	-10.2989
▁યોગ	-10.299
▁બતાવવા	-10.2993
▁તૂટેલ	-10.2996
▁ડાઇન	-10.2997
▁થેલીઓ	-10.2997
▁થતાં	-10.2998
▁ફોર	-10.2999
▁ચેસ	-10.3006
▁ટુકડાઓ	-10.3008
▁આકારના	-10.3011
▁ઉછળી	-10.3014
▁થાળી	-10.3021
▁તંબુમાં	-10.3032
▁લગાવેલ	-10.3039
▁બીજું	-10.305
▁ઝાડુ	-10.3052
▁મોજામાં	-10.3065
કાર	-10.3071
▁સ્ટેડિયમ	-10.3071
કો	-10.3077
▁પેટર્નવાળ	-10.3079
ચલા	-10.3129
ાળ	-10.3135
▁ઇલેક્ટ્રોનિક	-10.3135
▁દીકરા	-10.3137
પ્રદ	-10.3138
▁કેઝ્યુઅલ	-10.314
▁દરવાજો	-10.314
▁મંડપ	-10.314
▁સુટકેસ	-10.314
▁વહાણ	-10.314
▁વેગન	-10.314
▁વિક્રેતાઓ	-10.3153
▁હાજરી	-10.3158
▁ટાઇલ	-10.3173
ેલા	-10.3184
લો	-10.3185
▁જગ્યા	-10.32
▁સાંજે	-10.3212
▁કોલરવાળા	-10.3222
▁ગુલદસ્ત	-10.3242
્યું	-10.3272
▁શીટ	-10.3289
▁હાઇકર	-10.329
▁ઉષ્	-10.3294
▁ચીસ	-10.3294
▁સાંકડી	-10.3294
કટિબ	-10.3294
▁મોપેડ	-10.3295
▁કલાકૃતિઓ	-10.3298
▁પ્રવાસી	-10.3312
▁બાથરૂમમાં	-10.3336
▁લખે	-10.338
▁જગ્યામાં	-10.3384
▁મોનિટર	-10.345
▁આવ્યું	-10.345
▁લીલું	-10.345
▁કૂદતો	-10.345
▁ગલુડિયાઓ	-10.3451
▁ધકેલે	-10.3461
▁ખાડી	-10.3468
▁નીચા	-10.3483
▁સેલો	-10.3491
▁એપાર્ટમેન્ટ	-10.3495
મત	-10.3514
▁ગામમાં	-10.3527
▁બ્રેકડાન્સ	-10.3538
▁ચ	-10.3564
▁વધે	-10.3571
▁ગધેડા	-10.3579
▁જોગ	-10.3603
▁એશિયા	-10.3607
િયાળ	-10.3608
▁કાટમાળ	-10.3609
▁ટક્સીડો	-10.3609
▁લંડન	-10.3609
▁સેન્ડવીચ	-10.3609
▁બબલ	-10.3609
વહન	-10.3609
▁આર્ટિસ્ટ	-10.361
▁સહિત	-10.361
ાઇઝ	-10.3611
▁વેલ્ડિંગ	-10.3611
▁સમાન	-10.3614
▁ઢાળવાળી	-10.3619
▁બીની	-10.3621
▁શેકી	-10.3624
▁સંગ્રહાલયમાં	-10.364
▁રમ	-10.3641
▁મોજાઓ	-10.3655
▁ઉડતો	-10.3657
▁બાંધેલા	-10.3669
▁ત્રીજા	-10.3671
▁તપાસી	-10.3686
▁સૂર્યપ્રકાશ	-10.3694
▁પે	-10.3711
▁ધુમાડ	-10.372
▁ભેટો	-10.3728
2	-10.3755
▁રિપેર	-10.377
▁મુલાકાત	-10.377
▁પિઝા	-10.377
▁સમારોહ	-10.377
▁નીકળત	-10.3771
▁નાચતી	-10.3771
▁કોસ્ટર	-10.3771
▁નાખવા	-10.3771
▁જોર	-10.3775
▁પકડ્યું	-10.3776
▁હળવા	-10.378
▁તૈયારીમાં	-10.3782
▁ચોરસ	-10.3783
▁દૂરથી	-10.3787
▁મનો	-10.3792
▁વાદળો	-10.38
ડી	-10.3803
વો	-10.3835
▁યુગલો	-10.3873
▁માલિક	-10.3875
▁પાંખો	-10.3875
▁મોઢ	-10.3883
બંધ	-10.3884
▁લડાઈ	-10.3886
▁ચા	-10.3889
▁ડીજે	-10.393
▁તરવૈયા	-10.393
▁પદયાત્રી	-10.3931
▁ઇંટો	-10.3934
▁દર્શાવવા	-10.3934
▁પાઘડી	-10.3934
▁હવામાન	-10.3934
▁સ્વાદ	-10.3934
▁લગાવત	-10.3934
▁વે	-10.3935
▁લોટ	-10.3938
▁વગાડવા	-10.3942
▁પીણા	-10.3983
▁બોક્સમાં	-10.3984
▁સ્કર્ટમાં	-10.3999
▁વહેત	-10.4003
▁પ્રકાશવાળ	-10.4005
▁નાખીને	-10.4019
ગો	-10.4034
▁મોલમાં	-10.4077
▁રોલરસ્કેટ	-10.4086
▁ફેન્સી	-10.41
▁ટિકિટ	-10.4101
▁લૂમ	-10.4101
▁વરંડા	-10.4101
▁ગોળીબાર	-10.4101
▁મુંડ	-10.4101
▁ગોલ્ડન	-10.4101
ર્જર	-10.4101
▁જાતિ	-10.4102
▁ગેટ	-10.4109
▁પસંદ	-10.4114
▁સંખ્યામાં	-10.4116
▁કવર	-10.4117
▁બા	-10.4121
▁કેચર	-10.4135
▁ઊભેલું	-10.4138
▁પ્રેમ	-10.4142
▁ડબ્બામાં	-10.4147
▁ક્લબ	-10.416
▁લા	-10.4162
▁રંગાયેલ	-10.4168
▁વર્ક	-10.4192
્યુ	-10.4198
સાઈ	-10.4199
▁અનુભવ	-10.4211
▁ખ	-10.4216
▁બીજાઓ	-10.4266
▁તરવૈયો	-10.427
▁પાતળો	-10.427
▁હિસ્પેનિક	-10.427
▁કાઢવા	-10.427
▁સસલા	-10.427
▁ગેરેજ	-10.4275
▁કેમેરામેન	-10.4279
▁રેસર્સ	-10.4286
▁ઢાળવાળા	-10.4288
યો	-10.4291
કે	-10.4295
▁માઇક્રોસ્કોપમાં	-10.4295
▁ઝઘડો	-10.4297
▁ચાટી	-10.4303
▁ગ્લાસમાં	-10.4328
▁ઉતાર	-10.4343
▁ટાઇલ્સ	-10.4352
▁ગેસ	-10.4354
▁કાંકરી	-10.4356
▁નાસ્તા	-10.4357
▁ડ્રેડલોક	-10.4415
▁બેલેન્સ	-10.4435
▁ખીણ	-10.4436
▁નૃત્યનર્તિકા	-10.444
▁બાથટબ	-10.4443
▁કાળજી	-10.4443
▁પડ્યો	-10.4443
▁ફટકારવા	-10.4443
▁ફૂટ	-10.4443
▁યુદ્ધ	-10.4443
▁સ્નીકર્સ	-10.4443
▁ચાલતું	-10.4443
▁કપાળ	-10.4444
▁ડોટ	-10.4455
▁આર્મી	-10.4458
▁તોડી	-10.446
▁તરંગ	-10.4493
▁કહે	-10.4507
ડાઈ	-10.4511
▁ડ	-10.4535
▁કન્ટેનર	-10.4537
▁રંગેલ	-10.4551
▁ગુલાબ	-10.4561
▁હોવા	-10.4567
▁વ્હીલચેર	-10.457
▁કાર્ય	-10.4572
▁વિમાનમાં	-10.46
▁બેક	-10.4603
▁શિશુ	-10.4615
▁બહુ	-10.4618
▁દેખાવ	-10.4618
▁દરેક	-10.4618
▁હોઠ	-10.4618
▁કર્યા	-10.4618
▁ફોર્મ	-10.4618
▁બુટ	-10.4618
▁જીપ	-10.4619
▁ટ્રોલી	-10.4621
▁ભરાયેલા	-10.4622
▁ફિલ્મ	-10.4623
▁લહેરાવે	-10.4626
▁પેડલિંગ	-10.4629
▁તંબુઓ	-10.4631
▁માળા	-10.4636
▁ઘરો	-10.468
દર્શક	-10.4715
▁ગળ	-10.4726
▁ગરીબ	-10.4737
▁જમ્પ	-10.475
▁પ્લેટો	-10.4766
▁એકત્ર	-10.4775
▁છલકા	-10.4794
▁ભાઈ	-10.4794
▁ચિકન	-10.4797
▁દંપતિ	-10.4797
▁ફટાકડા	-10.4797
▁ધ્રુવ	-10.4797
▁સીગલ	-10.4797
▁પાળે	-10.4797
▁હાઈ	-10.4797
▁પાવર	-10.4798
▁આકર્ષક	-10.4798
▁પોલીસકર્મીઓ	-10.48
▁કેમ્પિંગ	-10.48
▁રોકાઈ	-10.4801
▁રોલરસ્કેટિંગ	-10.4805
▁છું	-10.4828
▁હરોળમાં	-10.4839
▁કેદ	-10.4845
▁વિ	-10.4871
તું	-10.4881
▁ડિ	-10.4894
▁વાસણમાં	-10.4897
▁વેકબોર્ડ	-10.4918
▁તાજ	-10.4931
▁શેરીમાંથી	-10.494
▁શોર્ટ	-10.4975
▁પોલીસકર્મી	-10.4975
▁વાંસ	-10.4978
▁ઉદાસ	-10.4978
▁ચેઇનસો	-10.4978
▁દૂરબીન	-10.4978
▁તાકી	-10.4979
▁ખાતો	-10.4979
▁લેક્રોસ	-10.4979
▁સ્પષ્ટ	-10.498
▁શીખવ	-10.4982
▁મૂકવા	-10.4986
▁લેતો	-10.4989
▁રોલરબ્લેડિંગ	-10.4989
▁ખસેડી	-10.4993
▁ગેલેરીમાં	-10.4997
▁માનવ	-10.5032
▁પેક	-10.5057
ેલો	-10.5069
▁ફેરવીને	-10.5071
વેશ	-10.5127
ોસ	-10.5133
▁હજા	-10.5135
ટોપ	-10.5136
ટર	-10.514
▁ઉદ્યોગપતિ	-10.5159
▁આકૃતિ	-10.516
▁દેવા	-10.5162
▁કુદરત	-10.5164
▁વાજિંત્ર	-10.5164
▁મોટાભાગ	-10.5164
ગ્ર	-10.5164
▁ધનુષ્ય	-10.5164
▁મૃત	-10.5164
▁આધુનિક	-10.5164
▁હોટલ	-10.5165
િમ	-10.5166
▁રાખ્યું	-10.5168
▁મૂછો	-10.52
કન	-10.5209
▁પૂર્વ	-10.5215
ન્ડ	-10.5217
4	-10.523
▁છાંયડા	-10.5235
▁કાંકરીવાળ	-10.5258
▁મદદથી	-10.5263
▁યુવા	-10.5278
▁ફોલ્ડ	-10.5279
િયન	-10.5279
▁દેખાતું	-10.528
પિતા	-10.5299
સી	-10.5299
▁પડાવ	-10.5302
▁કા	-10.5328
▁હોટડોગ	-10.5348
▁સ્થિ	-10.5351
▁સફર	-10.5352
દ્યોગ	-10.5352
▁અન્ડરવેર	-10.5352
▁ઉતરવા	-10.5352
▁કેનવાસ	-10.5352
▁દૂધ	-10.5352
▁રુંવાટીદાર	-10.5352
▁મેટ્રો	-10.5352
▁શેફર્ડ	-10.5352
▁મેળવે	-10.5353
▁હરણ	-10.5353
▁હાઇવે	-10.5353
▁વિડિઓ	-10.5354
▁રંગલો	-10.536
▁ચલાવીને	-10.536
▁સહી	-10.5363
▁કોળા	-10.5368
▁લાઇટ્સ	-10.5368
▁હેડ	-10.5381
બડ	-10.539
▁રમતવીરો	-10.5392
▁બેરેટ	-10.5393
▁બેકપેક્સ	-10.5401
▁નવી	-10.5402
▁પિચ	-10.5404
▁ટાલ	-10.5419
▁વેચતા	-10.5429
▁ડોલમાં	-10.5429
પી	-10.5438
▁માર્કેટમાં	-10.5448
▁ભરે	-10.5501
ીત	-10.5502
ગી	-10.5532
▁દીકરી	-10.5534
વોર	-10.5537
▁અવલોકન	-10.5545
▁ખરીદદારો	-10.5545
▁વૈજ્	-10.5545
▁હેલિકોપ્ટર	-10.5545
▁કર્યું	-10.5545
▁વીંટી	-10.5545
▁નખ	-10.5547
▁છબીઓ	-10.5551
▁મોલ	-10.5579
▁સા	-10.5582
▁મેટ	-10.5589
▁ઉડતી	-10.5599
▁અવરોધો	-10.5606
▁ડે	-10.5621
▁બાલ્કની	-10.5647
▁જીવ	-10.5649
▁જોકરો	-10.5661
▁ગોઠવે	-10.567
▁એર	-10.5684
▁બેગમાં	-10.569
▁તમ	-10.57
▁જીવન	-10.5702
કલ	-10.5718
કર	-10.5724
▁પ્લે	-10.5726
ર્ડ	-10.5729
▁મ્યુઝિયમ	-10.5741
▁ઉજ્જડ	-10.5741
▁ગયું	-10.5741
▁ગ્લોવ્ઝ	-10.5741
▁પાતળા	-10.5741
▁બુલડોઝર	-10.5741
▁લખ્યું	-10.5741
▁કડક	-10.5741
▁જમવા	-10.5741
▁ધીમ	-10.5741
▁ચોકલેટ	-10.5741
▁લટકી	-10.5741
▁કર્યો	-10.5741
▁તાડન	-10.5741
▁કપાવી	-10.5742
▁પાયા	-10.5749
િસ્ટ	-10.5763
મય	-10.5778
▁પડદા	-10.5785
િજ્	-10.5789
▁મુક્ક	-10.5822
▁રિંગ	-10.5824
▁જીમ	-10.586
મેન	-10.5868
સામાન્ય	-10.5889
▁અડધ	-10.5891
▁કરાવે	-10.591
▁રાંધે	-10.5928
▁ટોપીમાં	-10.5929
▁રેખા	-10.5937
▁જવાનો	-10.5937
▁ઝૂંપડી	-10.5938
▁ચાવી	-10.5938
કન્ટ્રી	-10.5941
▁ગૂંથણકામ	-10.5941
▁ટક્કર	-10.5941
▁દેવદૂત	-10.5941
▁લથપથ	-10.5941
▁ખરાબ	-10.5941
▁પિનાટા	-10.5941
▁બટાકા	-10.5941
▁સન્ની	-10.5941
▁કાતર	-10.5941
▁લંચ	-10.5941
▁પરીક્ષણ	-10.5941
▁માટીકામ	-10.5942
▁સિટી	-10.5942
▁ઉપાડે	-10.5942
▁ઘરેણાં	-10.5943
▁હોમ	-10.5944
▁હીલ્સ	-10.5945
▁મેટલ	-10.5945
▁લગ્નમાં	-10.5946
લ્ડ	-10.5946
▁બાંધવા	-10.5959
▁શીખી	-10.5965
▁જમતી	-10.5974
▁ડાન્સર	-10.5974
▁લખાણ	-10.6001
▁રંગાયેલા	-10.6002
▁પાંજરામાં	-10.6019
▁સ્પીડ	-10.6029
0	-10.603
▁પીવા	-10.6031
▁ગતિ	-10.6036
▁સૂર્યપ્રકાશમાં	-10.6036
▁ફેંકત	-10.6036
▁211	-10.6052
▁છાપ	-10.6086
▁ઉડાવ	-10.6086
બોર્ડ	-10.6089
ઠો	-10.6095
▁નર્સ	-10.6097
▁માંગ	-10.61
▁ગમ	-10.6109
▁સુ	-10.612
▁મશીનો	-10.6133
▁સુંઘ	-10.614
▁બેગપાઇપ	-10.6144
▁પિગટેલ	-10.6144
▁ગ્રુપ	-10.6145
▁ટુર્નામેન્ટ	-10.6145
▁પડછાયો	-10.6145
▁ફટકારે	-10.6145
▁બ્રીફકેસ	-10.6145
▁મમ્મી	-10.6145
▁માહિતી	-10.6145
▁રીટ્રીવર	-10.6145
▁લોખંડ	-10.6145
▁સંઘર્ષ	-10.6145
▁સાંકડા	-10.6145
▁સ્લેડિંગ	-10.6145
▁કણક	-10.6145
▁ચીઝ	-10.6145
▁પથારી	-10.6145
▁વણાટ	-10.6145
▁ડબલ	-10.6145
▁પીસતો	-10.6146
▁શૂટિંગ	-10.6151
▁લેમ્પ	-10.6153
ેશન	-10.6154
▁ફાટેલા	-10.6156
▁ટગ	-10.6157
▁દોરવા	-10.6159
▁કાર્નિવલમાં	-10.6174
▁ઉડત	-10.6182
▁જાણ	-10.6189
▁સામાન્ય	-10.6203
▁પીરસવા	-10.6211
▁રહેવા	-10.6214
▁થિયેટર	-10.6253
▁જેને	-10.626
ેર	-10.6335
▁લોન	-10.6342
સ્ક	-10.6351
▁અસંખ્ય	-10.6353
▁ડબ્બો	-10.6353
▁તીવ્ર	-10.6353
▁થમ્બ્સ	-10.6353
▁નજારો	-10.6353
▁ફાનસ	-10.6353
▁મુગટ	-10.6353
▁મુઠ્ઠી	-10.6353
▁સાબુ	-10.6353
▁હોર્ન	-10.6353
▁વેન્ડ	-10.6354
▁સંચાલ	-10.6354
▁ઝૂલતા	-10.6356
▁માતાપિતા	-10.6356
▁દસ	-10.6356
▁સમા	-10.6359
▁વગાડતું	-10.6359
▁પેપર	-10.636
▁હોલ	-10.6365
▁અંગૂઠા	-10.6379
▁તેણી	-10.6384
▁જમીનમાં	-10.6385
ંક	-10.639
▁ચમકતા	-10.6393
▁શેવ	-10.6418
▁બેસી	-10.6419
▁શ્વાસ	-10.6421
▁જૂથમાં	-10.6442
▁લડ	-10.645
▁યાર્ડમાં	-10.6484
વાર	-10.6527
▁કોમ	-10.6531
▁પર્વતારોહકો	-10.6545
▁ખાબોચિયામાં	-10.6553
3	-10.6558
▁પેટ્રોલ	-10.6558
▁સેન્ટ	-10.656
▁બાસ્કેટ	-10.6566
▁નેતૃત્વ	-10.6566
▁મેક્સી	-10.6566
▁રાઇફલ	-10.6566
▁વેટસુટ	-10.6566
▁અમ્પાયર	-10.6566
▁સ્નોશૂઝ	-10.6566
▁મેકડોનાલ્ડ્સ	-10.6566
▁પાઈન	-10.6567
▁ફેશન	-10.6567
▁પહોંચવા	-10.657
▁ઘટના	-10.6592
▁રો	-10.6598
સન	-10.6601
▁કુંડમાં	-10.6615
▁શીખત	-10.662
▁બેંચ	-10.6621
▁લોન્ડ્રી	-10.665
▁પટ્ટાઓ	-10.6689
▁હાઉસ	-10.6696
્લ	-10.6712
▁પાનખરમાં	-10.6714
્મ	-10.6741
ઓફ	-10.6746
▁બદલ	-10.6764
▁બ્રા	-10.678
▁મીણબત્તી	-10.678
▁ખરીદવા	-10.6783
▁ગંભીર	-10.6783
▁ગાદલા	-10.6783
▁ડ્રિબલ	-10.6783
▁થાંભલો	-10.6783
▁સામસામે	-10.6783
▁ઊન	-10.6783
▁બેસાડી	-10.6783
▁લાઇબ્રેરીમાં	-10.6783
ગ્રસ્ત	-10.6784
▁ઝૂલતો	-10.6784
ઇય	-10.6791
▁પંજા	-10.6792
▁મૂછવાળ	-10.6801
▁મજાક	-10.6829
▁અડધા	-10.6838
▁ટેકરીઓ	-10.6841
ક્સ	-10.6842
▁સિંક	-10.6849
▁ટુકડી	-10.685
▁ફ્લોરલ	-10.686
▁બ્લીચર્સ	-10.686
▁ખેંચીને	-10.6863
▁રમતો	-10.6879
▁રણ	-10.6905
▁દર્શાવત	-10.6946
▁પાસ	-10.6966
▁થીમ	-10.6973
▁સ્ટીક	-10.6975
▁મીઠાઈ	-10.7001
ઇંગ	-10.7002
▁મૂર્તિ	-10.7002
▁આદિવાસી	-10.7006
▁ધાબળો	-10.7006
▁બરબેક્યુ	-10.7006
▁સૂર્યસ્નાન	-10.7006
▁અકસ્માત	-10.7006
▁નક્ક	-10.7006
▁પંપ	-10.7006
▁રેઈનકોટ	-10.7006
▁મેસેજ	-10.7006
▁વોકવે	-10.7006
▁વ્હાઇટ	-10.7006
▁ખેંચાઈ	-10.7006
▁મેનુ	-10.7008
▁બુલ	-10.701
▁પહોંચી	-10.7014
▁પૈડાવાળા	-10.7017
▁ફરતું	-10.7017
▁લડતા	-10.7017
▁ચિત્તા	-10.7023
▁વાર	-10.7027
▁વીંટાળેલ	-10.7035
ડો	-10.7041
▁નાગરિકો	-10.7043
ભ	-10.7043
ગીચ	-10.7044
▁કેળા	-10.705
▁ઊંધું	-10.7056
ૌ	-10.7152
▁નોંધ	-10.7157
▁સંકેત	-10.7169
▁અક્ષરો	-10.721
▁અખબારો	-10.721
▁હીલ	-10.7229
▁વ્યક્ત	-10.7232
ીંગ	-10.7232
▁દ્રશ્યમાં	-10.7232
▁ડિવાઇસ	-10.7233
▁પ્રયોગ	-10.7233
▁મેળાવડો	-10.7233
▁યુનિવર્સિટી	-10.7233
▁વાઘ	-10.7233
▁સ્ક્રબ	-10.7233
▁ક્વાર્ટરબેક	-10.7233
▁હેન્ડસ્ટેન્ડ	-10.7233
▁આયોજ	-10.7233
▁સ્નોસૂટ	-10.7233
▁ડંક	-10.7233
▁સાડી	-10.7233
▁ત્રણેય	-10.7233
▁ગામડાન	-10.7234
▁રંગકામ	-10.7236
▁તરવા	-10.7238
▁ખરી	-10.7241
▁બિબ	-10.7244
▁વાપરી	-10.7247
▁ઢાંકે	-10.7248
▁ભેળવી	-10.7254
▁ચેરી	-10.7255
▁નિ	-10.726
ાઇ	-10.7269
ન્સ	-10.7273
▁ટનલ	-10.7284
▁બનેલી	-10.7289
▁ઝાડી	-10.7296
▁ફોટોગ્રાફરો	-10.7299
▁ફૂલોવાળ	-10.7317
▁સં	-10.7318
ર્ટ	-10.7331
▁સૂત	-10.7336
▁લેન	-10.7355
▁જણન	-10.7356
▁ટાઇલ્સવાળ	-10.7361
▁મે	-10.7378
▁1	-10.7382
▁રડત	-10.7396
▁વર્ગખંડ	-10.7401
▁કિશોરી	-10.7406
▁મેળા	-10.7414
▁સોનાની	-10.7415
િટ	-10.7416
▁ડ્રાઇવર	-10.742
▁પેનલ	-10.7423
▁આપણ	-10.7429
▁રિફ્લેક્ટ	-10.746
▁ક્રેટ	-10.7462
▁દક્ષિણ	-10.7465
▁ખિસ્સા	-10.7465
▁ગ્રેજ્યુએશન	-10.7465
▁ટ્રાઇપોડ	-10.7465
▁ડુક્કર	-10.7465
▁માઈક્રોફોન	-10.7465
▁સાન્તાક્લોઝ	-10.7465
▁મોવર	-10.7465
▁આવવા	-10.7465
▁ગાયિકા	-10.7466
▁લાઈટ	-10.7466
▁પર્વતારોહણ	-10.7466
▁સાઇનબોર્ડ	-10.7466
▁ભરવાડ	-10.7467
▁ક્યાંક	-10.7468
▁સ્કાઉટ્સ	-10.7469
▁સુરક્ષિત	-10.747
▁દડા	-10.7471
▁મીની	-10.7474
▁ફુલાવ	-10.7475
▁વર્કશોપમાં	-10.7477
▁કેબલ	-10.7477
▁પ્રતિબિંબિત	-10.748
▁અંતર	-10.7509
▁સંબોધ	-10.7514
▁શાળામાં	-10.7522
▁ગોલ્ફર	-10.7563
▁પૂંછડી	-10.757
▁નીચ	-10.7571
▁મેળ	-10.758
▁બેંક	-10.7589
▁પીંછાવાળ	-10.762
▁બનેલ	-10.7631
▁પાંદડાઓમાં	-10.764
▁જાદુગર	-10.7645
પરિણીત	-10.7651
પગ	-10.7669
▁તો	-10.7674
ેલું	-10.7687
1	-10.769
ટા	-10.7691
▁ટો	-10.7692
▁લોગો	-10.7696
▁મૂકેલ	-10.7697
▁ઝિપ	-10.7703
▁ઓડિટોરિયમ	-10.7703
▁જરૂર	-10.7703
▁પ્રક્રિયા	-10.7703
▁બલૂન	-10.7703
▁મુસ્લિમ	-10.7703
▁વાર્તા	-10.7703
▁હાઇસ્કૂલ	-10.7703
▁ફ્રેન્ચ	-10.7703
▁યુરોપિયન	-10.7704
▁ગરદન	-10.7704
▁નાચતો	-10.7705
▁સૌ	-10.7707
▁રાખ્યો	-10.7718
▁ટે	-10.7727
▁ક્ષણ	-10.7733
▁સઢવાળ	-10.7735
▁ક્લાસિક	-10.7735
▁સ્વ	-10.7739
▁બૂથમાં	-10.774
▁પર્ફોર્મર	-10.774
▁ગે	-10.7756
▁શબ્દો	-10.7763
▁પૈડા	-10.7779
▁કરેલો	-10.778
▁ફેક્ટરીમાં	-10.7797
5	-10.7801
▁શોપમાં	-10.781
▁કન્ટેનરમાં	-10.7815
▁જીત	-10.7817
▁બંદર	-10.7819
▁ગામ	-10.7828
લેટ	-10.7851
મુક	-10.7856
્ણ	-10.7868
▁રેલી	-10.7872
▁6	-10.7911
▁આખ	-10.7915
▁હેર	-10.793
▁જો	-10.7931
▁એલી	-10.7934
▁પૂડલ	-10.7945
▁બર્ગન્ડી	-10.7947
▁સ્વાગત	-10.7947
▁કિઓસ્ક	-10.7947
▁કુટુંબ	-10.7947
▁શાલ	-10.7947
▁સ્તર	-10.7947
▁જમાનાન	-10.7948
▁કસાઈ	-10.7949
▁પહેલાં	-10.7958
▁ગોઠવાયેલા	-10.7967
▁પ્રોજેક્ટર	-10.7972
▁201	-10.7979
▁ક્લાસમાં	-10.7986
▁કુસ્તીબાજો	-10.799
▁ફ્રી	-10.7991
ાયર	-10.7995
▁ઈંડા	-10.7999
▁જમ્પર	-10.8001
▁એરિયામાં	-10.8004
રે	-10.8033
શર	-10.8065
▁માછીમારો	-10.8069
▁સર્ફમાં	-10.8092
▁શબ્દ	-10.8135
▁પકડત	-10.8179
▁જેક	-10.8186
▁બ્રિટ	-10.8192
▁બોલે	-10.8195
▁શૂટ	-10.8196
▁ડામર	-10.8197
▁દીકરો	-10.8197
▁બેટ્સમેન	-10.8197
▁મોટે	-10.8197
▁વીજળી	-10.8197
▁સોસેજ	-10.8197
▁તહેવાર	-10.8197
▁ફાઇટર	-10.8197
▁બચવા	-10.8197
▁બેરિકેડ	-10.8197
▁બ્રોન્કો	-10.8197
▁સમજાવ	-10.8197
▁છવાયેલ	-10.8197
▁અર્ધ	-10.8197
▁ખૂટ	-10.8197
▁રૂપે	-10.8197
▁પાળી	-10.8198
▁રેડિયો	-10.8198
▁મેળવી	-10.8198
▁કૂદતા	-10.8198
▁ચાવે	-10.8198
▁ફેન્સીંગ	-10.8198
▁ડિજ	-10.8199
▁ચઢતા	-10.8203
▁ચુસ્ત	-10.8205
▁બેડરૂમ	-10.8206
▁8	-10.8206
ાર	-10.8219
▁ડાઉન	-10.8226
▁કોકા	-10.8231
▁પડછાયામાં	-10.8255
▁બેડ	-10.8259
▁સીટી	-10.8282
▁ધુમ્મસવાળ	-10.8287
▁બગા	-10.8296
▁વિચારી	-10.8305
▁પટ્ટાઓવાળ	-10.8321
▁નજરે	-10.8323
▁આપ	-10.8333
ઢ	-10.8343
▁જાહેરાતો	-10.8349
▁માટીમાં	-10.8353
▁ચામડીન	-10.836
▁કોતરણી	-10.8378
▁હેન્ડલ	-10.8381
▁વાગે	-10.8401
▁બોટલમાં	-10.8419
▁ઉપકરણો	-10.8425
▁ડ્રિંક	-10.8449
▁માઈક	-10.8449
▁સિંહ	-10.8451
▁સેલ	-10.8452
▁નીચેથી	-10.8453
▁બોડી	-10.8454
▁ગ્રામ	-10.8454
▁બિલ્ડીંગ	-10.8454
કસ્મ	-10.8454
▁અમેરિકા	-10.8454
▁આઉટફિટ	-10.8454
▁ઘાયલ	-10.8454
▁પગરખાં	-10.8454
▁રેઝર	-10.8454
▁વાંદરા	-10.8454
▁શોધખોળ	-10.8454
▁સ્ટિલ્ટ	-10.8454
▁હેન્ડ્રેઇલ	-10.8454
▁હાફ	-10.8454
ભુત	-10.8454
▁પુશ	-10.8454
▁કુશળતા	-10.8454
▁રેલરોડ	-10.8454
▁ઝૂલતી	-10.8455
▁નિયંત્રણ	-10.8455
▁વેઈટર	-10.846
▁બ્રેક	-10.8463
▁પહેરવા	-10.847
યા	-10.848
▁હૂપ્સ	-10.8481
▁પ્લેન	-10.8483
▁સર્ફર્સ	-10.8497
િટલ	-10.8512
▁એશિયનો	-10.8512
▁સો	-10.8521
▁તેમાં	-10.8532
▁વાળવાળ	-10.8538
▁ગિયરમાં	-10.854
▁ઉતારવા	-10.8552
▁પેટર્ન	-10.8559
▁કચરાપેટીમાં	-10.8559
▁ટાલવાળ	-10.8559
▁રોકાય	-10.8565
▁રોકી	-10.859
▁સસ્પેન્ડર	-10.8595
▁વિશ્વ	-10.8615
ાવી	-10.8625
▁પોસ્ટરો	-10.8626
▁સિંકમાં	-10.8638
બોલ	-10.8664
▁ગુસ્સ	-10.8665
▁ઉતરત	-10.8667
▁બાંધે	-10.8667
▁સ્ટે	-10.8673
▁સ્ટેન્ડમાં	-10.8703
▁વાવ	-10.8703
▁રાહદારી	-10.8713
▁પ્રવૃત્તિ	-10.8714
▁ઉપનગર	-10.8717
▁ઇન્ટરવ્યુ	-10.8717
▁ઉચ્ચ	-10.8717
▁કંડક્ટર	-10.8717
▁ટૂથબ્રશ	-10.8717
▁ટ્રોફી	-10.8717
▁પાતળી	-10.8717
▁પેન્સિલ	-10.8717
▁બ્લેઝર	-10.8717
▁રિક્ષા	-10.8717
▁વીડિયો	-10.8717
▁બેકયાર્ડ	-10.8717
▁રિસેપ્શન	-10.8717
▁કેસિનો	-10.8717
▁અનાજ	-10.8717
▁છીએ	-10.8717
▁મોડ	-10.8717
▁દેખરેખ	-10.8717
▁સર્જરી	-10.8717
▁મેરી	-10.8718
▁પોટ્રેટ	-10.872
▁મૂર્તિઓ	-10.872
▁ક્રેટ્સ	-10.8722
▁વોક	-10.8723
ખીચ	-10.8728
િકલ	-10.8737
▁અટક	-10.8747
▁આવતી	-10.8762
▁ઈ	-10.88
▁પ્લાઝા	-10.8811
▁દૃશ્યો	-10.8833
િસ	-10.8837
▁ઢાંકીને	-10.8838
▁નંબરની	-10.8855
▁પીચ	-10.8871
▁મેદાનમાંથી	-10.891
▁છુપાયેલ	-10.8924
▁પદાર્થ	-10.8924
▁બટનવાળ	-10.8925
ાનિક	-10.8928
લેન્ડ	-10.8959
▁ચીયરલીડર	-10.8982
▁ટુટુ	-10.8985
▁વાનગી	-10.8985
▁મુખ	-10.8985
તિહાસ	-10.8987
▁રેઈન	-10.8987
▁ક્ષિતિજ	-10.8987
▁ઘૂસ	-10.8987
▁ટ્રાઇસિકલ	-10.8987
▁નહીં	-10.8987
▁પાડતો	-10.8987
▁વ્યાખ્યાન	-10.8987
▁ભજવ	-10.8987
▁વેઇટ્રેસ	-10.8987
▁જાળવણી	-10.8987
▁બારટેન્ડર	-10.8987
▁કરવો	-10.8987
▁લાગી	-10.8988
▁કલર	-10.8989
▁પેસ્ટ્રી	-10.8991
▁હોટડોગ્સ	-10.8994
▁ઓલિવ	-10.9001
▁જાડા	-10.9002
▁વહેંચી	-10.9008
સ્ત	-10.9008
▁ભૂખરો	-10.9009
▁આધાર	-10.9013
ીક્ષા	-10.903
▁ટાઇમ	-10.9043
સું	-10.9046
▁ટ્રાફિકમાં	-10.9047
▁સુરંગમાં	-10.905
▁દોરેલ	-10.9052
▁ચાલક	-10.9053
▁ચમકત	-10.9054
▁કો	-10.9056
▁ક્રોસિંગ	-10.9067
▁યાર્ડ	-10.9093
સ્પ	-10.9093
▁વાંચતો	-10.9127
▁જમ્પસૂટમાં	-10.914
▁ચીન	-10.9162
▁લાઇનવાળ	-10.9173
▁સ્વિમસ્યુટમાં	-10.9193
▁ખોલીને	-10.9199
▁નમ	-10.92
▁ખરીદે	-10.921
B	-10.9213
બર	-10.9219
વર	-10.9222
▁કોર્ટમાં	-10.9239
▁માર્કર	-10.9261
▁લો	-10.9264
▁અધૂર	-10.9265
▁એપ્રન	-10.9265
▁ઓપરેશન	-10.9265
▁કેનેડિયન	-10.9265
▁કેમ્પફાયર	-10.9265
▁કોબલસ્ટોન	-10.9265
▁ગર્વ	-10.9265
▁ચકાસ	-10.9265
▁ટાપુ	-10.9265
▁પાડતા	-10.9265
▁પ્રશિક્ષક	-10.9265
▁લેટિન	-10.9265
▁હેમબર્ગર	-10.9265
▁ઢોર	-10.9265
▁પડ્યા	-10.9265
▁ડ્રિલ	-10.9265
▁સ્પેનિશ	-10.9265
▁સજાવટ	-10.9265
▁ખાસ	-10.9266
▁કાપતા	-10.9266
▁ટામેટાં	-10.9266
▁ક્રેયોન્સ	-10.9266
▁ડાર્	-10.9269
▁સંભળાવ	-10.9269
▁ડ્રેગન	-10.927
▁જથ્થા	-10.9273
▁સ્ટાઇલ	-10.9274
▁ડૂબેલ	-10.9278
▁થોભી	-10.9281
ાઓ	-10.9281
▁ડેલી	-10.9284
▁કપલ	-10.9297
▁કંટ્રોલ	-10.9301
▁ચમકાવ	-10.9315
▁કાર્ટમાં	-10.9317
▁ફોટોગ્રાફી	-10.9318
▁ઝાંખી	-10.9322
▁આખા	-10.9322
▁ગાયો	-10.9333
▁સ્પ્રિંકલરમાં	-10.9345
▁લિંક	-10.9369
▁ખેંચાવ	-10.9369
લે	-10.9377
▁પ્રકૃતિ	-10.9397
▁છોડીને	-10.9413
▁રોલ	-10.9414
▁રોબોટ	-10.9419
▁કાદવવાળ	-10.9419
▁લિફ્ટમાં	-10.9421
▁ઝાંખ	-10.9424
▁મેન	-10.9426
ાર્ગો	-10.9439
નાર	-10.9443
▁વિભાગ	-10.9443
▁સ્પર્ધક	-10.9488
▁મૂછોવાળ	-10.9499
▁પ્રયોગશાળા	-10.9502
▁સેન્ટરમાં	-10.9502
્વ	-10.9509
િષ્ટ	-10.951
▁કેચ	-10.9511
▁રેડે	-10.9512
▁સ્થાન	-10.9514
▁ઉત્સાહી	-10.9527
▁હેન્ડ	-10.9532
▁સિગાર	-10.955
▁કાર્ટૂન	-10.9551
▁ટાઇટ્સ	-10.9551
▁ટેબલક્લોથ	-10.9551
▁ફ્રિસબી	-10.9551
▁બેડમિન્ટન	-10.9551
▁મશાલ	-10.9551
▁વંશન	-10.9551
▁વરિષ્ઠ	-10.9551
▁વિજય	-10.9551
▁સંગ્રહ	-10.9551
▁ટ્રેન્ચ	-10.9551
▁ડાયનાસોર	-10.9551
▁સ્નાયુબદ્ધ	-10.9551
ફિનિશ	-10.9551
▁લીગ	-10.9551
▁કંપની	-10.9551
▁ફાયરટ્રક	-10.9551
▁ફ્લાઇટ	-10.9551
▁કરવું	-10.9552
▁ટાઇપ	-10.9552
▁ભાવ	-10.9555
▁હાઇચેર	-10.9555
▁વિતાવી	-10.9559
▁ડાન્સર્સ	-10.9564
ેબલ	-10.9565
▁હેટ	-10.9569
▁શેડ	-10.9572
▁દર્શક	-10.9573
ઇમર	-10.9585
▁તમાર	-10.9594
▁બચાવવા	-10.9618
▁લેગો	-10.9631
▁રાત	-10.9632
▁હોવાથી	-10.9666
▁લગાવેલી	-10.9671
ગન	-10.9672
▁ક્ર	-10.9675
આઉટ	-10.9677
▁ડી	-10.9679
▁ચમક	-10.9683
▁ક્રુઝ	-10.9696
▁ઝભ્ભામાં	-10.9703
▁વર્તુળ	-10.972
▁એક્શન	-10.9734
▁ચૂસ	-10.9742
▁છો	-10.9768
▁ગોળા	-10.9772
ાઝ	-10.978
▁રમતવીર	-10.9783
▁ચાહક	-10.9783
યુગ	-10.9785
▁બહેન	-10.979
▁શિયાળ	-10.9797
▁યુવકો	-10.9815
▁ડ્રેગ	-10.9839
▁ટેરિયર	-10.984
▁ટૂલ	-10.984
▁ઓશિકા	-10.9841
▁એટીએમ	-10.9845
▁ઘસ	-10.9845
▁ડોલ્ફિન	-10.9845
▁નાખુશ	-10.9845
▁પેસેન્જર	-10.9845
▁લટકતું	-10.9845
▁શિખર	-10.9845
▁શેમ્પેન	-10.9845
▁હેલોવીન	-10.9845
▁માઉન્ટેન	-10.9845
જન્સી	-10.9845
▁ચોખા	-10.9845
▁વક્તા	-10.9845
▁વેરહાઉસ	-10.9845
▁કાપણી	-10.9845
▁અદ્	-10.9845
▁ડિનર	-10.9845
▁વધાર	-10.9845
▁બેન્જો	-10.9845
▁સ્નોમેન	-10.9845
▁ચિપ્સ	-10.9847
▁બાકી	-10.9847
▁રાફ્ટિંગ	-10.9851
▁શ્વેત	-10.9852
▁પત્ની	-10.9852
▁સૂતર	-10.9852
▁ડાઇવર	-10.9855
ડે	-10.9859
ખાબ	-10.9865
ાથમ	-10.9873
ત્રિક	-10.9878
▁પુસ્તકાલયમાં	-10.9883
▁બેઠકો	-10.9885
▁સેન્ટર	-10.9903
▁ટેલિસ્કોપમાં	-10.9918
▁મિલાવ	-10.9946
▁મંદિર	-10.9952
શે	-10.9964
▁રન	-10.9967
▁ઈંટો	-10.9968
▁પર્વતમાળા	-10.9973
▁શ્રેણી	-10.9973
▁રોકે	-11.0007
▁રિ	-11.0025
▁ફેક્ટરી	-11.0029
▁ઘણ	-11.0039
▁આર્કેડ	-11.0045
▁ચાટ	-11.0046
્ટફ્	-11.0067
▁લોગ	-11.0086
▁સુધાર	-11.0106
▁પહેલ	-11.0107
▁અથડાય	-11.011
▁ભાર	-11.0116
▁બેલી	-11.012
ણી	-11.013
▁નંબરો	-11.0133
▁સ્કાઉટ	-11.0143
▁સ્પોર્ટ	-11.0143
▁મિશ્ર	-11.0145
▁સામાજિક	-11.0146
તિ	-11.0147
▁આંતરછેદ	-11.0148
▁દબાવી	-11.0148
▁બર્ફીલા	-11.0148
▁લેગિંગ્સ	-11.0148
▁હેન્ડબેગ	-11.0148
▁એલ્મો	-11.0148
▁શેલ્ફ	-11.0148
▁ટોર્ચ	-11.0148
▁સ્કોટ	-11.0148
▁દાયકા	-11.0148
▁સાઇટ	-11.0148
▁કાંડા	-11.0148
▁તીર	-11.0148
▁વિન્ટ	-11.0149
▁મિડ	-11.0149
▁યોગ્ય	-11.0149
▁સાંભળતી	-11.015
▁મૂવ્સ	-11.0152
▁કિશોરીઓ	-11.0152
▁છીણી	-11.0154
▁પોનીટેલવાળી	-11.0158
▁ઓળંગી	-11.0163
▁તલવારબાજી	-11.0163
▁અટકાવવા	-11.0172
ેલી	-11.0174
▁પીરોજી	-11.0174
મો	-11.0175
▁ડ્રાયર	-11.0178
▁છેડા	-11.0185
▁વાદક	-11.0189
▁વળે	-11.0193
ટેડ	-11.0193
▁કોલી	-11.0196
▁સ્ટોલમાં	-11.021
▁સ્પ	-11.0215
▁સી	-11.0218
▁સ્કૂલના	-11.0221
▁મા	-11.0233
▁શે	-11.0253
▁ચોક	-11.0254
પર	-11.0256
▁ભૂગર્ભ	-11.027
▁ખેંચાત	-11.0276
▁જાત	-11.0287
▁શૈલીની	-11.0296
▁ભીનું	-11.0317
▁પ્રદેશમાં	-11.0329
▁સુવિધા	-11.0334
▁ઘોડેસવાર	-11.0336
મેન્ટ	-11.0343
▁બ્લ	-11.0356
▁ક્લાસ	-11.037
▁રક્ષક	-11.0396
▁વાતાવરણ	-11.0405
સ્ટ્રોક	-11.0407
▁પરપોટ	-11.0411
▁ઢંકાયેલું	-11.0449
▁ગેરેજમાં	-11.0452
▁બચ્ચા	-11.0458
▁સાધુ	-11.0458
▁બકિંગ	-11.0459
મ્બ	-11.046
શસ્ત્ર	-11.046
▁અવાજ	-11.046
▁ઉતાવળ	-11.046
▁કાફેટેરિયા	-11.046
▁ટ્રાઇસાઇકલ	-11.046
▁ટ્રેડમિલ	-11.046
▁ડિપાર્ટમેન્ટ	-11.046
▁ભાષા	-11.046
▁ભુર	-11.046
▁રૂમાલ	-11.046
▁પરસેવા	-11.046
▁પોર્ટેબલ	-11.046
▁સ્ટ્રોબેરી	-11.046
▁ડઝન	-11.046
▁કટીંગ	-11.0461
▁ધકેલતી	-11.0461
▁નાવિક	-11.0461
▁રોટલી	-11.0461
▁સૂપ	-11.0461
ીકરણ	-11.0462
▁ભાલ	-11.0462
▁પર્ફોર્મન્સ	-11.0463
▁સાધુઓ	-11.0463
▁સાપ	-11.0464
▁મિક્સર	-11.0465
રક્ષા	-11.0465
▁પંચ	-11.0466
▁ભરવા	-11.0473
▁લપેટી	-11.0474
▁બગી	-11.0483
▁ફે	-11.0487
▁પહોળા	-11.0497
▁બ્લો	-11.0509
▁પરિવારો	-11.0515
પ્ર	-11.0522
▁મૂકીને	-11.0531
▁દોડાવ	-11.0534
મી	-11.0591
એસ	-11.0609
▁ઘેરાયેલ	-11.0613
▁સ્ટ	-11.0615
▁નહેર	-11.0617
▁માર્કેટ	-11.062
▁બોલર	-11.0642
▁થાકેલ	-11.0684
ઇ	-11.0705
બે	-11.0713
ટિલ	-11.0716
▁ઈમારત	-11.0719
▁કબૂતર	-11.0721
▁પહાડ	-11.0722
▁સપાટ	-11.0725
▁ચિત્રકાર	-11.0726
બી	-11.0729
▁ઉંચકી	-11.0729
રાઉન્ડ	-11.0731
▁હો	-11.074
▁ક્લ	-11.074
▁વોલ	-11.0744
▁સ્કેફોલ્ડ	-11.0775
▁ચાંચિયા	-11.0776
▁સ્પોટલાઇટ	-11.0778
▁ગ્લોવ	-11.0778
▁બંડ	-11.0779
ત્યંત	-11.0783
▁ઇશાર	-11.0783
▁ઓજાર	-11.0783
▁કઠપૂતળી	-11.0783
▁કીમોનો	-11.0783
▁ક્લીનર	-11.0783
▁ચોપસ્ટિક્સ	-11.0783
▁જળમાર્ગ	-11.0783
▁ટર્કી	-11.0783
▁પૂછ	-11.0783
▁ફુવારો	-11.0783
▁બાગકામ	-11.0783
▁મિયામી	-11.0783
▁રુંવાટીવાળો	-11.0783
▁લાઉન્જ	-11.0783
▁હાર્મોનિકા	-11.0783
▁મચાવ	-11.0783
▁લોન્ડ્રોમેટ	-11.0783
▁નાઈટક્લબ	-11.0783
▁ફાસ્ટ	-11.0783
▁સ્વીકાર	-11.0783
▁ઇયરફોન	-11.0783
▁ઓરડો	-11.0783
▁વેલ્ડીંગ	-11.0783
▁વેઇટ	-11.0783
▁મોપ	-11.0784
▁મજબૂત	-11.0785
▁તોપ	-11.0786
▁ચલાવનાર	-11.0788
▁આકૃતિઓ	-11.079
▁મગર	-11.0791
▁હાઇકર્સ	-11.0793
▁બાઇકિંગ	-11.0794
ઇડ	-11.0797
▁જમ્પિંગ	-11.0797
બેક	-11.0807
▁દિવાલોવાળ	-11.0827
ીક્ષ	-11.0836
રણ	-11.0851
ઓને	-11.087
▁છાપેલ	-11.0877
▁ભ	-11.0889
▁બપોરે	-11.089
▁સર્ફ	-11.0911
▁ફેસ	-11.0948
▁ચડત	-11.0961
▁તારવાળ	-11.0962
▁ટેકેલ	-11.0964
ર્ફ	-11.099
▁વાદળ	-11.0996
▁મુસાફર	-11.0996
▁શોધવા	-11.0998
▁જોન	-11.1018
▁સર્જ	-11.1039
▁કિલ્લ	-11.1041
▁વિદેશ	-11.1059
યાં	-11.106
▁ઓશીક	-11.1065
પીસ	-11.1069
▁લેનાર	-11.1072
▁સર્જન	-11.1085
સા	-11.1085
▁સન	-11.1092
▁પલંગમાં	-11.1101
▁બો	-11.1104
▁એક્રોબેટિક	-11.1112
▁કૂકી	-11.1115
▁કાંઠા	-11.1116
▁ખાતે	-11.1116
▁ચેતવણી	-11.1116
▁તણખા	-11.1116
▁તાજેતર	-11.1116
▁બંજી	-11.1116
▁યહૂદી	-11.1116
▁લીઓટાર્ડ	-11.1116
▁કોઠાર	-11.1116
▁જ્યુસ	-11.1116
▁પિરામિડ	-11.1116
▁ફેડોરા	-11.1116
▁બાર્બેક્યુ	-11.1116
▁વાંચન	-11.1116
▁સિસ્ટમ	-11.1116
▁સેક્સ	-11.1116
▁ચક્ર	-11.1116
▁વોટરસ્કીઇંગ	-11.1116
▁ઢાંકણ	-11.1117
▁સ્ટોરફ્રન્ટ	-11.1117
▁શેરડી	-11.1117
▁બેટમેન	-11.1118
▁માણવા	-11.1119
▁તરતું	-11.1121
▁પળિયાવાળ	-11.1121
▁એક્વા	-11.1121
▁ટોસ્ટ	-11.1123
▁ડાઇવર્સ	-11.1124
▁મુક્ત	-11.1125
▁દાદી	-11.1126
▁વેપારી	-11.1128
▁લટકાવવા	-11.1129
ાઈવ	-11.1134
▁કચરાપેટીઓ	-11.1136
▁ઊંચાઈ	-11.1138
ચ્યુ	-11.1138
▁સ્ટાફ	-11.1141
▁દાન	-11.1143
▁પોઝમાં	-11.1148
▁ભવ	-11.115
▁ગોઠવવા	-11.1151
▁સાથીઓ	-11.1151
▁પંખા	-11.1151
▁કરાવેલો	-11.1156
▁રડતું	-11.1157
▁પહોળી	-11.1161
▁લાકડાં	-11.1169
▁કુંડા	-11.1178
▁મિલાવી	-11.1182
▁ઇન	-11.1199
▁લાઇ	-11.121
▁ટેકવે	-11.1232
▁તરાપામાં	-11.1245
ાંતર	-11.1251
▁ઉછળ	-11.1268
▁ઝૂકેલ	-11.1293
ત્વ	-11.1317
▁તારા	-11.132
▁સમારંભ	-11.1359
▁કેટલા	-11.1361
▁ક્ષેત્રમાં	-11.1361
▁બાથરૂમ	-11.1365
▁જમત	-11.1371
ઇન	-11.14
▁ચળકત	-11.1401
બાજુ	-11.141
કાર્ટ	-11.1411
▁અન	-11.1418
▁કપડ	-11.1431
▁કેટલ	-11.1446
ઇટ	-11.1452
▁નિર્દેશ	-11.1455
▁પડવા	-11.1457
▁પાદરી	-11.1458
▁ઓવરપાસ	-11.1461
▁ખચ્ચર	-11.1461
▁ચીયરલીડિંગ	-11.1461
▁નકશો	-11.1461
▁પાયલોટ	-11.1461
▁પ્રતિસ્પર્ધી	-11.1461
▁બૂગી	-11.1461
▁વનસ્પતિ	-11.1461
▁સમુદાય	-11.1461
▁પેનકેક	-11.1461
▁માસ્કોટ	-11.1461
▁હેડસેટ	-11.1461
▁પ્રાયોજ	-11.1461
▁ફિગર	-11.1461
▁નમાવી	-11.1461
▁પિકઅપ	-11.1461
▁નેઇલ	-11.1461
▁સ્પિન	-11.1462
▁અરબ	-11.1462
▁રાઇડર	-11.1463
▁બેસવા	-11.1464
▁લગાવવા	-11.1464
▁ચેકર્સ	-11.1464
▁લખત	-11.1465
▁ઊંચકી	-11.1465
▁છતાં	-11.1467
▁દડાઓ	-11.1467
ાલીન	-11.1474
▁ગ્રેહાઉન્ડ્સ	-11.1477
▁ખસેડવા	-11.1479
▁રેકોર્ડિંગ	-11.1481
▁આંખોવાળો	-11.1489
▁વાનમાં	-11.1489
▁માળે	-11.149
▁માર્ગદર્શ	-11.1492
ંડ	-11.1496
▁શિકારી	-11.1497
▁નોટબુકમાં	-11.1504
▁કપડામાં	-11.1504
▁કોતરી	-11.1506
▁વ્હીલર	-11.1506
▁નળીમાં	-11.1534
▁સ્પર્ધકો	-11.1538
ઇલ	-11.1542
▁નીચી	-11.1547
▁જગ	-11.1549
▁યો	-11.155
▁સ્કેટબોર્ડર્સ	-11.1561
▁વજનવાળ	-11.1574
▁લોક	-11.1623
▁લેન્ડસ્કેપમાં	-11.1636
મિ	-11.1642
▁ટોપલીમાં	-11.1663
▁કોટન	-11.1665
▁બિલ્ડિંગમાં	-11.1677
▁પાંજરા	-11.1678
સે	-11.168
▁વિના	-11.1685
▁ભૂપ્રદેશ	-11.1689
▁નાતાલ	-11.17
▁કાણ	-11.1755
▁કુસ્તીબાજ	-11.1756
▁ભૂર	-11.1793
ષ્ઠ	-11.1802
▁મકાનમાં	-11.1806
▁રાફ્ટ	-11.181
▁મરઘી	-11.1812
▁યુએસ	-11.1814
▁ફિટ	-11.1815
▁પડતા	-11.1815
▁લંબ	-11.1818
▁કાંઠે	-11.1818
▁કિકબોક્સિંગ	-11.1818
▁કૌશલ્ય	-11.1818
▁ક્લેરનેટ	-11.1818
▁ખુશખુશાલ	-11.1818
▁ટેકનિશિયન	-11.1818
▁પગપાળા	-11.1818
▁રજિસ્ટર	-11.1818
▁લાઈફ	-11.1818
▁શૌચાલય	-11.1818
▁સર્કિટ	-11.1818
▁ગધેડો	-11.1818
▁રૂટિન	-11.1818
▁અભિનય	-11.1818
▁વોટરસ્કી	-11.1818
▁કપકેક	-11.1819
▁છૂટ	-11.1819
▁આંતરિક	-11.182
▁ડાર્ટ	-11.182
ટાર	-11.1822
▁જવાબ	-11.1822
▁કરાયેલ	-11.1823
▁યુએસએ	-11.1823
▁સ્તન	-11.1823
▁પ્લેટમાં	-11.1823
રોડ	-11.1828
પોંગ	-11.1828
▁પાત્ર	-11.183
▁નમૂના	-11.1831
▁કાયકર	-11.1832
▁ખીણમાં	-11.1832
▁મગ	-11.1835
▁ચોંટાડી	-11.1836
▁પતિ	-11.1837
▁પક્ષ	-11.1837
▁અજમાવી	-11.1841
▁કાં	-11.1845
▁સ્ટેશનમાં	-11.1861
▁ગેમ્સ	-11.1863
▁ભૂમિ	-11.1865
▁ટેટૂવાળો	-11.1873
▁સ્તંભો	-11.1875
▁પાત્રો	-11.1881
▁કેબ	-11.1913
▁લાગેલ	-11.1913
▁નર્સો	-11.193
▁સરક	-11.1963
ૃત	-11.1973
▁સુત	-11.2001
▁આગમાં	-11.2019
▁થેલીમાં	-11.204
▁કટ	-11.2082
▁પ્રે	-11.2114
▁સંગ્રહાલય	-11.2116
છ	-11.2122
▁વેમાં	-11.2125
▁નાગરિક	-11.2126
▁અનોખ	-11.2128
▁અંધાર	-11.2136
દ્રશ્ય	-11.2137
▁ઓછ	-11.2139
▁ઓરડા	-11.214
▁પડછાયા	-11.2146
▁હટાવ	-11.2151
િક્સ	-11.2164
▁સ્થિત	-11.2165
▁કેમ્પ	-11.2171
▁મુંડાવ	-11.2177
▁વોર્મ	-11.2179
▁કોતરે	-11.2184
▁સૂચના	-11.2184
▁ચાંચ	-11.2188
▁મિક્સ	-11.2189
ાલતુ	-11.2189
▁આજુબાજુ	-11.2189
▁ઇંડા	-11.2189
▁ટેક્સાસ	-11.2189
▁પુનરુજ્જીવન	-11.2189
▁બુટ્ટી	-11.2189
▁લેક્ચર	-11.2189
▁વિદૂષક	-11.2189
▁સ્થાપત્ય	-11.2189
▁સ્નોર્કલ	-11.2189
▁ઝાયલોફોન	-11.2189
▁માઉસ	-11.2189
▁લિપસ્ટિક	-11.2189
▁ધાબ	-11.2189
ફાઇવ	-11.2189
▁ઉમેર	-11.2189
▁બન	-11.2189
▁લાવી	-11.2191
▁ટ્રેકસૂટ	-11.2192
▁સર્વિસ	-11.2192
િલિટી	-11.2196
▁પટ	-11.2198
▁રોલરબ્લેડર	-11.22
▁વીણા	-11.2201
▁વી	-11.2201
▁કીટ	-11.2209
ભળી	-11.2212
▁લહેરાતા	-11.2214
▁ફેંક્યો	-11.2221
▁ભસ	-11.2224
▁ધોતી	-11.2227
મેરા	-11.223
▁પ્રવેશવા	-11.2235
▁લેનારા	-11.2236
▁બેટિંગ	-11.2237
▁ટાઈટ	-11.2245
▁માર્યો	-11.2249
▁ફલ	-11.225
▁સુપરમાર્કેટમાં	-11.2262
રંગી	-11.2266
▁પિત્તળના	-11.2267
વતી	-11.2277
▁જાદુગરી	-11.2281
ર્ક	-11.2281
▁સમારંભમાં	-11.2299
લર	-11.2302
▁કોક	-11.2304
▁આઇ	-11.2328
ચેકઆઉટ	-11.2338
વિ	-11.2341
▁વાંચતા	-11.2344
▁શીખવે	-11.2349
▁શ્રે	-11.2353
▁તલવારો	-11.2353
▁કેર	-11.2412
લિક	-11.2416
રિક	-11.2429
▁માર	-11.2442
▁રંગવા	-11.2445
▁આંગણા	-11.2464
▁શણગાર	-11.2465
▁ઓવન	-11.2471
તર	-11.2473
▁ઊંડ	-11.2475
▁બની	-11.2489
▁માપ	-11.2495
કામ	-11.2499
▁મૂવ	-11.251
▁ઝઘડ	-11.2511
▁નિહાળ	-11.2515
વાદક	-11.2521
▁દરિયાકિનાર	-11.2522
ત્રણ	-11.2524
સ્ત્રી	-11.2526
▁પાટ	-11.2539
▁રાઇડ	-11.2557
લિવર	-11.2557
▁સર્વ	-11.2565
▁હજ	-11.2566
▁છાજલી	-11.257
▁નિયંત્ર	-11.2571
▁પેસિફ	-11.2571
▁રજા	-11.2571
▁ચેઇન	-11.2573
▁અનુસર	-11.2573
▁ખજૂર	-11.2573
▁ગોળમટોળ	-11.2573
▁ચોંટી	-11.2573
▁નાઇકી	-11.2573
▁પ્રથમ	-11.2573
▁માળખું	-11.2573
▁સીફૂડ	-11.2573
▁સ્પોન્જ	-11.2573
▁હેડડ્રેસ	-11.2573
▁ધપાવ	-11.2573
▁ફસાયેલ	-11.2573
▁શિપ	-11.2573
▁ફેલાયેલ	-11.2573
▁મિકેનિક	-11.2573
▁કાચબા	-11.2573
▁બોડીસુટ	-11.2573
▁માઇમ	-11.2573
▁કુલર	-11.2573
▁ગાતું	-11.2573
▁ચીયર	-11.2573
▁ચોકડી	-11.2574
▁સંબંધ	-11.2574
▁પેરા	-11.2574
▁પતંગિયા	-11.2574
▁પેરાસેલિંગ	-11.2575
▁ઘોડાગાડી	-11.2575
▁કૌ	-11.2575
▁દેવાયેલ	-11.2576
▁છાજલીઓ	-11.2576
▁બાળ	-11.2577
▁નિર્દેશન	-11.2579
▁ચીંધી	-11.2581
▁દીવાલ	-11.2582
▁પેટ્રોલિંગ	-11.2588
▁મેડિ	-11.2588
▁ફેરવવા	-11.259
▁રોકાયેલા	-11.2592
▁પહેરવેશમાં	-11.2595
▁જાડો	-11.2599
▁વ્હીલ્સ	-11.2608
▁ડ્રમ્સ	-11.2615
▁પડાવવા	-11.2632
▁માર્ય	-11.2638
▁શેરીઓ	-11.2647
▁ઉતરતા	-11.2648
▁રોકાયા	-11.2649
▁મોર્	-11.2653
▁રેલીમાં	-11.2654
▁થ	-11.2655
ઈન	-11.2672
▁તવા	-11.2677
▁ધસ	-11.2687
▁આર્કેડમાં	-11.2705
▁ઝાડીઓમાં	-11.2713
▁વેલ્ડર	-11.272
પ્સ	-11.2731
▁પિંગ	-11.2732
▁ગાદી	-11.2732
▁તેવો	-11.2737
ક્ટ	-11.2741
▁આવત	-11.2741
દ્ધ	-11.2751
રિમ	-11.2762
▁લેન્સ	-11.278
▁છિદ્ર	-11.278
▁રહેત	-11.2788
▁ભૂ	-11.2824
▁વાટક	-11.2832
▁ચડ	-11.2862
▁ઘેર	-11.2866
વ્ય	-11.2879
આ	-11.2884
સર	-11.2903
▁રુવાંટીવાળ	-11.291
▁પ્રવાસ	-11.2916
▁સ્તંભ	-11.292
▁નોટબુક	-11.2924
▁નાળામાં	-11.2946
▁મશીનમાં	-11.2949
▁ટર્મિનલ	-11.2956
▁બેઝમેન	-11.2963
ંસ્કૃતિ	-11.2969
ક્	-11.297
▁સાધ્વી	-11.297
▁સરળ	-11.2971
▁વેચનાર	-11.2972
▁સીવી	-11.2972
▁કૃત્	-11.2972
ટુંબ	-11.2973
▁અસ્તવ્યસ્ત	-11.2973
▁કબજ	-11.2973
▁ખોપરી	-11.2973
▁ઘડા	-11.2973
▁લીંબુ	-11.2973
▁સ્નોમોબાઇલ	-11.2973
▁એપલ	-11.2973
▁એમ્બ્યુલન્સ	-11.2973
▁ચૂંટી	-11.2973
▁પહેલવાન	-11.2973
▁લપસી	-11.2973
▁લોબીમાં	-11.2973
▁સ્ટ્રક્ચર	-11.2973
▁હાઇડ્રેન્ટ	-11.2973
▁હૂક	-11.2973
▁ડોકટરો	-11.2973
▁સ્યુટ	-11.2973
▁સ્લોટ	-11.2973
▁કેશિયર	-11.2973
ર્શિય	-11.2973
▁કેરિયર	-11.2973
▁કોલસા	-11.2973
▁સુપરમેન	-11.2973
▁રિલે	-11.2973
ચુંબ	-11.2973
▁કૂદતી	-11.2974
▁શેફ	-11.2974
ક્રિય	-11.2975
▁કૂકીઝ	-11.2975
▁સ્કાયડાઇવિંગ	-11.2976
▁રાજક	-11.2976
▁કાબૂ	-11.2976
▁કાઠી	-11.2977
▁ત્ય	-11.2978
▁પ્રવૃત્તિઓ	-11.2978
▁ખોદવા	-11.2978
▁ફોરગ્રાઉન્ડ	-11.2978
▁સૂકવી	-11.2982
▁લેડી	-11.2983
▁ભરતી	-11.2984
▁સાઇડ	-11.2996
▁તોડવા	-11.2997
▁પોપ	-11.2999
▁જિમ્નેશિયમમાં	-11.3004
▁રાંધત	-11.3016
▁સુમ	-11.303
▁ટુકડામાં	-11.3033
▁રુવાંટીવાળો	-11.3037
▁ધુમ્મસ	-11.3047
▁થાકેલો	-11.3053
નિંગ	-11.3062
નર	-11.3067
▁સ્ક્વેરમાં	-11.3069
ોડિયા	-11.3081
▁ઠેલો	-11.3082
▁ક્ષેત્ર	-11.309
▁પીંછા	-11.3116
▁અમેરિકનો	-11.3128
▁નળ	-11.3153
▁માર્ગમાં	-11.3209
▁ગન	-11.322
▁જોડ	-11.3221
▁કરડવા	-11.3227
▁ક્ષ	-11.3229
ેલ	-11.3233
▁પીળ	-11.3236
▁ગીતો	-11.3263
▁વોલ્ટ	-11.3267
▁બિલ	-11.3274
▁અજાણ	-11.3279
ાયક	-11.3284
▁વળેલ	-11.3325
▁ઓઢ	-11.3328
▁જાપાન	-11.3332
ંચ	-11.3335
સૂટ	-11.3335
સરખા	-11.3337
▁ડો	-11.3337
▁રસ્તામાં	-11.3338
▁અંગૂઠ	-11.334
▁ચઢાવ	-11.3341
▁ફેંક	-11.3344
▁મિત્રને	-11.3352
▁મિ	-11.3364
▁સોનાનો	-11.337
▁ભાગે	-11.3383
▁આરસપહાણ	-11.339
▁કર્લિંગ	-11.339
▁કાઢતો	-11.339
▁કેમ્પસાઇટ	-11.339
▁ખરીદતા	-11.339
▁ખોલવા	-11.339
▁ઘઉં	-11.339
▁જ્વાળાઓ	-11.339
▁ડોમિનોઝ	-11.339
▁તરાપો	-11.339
▁થ્રો	-11.339
▁દબાણ	-11.339
▁ધીરજ	-11.339
▁પીત્ઝા	-11.339
▁ફાયરપ્લેસ	-11.339
▁બાઉન્સ	-11.339
▁મેગાફોન	-11.339
▁ટૂર	-11.339
▁લોહી	-11.339
▁શ્વાન	-11.339
▁ભણાવ	-11.339
▁સલાડ	-11.339
▁સર્કસ	-11.339
▁કહી	-11.339
▁દાદા	-11.339
▁બ્લોઅર	-11.339
▁ઇનલાઇન	-11.339
▁હેન્ડલબાર	-11.339
▁વળગી	-11.339
▁બર્ગર	-11.339
▁હેંગ	-11.3391
▁કોતરતો	-11.3391
▁ગટર	-11.3391
▁બેગપાઈપ	-11.3392
▁તિરાડ	-11.3392
▁મિશ્રણ	-11.3394
▁પાથ	-11.3394
▁વાનગીઓ	-11.3395
જનક	-11.3395
▁ટુ	-11.3395
▁રનર	-11.3399
▁ટ્રીપ	-11.34
▁બોટમ	-11.3402
ડર	-11.3408
▁મહેમાનો	-11.341
▁ગાયકો	-11.3412
લીલા	-11.3417
▁વિતાવે	-11.3418
▁અમ	-11.3419
▁સલૂનમાં	-11.3422
▁સ્ક્વિ	-11.3426
▁વાટકી	-11.3427
▁ઉમ	-11.3429
▁ફેસ્ટિવલમાં	-11.3433
▁સાંભળવા	-11.3439
▁બિલાડીઓ	-11.3441
િયો	-11.3441
▁દિ	-11.3445
▁સુધારવા	-11.3449
▁વેણી	-11.346
▁આંખોવાળી	-11.3466
▁સુકા	-11.3485
ગા	-11.3485
▁વારા	-11.3486
▁સભા	-11.3489
ૉ	-11.3514
▁આઈ	-11.3521
▁ફોલ્ડર	-11.3538
▁નંબરવાળ	-11.3545
ભે	-11.3556
ાટ	-11.3558
▁થિયેટરમાં	-11.3599
દી	-11.3619
▁ખેડૂતો	-11.3631
6.	-11.3652
▁વિન્ડસર્ફ	-11.3678
▁લેનમાં	-11.3683
▁રેન્જ	-11.3705
▁પહોળ	-11.3716
▁ડાઘવાળ	-11.3725
▁વેલ	-11.3726
▁ઉઠાવ	-11.3745
અ	-11.3755
▁પેકેજ	-11.3762
▁ગાયન	-11.3775
કોલા	-11.3781
▁ચઢીને	-11.3805
▁દિશામા	-11.3822
શીલ	-11.3824
▁ઉપાડત	-11.3825
▁એટેન્ડન્ટ	-11.3825
▁કોન્ફેટી	-11.3825
▁ખરીદતી	-11.3825
▁ખૂણો	-11.3825
▁ખોલત	-11.3825
▁ડંડો	-11.3825
▁દુનિયા	-11.3825
▁પગદંડી	-11.3825
▁પ્રોત્સાહ	-11.3825
▁રિહર્સલ	-11.3825
▁લક્ષ્ય	-11.3825
▁છાંટવા	-11.3825
▁સ્પાર્કલર	-11.3825
▁સેઇલબોટ	-11.3825
▁ટ્યૂલિપ્સ	-11.3825
▁ઉંદર	-11.3825
▁ડાયપર	-11.3825
▁કરવી	-11.3825
▁સીવણકામ	-11.3825
▁ખતર	-11.3825
▁યુરોપ	-11.3825
▁ખાકી	-11.3825
▁ટ્રેઇલ	-11.3825
▁હશે	-11.3826
▁પેકેટ	-11.3826
▁મંચ	-11.3826
▁પોલિશ	-11.3826
▁ટુબા	-11.3827
▁ભય	-11.3828
▁સ્ટ્રેચિંગ	-11.3828
▁વોશિંગ	-11.3829
્લેમ	-11.383
▁નિયમિત	-11.383
▁જનારાઓ	-11.3831
▁શક	-11.3833
▁પીકર	-11.3834
▁રોલિંગ	-11.3837
▁કોબ	-11.3852
▁બુક	-11.3853
▁ખેંચાયેલ	-11.3855
▁ફોટોગ્રાફ્સ	-11.3868
▁લાઇટો	-11.3878
▁ચૂક	-11.3882
▁લાઇટિંગ	-11.3887
▁અમી	-11.3888
▁કેપમાં	-11.389
▁બાય	-11.3903
▁આડ	-11.3916
▁પરિણીત	-11.3922
▁દીવા	-11.393
▁જીતી	-11.3932
▁ખેંચા	-11.3947
▁શરૂઆતમાં	-11.3981
▁ભર	-11.3988
▁વિભાગમાં	-11.3992
વેર	-11.3998
▁ચહેરાવાળી	-11.3999
▁વર	-11.4024
મેર	-11.4062
▁કોલ	-11.4074
▁ટાઇ	-11.4076
▁ફ્ર	-11.4076
▁કોતર	-11.4093
▁શિંગડા	-11.4093
▁કાંકરાવાળ	-11.4099
▁આજ	-11.4115
▁હે	-11.412
▁સ્પ્રિંકલર	-11.4148
▁ગંદ	-11.4165
▁સ્ક્વેર	-11.4172
▁બેનરો	-11.4176
ગર	-11.4192
▁ઓટ	-11.4219
પૂર્વ	-11.4222
ડાઉન	-11.4227
▁ખાડીમાં	-11.4235
ૂફ	-11.4247
▁અંગ	-11.4248
▁ટોળામાંથી	-11.4253
લીલ	-11.4268
▁સ્વેટ	-11.4269
▁છંટકાવમાં	-11.427
▁ઇસ્ટર	-11.4272
▁હોટ	-11.4277
▁ફ્રાઈ	-11.4278
▁કવરઓલ	-11.4279
▁કેથેડ્રલ	-11.4279
▁કેરોયુઝલ	-11.4279
▁ઘડો	-11.4279
▁દાવપેચ	-11.4279
▁નોકરી	-11.4279
▁પાડતી	-11.4279
▁પુતળા	-11.4279
▁ભયાનક	-11.4279
▁મૂંઝાયેલ	-11.4279
▁મેઈલબોક્સ	-11.4279
▁રુંવાટીવાળું	-11.4279
▁લોલીપોપ	-11.4279
▁સેંકડો	-11.4279
▁સ્વેટપેન્ટ	-11.4279
▁ડીશવોશર	-11.4279
▁મીંચી	-11.4279
▁વસંત	-11.4279
▁વીંટાળી	-11.4279
▁સંસ્થા	-11.4279
▁પોલીશ	-11.4279
▁હંકારી	-11.4279
▁સ્લીપ	-11.4279
▁સ્ટ્રીપ	-11.4279
▁અસ્પષ્ટ	-11.4279
▁પકડનાર	-11.4279
▁ચોકીદાર	-11.4279
▁સ્ટ્રીટલાઇટ	-11.428
▁પાવડર	-11.428
▁બ્રિજ	-11.428
▁વર્કઆઉટ	-11.428
▁કાપતી	-11.428
▁સિલ્વ	-11.428
▁અમાર	-11.428
▁વિન્ડબ્રેકર	-11.4281
▁નૂડલ્સ	-11.4281
▁સૂકવવા	-11.4281
▁ફ્લીસ	-11.4282
▁સંભવ	-11.4283
▁નૃત્યનર્તિકાઓ	-11.4287
▁ચાંચિયાઓન	-11.4289
▁સંમેલનમાં	-11.429
▁નિસ	-11.429
▁પછાડી	-11.4292
▁ચીંધે	-11.4295
▁લેખ	-11.4295
▁કોઈક	-11.4298
▁પાઇ	-11.4299
▁નળીઓ	-11.4303
▁માદાઓ	-11.4303
▁પીરસતી	-11.4307
▁ઓલવવા	-11.4308
▁ઢાંકેલી	-11.4309
▁લંબાયેલ	-11.4314
▁લહેરાવતા	-11.4316
▁ગાડા	-11.4319
▁કોથળા	-11.4322
▁સવારે	-11.4329
▁કરો	-11.4345
▁મૂવી	-11.4349
▁રાઉન્ડ	-11.4354
▁કોણી	-11.4364
▁ઉગ	-11.4364
▁નમેલ	-11.4369
▁ઓવરહે	-11.438
▁પબ	-11.4381
▁ડાન્સિંગ	-11.4384
▁ચામડીવાળ	-11.4404
▁વેકબોર્ડર	-11.4433
ચાર	-11.4434
▁ડાબો	-11.444
▁ટાયરમાં	-11.4446
તળ	-11.4446
▁પામ	-11.4452
▁પડોશમાં	-11.4456
▁સ્પર્શે	-11.4463
▁ગુફામાં	-11.4468
▁તેલ	-11.4477
▁બોર્ડર	-11.4482
▁ફેબ્રિક	-11.4504
▁શીખ	-11.4527
▁કર	-11.4548
▁એલ	-11.455
હેજ	-11.4553
▁વેલ્ડ	-11.457
ષ	-11.4573
▁છાંયડાવાળ	-11.4573
▁પડોશ	-11.4573
▁રેપિડ્સમાં	-11.4579
▁કામમાં	-11.4628
▁રૂ	-11.463
▁નાખત	-11.4644
▁બર્	-11.4653
ભર	-11.4654
▁અંધારાવાળ	-11.4659
▁ગિટારવાદકો	-11.4675
▁પોટ	-11.4675
▁ટબ	-11.4689
▁ડાય	-11.469
▁વાયોલિનવાદક	-11.4692
▁સળિય	-11.4697
▁હાજર	-11.4698
▁ટેકવી	-11.4698
હાઉસ	-11.4703
લાસો	-11.4703
▁મન	-11.4709
▁નાળ	-11.4711
▁આછ	-11.4718
▁બતાવત	-11.4727
ભર્ય	-11.4732
▁બંધાયેલ	-11.4741
▁નોટ	-11.4742
▁વગાડનાર	-11.4745
▁ખેડ	-11.4747
▁ચિંત	-11.475
▁હાથમોજા	-11.4753
▁સ્ટેટ	-11.4754
▁ચારે	-11.4754
▁ધનુષ	-11.4755
▁અગિયાર	-11.4755
▁અગ્રભાગમાં	-11.4755
▁આક્રમ	-11.4755
▁ઇટાલિયન	-11.4755
▁ઓબામા	-11.4755
▁કટોકટી	-11.4755
▁ક્વોડ	-11.4755
▁ખંજર	-11.4755
▁ખીલેલ	-11.4755
▁પ્રોફેસર	-11.4755
▁બખ્તર	-11.4755
▁બ્રાઉઝ	-11.4755
▁મહત્વપૂર્ણ	-11.4755
▁લિબર્ટી	-11.4755
▁સંદેશ	-11.4755
▁સોમ્બ્રેરો	-11.4755
▁સ્પાઇક	-11.4755
▁સ્લેબ	-11.4755
▁પારણામાં	-11.4755
▁રિસોર્ટ	-11.4755
▁વિઝર	-11.4755
▁વૉકિંગ	-11.4755
▁ઓવરકોટ	-11.4755
▁બ્રેસલેટ	-11.4755
▁ભોંયરા	-11.4755
▁લીફ	-11.4755
▁વિસ્ત	-11.4755
▁સળગાવી	-11.4756
▁હોટેલ	-11.4756
▁ઇનામ	-11.4756
▁જેંગા	-11.4756
▁કેબિનેટ	-11.4756
▁કોરિય	-11.4756
▁ધમા	-11.4757
્તેજ	-11.4758
▁ડોટેડ	-11.476
▁રસોઈયો	-11.476
▁યુટ	-11.4761
▁ન્યૂઝ	-11.4761
▁ગૂંથેલ	-11.4762
▁ખેતી	-11.4765
▁ઉદ્યોગપતિઓ	-11.4767
▁રિંગ્સ	-11.4767
▁પોર્ટ	-11.4767
▁પેસ્ટ	-11.4769
▁ઇલેક્ટ્રોનિક્સ	-11.4771
▁ઉછળતા	-11.4776
▁ખવડાવવા	-11.4785
ટન	-11.4788
▁વન	-11.4789
▁હિટ	-11.4791
▁પંક	-11.4792
ળી	-11.4797
▁સરકતો	-11.4798
▁વિન્ડો	-11.48
▁ટેટૂઝ	-11.4801
▁શેકેલ	-11.4802
વાઈ	-11.4822
▁બેકરીમાં	-11.4825
▁એલીમાં	-11.4854
8	-11.4856
▁સ્ટ્ર	-11.486
ેશનમાં	-11.4874
▁ટ્રેનર	-11.4878
▁ટ્યુબમાં	-11.4891
▁લિ	-11.4893
▁ઉડાવી	-11.4895
▁લડાઈમાં	-11.4903
▁સ્થાપ	-11.4915
▁નાતાલના	-11.4916
▁ટ્રીટ	-11.495
▁લંબાવે	-11.4951
લાવે	-11.4951
ભરાઈ	-11.4959
▁લપેટાયેલા	-11.496
વોર્ડ	-11.4962
▁કાર્યો	-11.497
▁અડ	-11.4975
▁છિદ્રમાં	-11.498
મેલ	-11.4982
▁માળ	-11.4993
્ધ	-11.5
▁પુસ્તકમાં	-11.5025
જન	-11.5026
▁સ્પીડો	-11.5028
▁તસવીરો	-11.5046
▁કુંડ	-11.5048
જ્	-11.5056
ાતી	-11.507
▁છદ્માવરણમાં	-11.5084
▁કાટવાળ	-11.5088
▁અંદરથી	-11.509
▁ડિફેન્ડર	-11.5095
▁હલાવત	-11.51
▁કાર્યકરો	-11.5113
▁શ્ર	-11.512
બળ	-11.5127
▁થાળીમાં	-11.5134
્ટન	-11.5134
▁રણની	-11.516
▁ફ્લ	-11.5162
▁ધૂળવાળ	-11.5164
▁અરીસ	-11.5182
ેન્સ	-11.519
ફ્રન્ટ	-11.5202
▁નકલ	-11.5202
બેલ	-11.5203
▁નાનકડ	-11.5205
વાદ	-11.5209
▁માંગત	-11.5224
▁2116	-11.5248
▁ક્યાં	-11.525
▁રેપિડ	-11.5251
▁ગર્લ	-11.5251
્સ્ટ	-11.5251
▁બ્રો	-11.5253
ખરેખ	-11.5255
▁ટ્રોમ્બોન	-11.5255
▁તાડપત્રી	-11.5255
▁નીકળવા	-11.5255
▁હરિયાળી	-11.5255
▁કન્સેશન	-11.5255
▁ગપસપ	-11.5255
▁ગર્લફ્રેન્ડ	-11.5255
▁ગ્રાન્ડ	-11.5255
▁ચપળતા	-11.5255
▁ટોઇલેટ	-11.5255
▁ડુંગળી	-11.5255
▁ડોબરમેન	-11.5255
▁દટાયેલ	-11.5255
▁દીધો	-11.5255
▁નહાવા	-11.5255
▁નારિયેળ	-11.5255
▁પોપકોર્ન	-11.5255
▁પ્રહાર	-11.5255
▁બિલિયર્ડ	-11.5255
▁મોનોપોલી	-11.5255
▁રોજિંદ	-11.5255
▁વિષય	-11.5255
▁સેગવે	-11.5255
▁સ્ટીયર	-11.5255
▁ભાત	-11.5255
▁મુકાબલ	-11.5255
▁મેડલ	-11.5255
▁સ્ટીમ	-11.5255
▁આઇપોડ	-11.5255
▁ખીલી	-11.5255
▁ફાડી	-11.5255
▁મસ્તી	-11.5255
▁પાગલ	-11.5255
▁શક્તિ	-11.5255
▁ફાઇલ	-11.5255
▁ડિઝની	-11.5255
▁વિકૃત	-11.5255
▁ગર્ભ	-11.5255
▁પાઈપો	-11.5256
▁ફ્લાન	-11.5256
▁ટેક્સ્ટ	-11.5256
▁પસંદગી	-11.5256
▁સહભાગીઓ	-11.5256
▁સોલ્ડર	-11.5256
▁ટ્રાન્ઝિટ	-11.5257
▁મીટર	-11.526
▁એશિયાઈ	-11.526
▁કરનારાઓ	-11.526
▁ટેન્ટ	-11.526
▁ચિકિત્સક	-11.5261
▁લીસ	-11.5261
▁વોકર	-11.5262
▁પ્રતિક્રિયા	-11.5262
▁રોમ	-11.5263
▁શેડ્સ	-11.5264
▁ઇન્	-11.5265
▁રાઇડિંગ	-11.5266
▁ખાતરી	-11.5266
દા	-11.5277
▁ખરબચડા	-11.528
▁મિક	-11.5282
▁ભારતમાં	-11.5292
▁ફ્રન્ટ	-11.5309
▁બેઠક	-11.5311
▁ગૂંથી	-11.5312
▁સાદ	-11.5314
િલ	-11.5315
▁હલાવીને	-11.5315
▁હલાવતો	-11.5324
▁ગંદો	-11.5326
▁હૂપમાં	-11.5329
▁ઓશીકા	-11.5333
▁અથડાયા	-11.534
▁ચીનમાં	-11.5347
▁મીટમાં	-11.5349
▁સ્નોબોર્ડર્સ	-11.5349
▁કોતરેલ	-11.5372
▁લાસો	-11.5389
ફોન	-11.539
▁ચૂનાન	-11.5426
▁સર્જનો	-11.5446
▁રેપિડ્સ	-11.5449
▁દરવાજાવાળા	-11.5484
▁હાઉસમાં	-11.5518
▁ગયેલો	-11.5519
▁ગતિમાં	-11.5533
મફ	-11.5542
▁ટ્ર	-11.5544
▁ઊંટો	-11.5572
▁તારાઓ	-11.5586
▁માત્ર	-11.5629
▁કિનાર	-11.5632
▁પેચ	-11.5639
▁શાવર	-11.5643
ાહ	-11.5644
▁ગૂંથ	-11.5653
ગત	-11.5657
▁એરિયા	-11.5659
▁ફીણ	-11.566
▁ઈંડ	-11.5669
85	-11.5674
▁સુપરમાર્કેટ	-11.5677
▁પાઠ	-11.5685
▁મોટરસાયકલો	-11.569
▁છાતીવાળ	-11.5691
▁કેળ	-11.5696
▁ખંડેર	-11.5718
▁વસ્ત્ર	-11.572
▁બેરલમાં	-11.572
▁ગાર્ડન	-11.5723
▁ગ્રેફિટ	-11.5724
▁પર્સમાં	-11.5729
▁સંખ્યા	-11.573
▁જમીનમાંથી	-11.5737
""	-11.5738
▁દોરત	-11.5738
▁ઈશારા	-11.5752
નશા	-11.5752
▁ડર	-11.5756
▁કચડ	-11.577
િઓન	-11.577
▁કાંટાવાળ	-11.5774
▁સેન્ડ	-11.5778
▁વણ	-11.578
▁વિડિ	-11.5781
▁પ્રતિભા	-11.5781
▁ઇયર	-11.5781
▁ફાર્મ	-11.5781
▁ઝોમ્બ	-11.5782
▁ઓક્લાહોમા	-11.5782
▁કાયદા	-11.5782
▁ગોંડોલા	-11.5782
▁ઘોડી	-11.5782
▁છાંટે	-11.5782
▁દોડધામ	-11.5782
▁પેરાસેઇલ	-11.5782
▁પોપ્સિકલ	-11.5782
▁પ્રસંગ	-11.5782
▁બકેટ	-11.5782
▁મલ્ટી	-11.5782
▁મિનિવાન	-11.5782
▁મોન્સ્ટર	-11.5782
▁રાજકુમારી	-11.5782
▁લઘુચિત્ર	-11.5782
▁લડવૈયાઓ	-11.5782
▁વર્લ્ડ	-11.5782
▁વિજેતા	-11.5782
▁સુથાર	-11.5782
▁સૈન્ય	-11.5782
▁હુલ્લડ	-11.5782
▁હોલ્ટર	-11.5782
▁મફત	-11.5782
▁અલ્ટીમ	-11.5782
▁સિંક્રનાઇઝ	-11.5782
▁સ્કેચ	-11.5782
▁ફૂલદાની	-11.5782
▁સીસો	-11.5782
▁ચંદ્ર	-11.5782
▁બોસ્ટન	-11.5782
▁પિગ	-11.5782
▁લાવવા	-11.5782
▁સ્વિમવેર	-11.5782
▁સ્નોબોલ	-11.5782
દાયક	-11.5782
▁સ્ટારબક્સ	-11.5783
▁ઝૂલતું	-11.5783
▁લામા	-11.5783
▁ઓર્ગન	-11.5783
▁ઠંડક	-11.5783
▁ઉગ્ર	-11.5783
▁વર્તન	-11.5783
▁ટ્યુનિક	-11.5783
▁હેલો	-11.5785
▁સ્કોર	-11.5786
▁રાંધવા	-11.5786
▁બંડલ	-11.5789
▁મરઘીઓ	-11.579
▁અંગ્રેજી	-11.5793
▁રેખાઓ	-11.5794
▁ઢીંગલીઓ	-11.5798
▁વાળેલો	-11.58
▁ચૂંટે	-11.5801
વિધ	-11.5802
▁એરેનામાં	-11.5815
▁બારીઓવાળી	-11.5819
▁ચહેરાવાળો	-11.5826
▁દોરતા	-11.5834
▁ફેરવત	-11.5835
▁ખોદે	-11.5848
શિયન	-11.5855
ાવવા	-11.589
▁કબ્રસ્તાનમાં	-11.5891
▁બહેનો	-11.5897
▁બત્તી	-11.5901
્વિન	-11.5906
▁પદાર્થો	-11.5908
▁કોલા	-11.5911
▁સ્ટેન	-11.592
▁પોની	-11.5966
▁વિન્ડસર્ફર	-11.5976
શો	-11.5989
▁વહેલ	-11.6005
▁લોકર	-11.6014
▁કાનવાળ	-11.6015
▁કેન્દ્રમાં	-11.6017
▁વાટકા	-11.6029
િફ	-11.6037
▁લણ	-11.6061
મેટ	-11.6069
હેલ	-11.6077
▁બતકો	-11.6087
▁ગરમીન	-11.609
▁ઘડિયાળો	-11.6112
▁ભૂગર્ભમાં	-11.6114
▁રા	-11.6131
▁કરાવેલ	-11.6147
▁ક્રે	-11.6161
▁માળખામાં	-11.6169
લ્સ	-11.6217
ર્ન	-11.622
▁પિત્તળ	-11.622
▁ટીન	-11.622
▁કૂદ	-11.6257
▁પ્રતીક	-11.6272
▁ગોળી	-11.6275
▁પૌત્ર	-11.6277
▁શિકાર	-11.6279
▁તોડ	-11.6281
▁ધોત	-11.6284
વાદળી	-11.6286
▁મોજ	-11.6287
▁બેકપેકમાં	-11.6291
▁જીન	-11.631
▁દિનચર્યા	-11.6322
▁લૂછ	-11.6336
લ્મોન	-11.6337
▁આકાશરેખા	-11.6337
▁આફ્રિકા	-11.6337
▁ઇનરટ્યુબ	-11.6337
▁એસેમ્બલ	-11.6337
▁કાખઘોડી	-11.6337
▁કાર્યસ્થળ	-11.6337
▁કોંક્રીટ	-11.6337
▁ટર્ટલનેક	-11.6337
▁ડાઉનટાઉન	-11.6337
▁દીધી	-11.6337
▁નિદ્રા	-11.6337
▁નૌકાદળ	-11.6337
▁પેઇન્ટબ્રશ	-11.6337
▁પોકેમોન	-11.6337
▁પ્રેટ્ઝેલ	-11.6337
▁બ્રાઝિલ	-11.6337
▁મરજીવો	-11.6337
▁મેસેન્જર	-11.6337
▁લવંડર	-11.6337
▁લીધેલ	-11.6337
▁શિક્ષિકા	-11.6337
▁સાઉન્ડ	-11.6337
▁સિએટલ	-11.6337
▁સિગ્નલ	-11.6337
▁સૂટકેસ	-11.6337
▁વેકેશન	-11.6337
▁રિમોટ	-11.6337
▁પડતો	-11.6337
▁સ્પાઇડરમેન	-11.6337
▁વોશિંગ્ટન	-11.6337
▁એડિ	-11.6337
▁ઘટકો	-11.6337
▁વેફલ	-11.6337
▁હિપ્પી	-11.6338
▁વ્હાઇટબોર્ડ	-11.6338
▁ગંતવ્ય	-11.6338
▁સરખા	-11.6338
▁સિન્ડર	-11.6338
▁સુનર્સ	-11.6338
▁નાચતું	-11.6339
▁અથડાવ	-11.6339
▁આકર્ષણ	-11.6339
ૉપ	-11.634
▁સંસ્કૃતિ	-11.6342
▁નેતા	-11.6343
▁શાર	-11.6345
▁મીઠાઈઓ	-11.6349
▁કાયકર્સ	-11.6349
▁બાથ	-11.6353
▁બકરીઓ	-11.6356
▁પોલ્સ	-11.636
▁ટર્મિનલમાં	-11.6361
▁મરીના	-11.6363
▁શક્ય	-11.6363
▁ચીંથરા	-11.6365
▁ખાબોચિયા	-11.6372
▁સિલ	-11.6375
▁યાદી	-11.6376
▁વર્ણ	-11.6378
ંટાળા	-11.6384
▁લડવા	-11.6386
▁દોરીઓ	-11.6387
ોંગો	-11.6387
▁ટેટૂવાળ	-11.6389
▁અજાણ્યા	-11.6394
▁નાનકડા	-11.6394
▁ઓલી	-11.6395
ન્ક	-11.6396
▁અમે	-11.6399
▁હાર્નેસમાં	-11.6401
▁તમા	-11.6404
▁સ્લ	-11.6409
▁મોઢા	-11.6415
▁સ્થાને	-11.6419
▁તળ	-11.645
▁લૉનમાં	-11.6451
▁માછલીઘરમાં	-11.6462
▁શણગારે	-11.6463
▁બેકર	-11.6493
▁તપેલીમાં	-11.6493
▁એવો	-11.6507
બલ	-11.6515
▁પ્રેક્ષકોમાં	-11.6521
ત્ત	-11.6522
લિ	-11.6528
▁જોવ	-11.6535
▁જોઈએ	-11.6541
▁વાવે	-11.6581
▁10	-11.6583
▁હોડીઓમાં	-11.6588
▁બધું	-11.6589
▁જાગ	-11.6644
▁કોર્સમાં	-11.6673
ચર	-11.6675
▁બોલતા	-11.6687
▁છોડવા	-11.671
▁મંદિરમાં	-11.6711
▁કાપ	-11.6746
ઠ	-11.6749
▁ઉતારે	-11.6753
▁દીવ	-11.6772
▁જામ	-11.6785
▁કૂચડ	-11.6807
▁માછલીઘર	-11.6807
▁ગુમાવ	-11.6822
▁હથિયાર	-11.6861
▁ખેંચત	-11.6866
ટીવી	-11.6871
▁મુંડાવે	-11.6872
વિચ	-11.6874
શૈલી	-11.6874
અલગ	-11.6874
▁કોળ	-11.6877
30	-11.688
▁દા	-11.6889
ઓવર	-11.6893
સ્કરા	-11.6895
િયર	-11.6897
ટ્રે	-11.6899
▁ડ્ર	-11.6903
▁અટકાવ	-11.691
▁ડેંડિલિઅન	-11.6921
▁આંતર	-11.6924
▁સોફ્ટ	-11.6925
▁જાદુ	-11.6925
▁ડમ્પ	-11.6925
▁કન્સ્ટ્રક્	-11.6925
▁અસ્વસ્થ	-11.6925
▁ઉતર્ય	-11.6925
▁કબાબ	-11.6925
▁કવાયત	-11.6925
▁કિરણો	-11.6925
▁કેલિફોર્નિયા	-11.6925
▁કોકટેલ	-11.6925
▁ગર્જના	-11.6925
▁ઘૂંટી	-11.6925
▁છુપાઈ	-11.6925
▁જેકહેમર	-11.6925
▁ટ્વિસ્ટર	-11.6925
▁ડુંગર	-11.6925
▁ત્રિપુટી	-11.6925
▁નીંદણ	-11.6925
▁પીરિયડ	-11.6925
▁બીગલ	-11.6925
▁મારિયાચી	-11.6925
▁લુહાર	-11.6925
▁વાંચવા	-11.6925
▁શ્રોતાઓ	-11.6925
▁સન્ડ્રેસ	-11.6925
▁સ્પાન્ડેક્સ	-11.6925
▁હિંચકા	-11.6925
▁હોપસ્કોચ	-11.6925
▁ઉદઘાટન	-11.6925
▁કન્વર્ટિબલ	-11.6925
▁પોંચો	-11.6925
▁બદામ	-11.6925
▁બેકહો	-11.6925
▁વિધિ	-11.6925
▁જ્વલ	-11.6925
▁મથક	-11.6925
▁ન્યૂઝસ્ટેન્ડ	-11.6926
▁પોમ્પોમ	-11.6926
▁ઘંટડી	-11.6926
▁જ્વેલરી	-11.6926
▁ઓળખ	-11.6926
▁મહાન	-11.6926
▁પુન	-11.6926
▁વરાળ	-11.6926
▁આશા	-11.6926
▁ખંજવાળતો	-11.6926
▁બળે	-11.6926
▁ડોજ	-11.6927
▁લિટલ	-11.6927
▁પતંગિયું	-11.6927
ટણી	-11.6928
શાળ	-11.6929
▁રોમાંચ	-11.6932
▁દળ	-11.6932
▁સૂચનાઓ	-11.6933
ર્જન	-11.6934
▁બેકડ	-11.6934
▁ધૂંધળા	-11.6939
▁રોકેટ	-11.694
▁પીડા	-11.6944
▁ફોર્ડ	-11.6946
▁ગ્લાઈડર	-11.6946
સ્કી	-11.6953
▁ઢાંકત	-11.6956
▁બનવા	-11.6957
▁ચેર	-11.6959
ોકર	-11.6964
રિશ	-11.6967
▁ધકેલવા	-11.6973
▁શાળાએ	-11.6975
▁ફુવારાઓ	-11.6976
▁માથાવાળો	-11.6986
▁ખેંચતો	-11.699
▁રોશની	-11.6994
▁પાંખ	-11.6999
▁દરિયાકિનારા	-11.7005
▁મારા	-11.7006
▁પહોંચત	-11.7007
▁માપી	-11.7018
▁હેરસ્ટાઇલ	-11.7026
▁ડોલર	-11.7037
▁ટ્રેનો	-11.7039
▁ક્યુબિકલમાં	-11.7048
▁પેનમાં	-11.705
▁દોડત	-11.7054
▁કેમ્પસમાં	-11.7062
▁છુપાયેલો	-11.7068
▁બાજુઓ	-11.7069
▁ગુસ્સા	-11.7081
▁શિલ્પો	-11.7089
▁નોંધો	-11.7095
▁માંગી	-11.7101
દમ	-11.7105
રબ	-11.7129
▁કાટ	-11.7134
▁માળની	-11.7149
▁સુવિધામાં	-11.717
▁શિંગડાવાળ	-11.7173
▁માસ	-11.7179
હ્ય	-11.7186
▁કાર્	-11.7196
▁રેપ	-11.7199
▁બ્રેકડાન્સર	-11.72
લાઇન	-11.7218
▁ભેળવ	-11.7277
▁નેટમાં	-11.7293
▁ગુફા	-11.7294
▁બાંધ	-11.7347
ોર્ટ	-11.7365
હેડ	-11.7369
▁ફરત	-11.7373
▁આથમ	-11.7388
▁શેક	-11.7396
કમ	-11.7398
શોર	-11.7399
ક્ર	-11.7409
▁રાખ	-11.744
▁ગા	-11.7448
▁રજાઇ	-11.7459
▁બિ	-11.7489
▁બુ	-11.7489
▁આર્મ	-11.7493
ૃહ	-11.7497
બોક્સ	-11.7499
પસંદ	-11.7499
ચોરસ	-11.7499
▁પિક	-11.75
▁ચિત્ત	-11.7501
▁જિમ્નેશિયમ	-11.7501
▁મેળાવડા	-11.7502
▁ગોઠવાયેલ	-11.7506
નીચે	-11.7506
▁રંગે	-11.7509
▁બસો	-11.7514
▁લહેરાવત	-11.7519
▁ટોટ	-11.7523
▁સ્ટોક	-11.7542
બાર	-11.7545
▁કંઈ	-11.7545
▁નીકળતા	-11.7547
▁ચાખ	-11.7548
સ્થ	-11.755
▁આશ્રય	-11.755
▁કન્વેયર	-11.755
▁કિચનએઇડ	-11.755
▁ગરુડ	-11.755
▁ગ્રાફિક	-11.755
▁ચંપલ	-11.755
▁ઝેબ્રા	-11.755
▁ટાર્ગેટ	-11.755
▁તીરંદાજ	-11.755
▁નવીનીકરણ	-11.755
▁નિત્યક્રમ	-11.755
▁નેવિગેટ	-11.755
▁પશ્ચિમ	-11.755
▁પેદાશો	-11.755
▁બચ્ચું	-11.755
▁બ્લોટોર્ચ	-11.755
▁લીધો	-11.755
▁સિલિન્ડર	-11.755
▁સ્નાતક	-11.755
▁અંડર	-11.755
▁ગાજર	-11.755
▁ગોરિલા	-11.755
▁ડીયર	-11.755
▁ફ્રાન્સ	-11.755
▁લખવા	-11.755
▁સાઈકલ	-11.755
▁કૂકડ	-11.755
▁ફ્લેશલાઇટ	-11.755
▁ઉડવા	-11.755
▁પાવરપોઇન્ટ	-11.755
▁પડકાર	-11.7551
તુમાં	-11.7551
▁મુલાકાતીઓ	-11.7551
▁સુપર	-11.7551
▁એરલાઇન	-11.7551
▁મારતું	-11.7551
▁પીઝા	-11.7551
▁સૂતેલું	-11.7551
શાસ્ત્ર	-11.7551
▁ફ્લેટ	-11.7551
▁કાંસાન	-11.7551
▁સોલો	-11.7552
▁ફેચ	-11.7552
▁બુશ	-11.7552
▁સાર્વ	-11.7552
▁લંબાઈ	-11.7552
▁કાસ્ટ	-11.7552
▁ત્રિ	-11.7552
▁જંતુ	-11.7553
▁ડોનટ્સ	-11.7553
▁પ્રદર્શનકારીઓ	-11.7554
▁યોજા	-11.7556
▁માથામાં	-11.7557
▁રેશમ	-11.7557
ડોટ	-11.7558
▁બોટમ્સ	-11.7559
▁બ્રાન્ડ	-11.756
▁ચાવીઓ	-11.756
▁તર	-11.756
▁જગલ	-11.7564
▁બાજ	-11.7564
▁ઇઝરાયલ	-11.7564
▁કોરિડોર	-11.7567
▁બુરખા	-11.7569
▁હીરો	-11.7569
▁કેપ્ર	-11.7572
▁હાલ	-11.7576
▁ભટકતા	-11.7579
▁લપેટેલ	-11.7579
▁દોરા	-11.7583
▁અખાડામાં	-11.7585
▁તૂટી	-11.7587
▁વાટકીમાં	-11.7588
આત	-11.759
▁M	-11.7592
▁ફોડી	-11.7592
▁પકડાયેલ	-11.76
▁પથરાયેલા	-11.7601
▁ધર	-11.761
▁ખોદત	-11.7616
▁ટાંકીમાં	-11.7623
▁ડરી	-11.7624
▁દોરતો	-11.7627
લાપ	-11.7634
▁નાખતો	-11.7636
▁સ્	-11.7639
▁પેકેજો	-11.7644
▁ગાદીવાળા	-11.7648
▁હૂપિંગ	-11.7651
મર	-11.7651
▁ગડ	-11.7661
▁વહે	-11.7665
▁સરખાવ	-11.767
▁લેન્ડ	-11.7692
▁શાવરમાં	-11.7718
▁ઓલ	-11.7721
▁રચનામાં	-11.7724
▁સંકેતો	-11.7731
▁રડતો	-11.7738
▁બેકપેકર	-11.7745
નાઇટ	-11.7746
▁વોલમાર્ટમાં	-11.7747
ાત્રામાં	-11.7757
▁ટોક	-11.7796
▁ગોઠવ	-11.7799
▁ફૂંકત	-11.7799
▁માલિકો	-11.7803
બ્	-11.7848
રૂપ	-11.7853
વાય	-11.7882
▁સૂ	-11.7883
▁બટનો	-11.7905
ચાઈ	-11.7906
ેસ્ટ	-11.7908
ષણ	-11.7916
ચણ	-11.7919
ૃ	-11.7926
▁મુક્કા	-11.7938
▁બેટર	-11.7942
▁શણગારેલો	-11.7952
▁ચરાવ	-11.7968
િસ્ટર	-11.7977
▁ટેકવેલ	-11.7991
લ્ટ	-11.8003
▁એપાર્ટમેન્ટમાં	-11.8025
▁સળગ	-11.8033
રોન	-11.8039
▁ક્રિયા	-11.804
▁હળ	-11.8045
▁વાટકામાં	-11.8046
▁હિ	-11.8046
▁દુલ્હનના	-11.805
▁મીટ	-11.8079
▁ઉદ્યાન	-11.8084
પેટ	-11.8092
▁લેગ	-11.8093
▁પાત્રમાં	-11.81
ફેલ	-11.8125
▁ભઠ્ઠીમાં	-11.8128
▁સિ	-11.8133
▁સઢ	-11.8138
▁વિન્ડ	-11.8139
▁કુ	-11.8145
▁પંખ	-11.8147
▁પીરોજ	-11.8159
▁ભારત	-11.8167
▁ખેંચાય	-11.8177
▁જોડાય	-11.8178
▁ફ્લાય	-11.8211
▁ખુલ	-11.8215
▁ધ્રુજ	-11.8216
▁સ્માર્ટ	-11.8217
▁માઉન્ટ	-11.8217
▁આતુર	-11.8217
▁ઉતરાણ	-11.8217
▁એસયુવી	-11.8217
▁કિમોનો	-11.8217
▁ક્લિપબોર્ડ	-11.8217
▁ગરોળી	-11.8217
▁ગ્રાસ	-11.8217
▁ઝુંપડી	-11.8217
▁ટાઇપરાઇટર	-11.8217
▁દફનાવ	-11.8217
▁દેખીત	-11.8217
▁નિન્ટેન્ડો	-11.8217
▁નીકળ્યા	-11.8217
▁પપ્પા	-11.8217
▁પરિપક્વ	-11.8217
▁પાંખડીઓ	-11.8217
▁પૂજા	-11.8217
▁પ્રત્યે	-11.8217
▁પ્રોફાઇલ	-11.8217
▁બટરફ્લાય	-11.8217
▁ભવિષ્ય	-11.8217
▁ભીંજા	-11.8217
▁માલસામાન	-11.8217
▁યાર્ન	-11.8217
▁રામરામ	-11.8217
▁વાસ્તવ	-11.8217
▁વ્યાયામશાળામાં	-11.8217
▁શસ્ત્રક્રિયા	-11.8217
▁શિકાગો	-11.8217
▁સંપર્ક	-11.8217
▁સ્ત્રોત	-11.8217
▁સ્પેટુલા	-11.8217
▁સ્લેક્સ	-11.8217
▁હેતુ	-11.8217
▁જોયું	-11.8217
▁શાહી	-11.8217
▁સ્લિપ	-11.8217
▁હાસ્ય	-11.8217
▁ટ્રામ	-11.8217
▁પાર્લર	-11.8217
▁સ્પેસ	-11.8217
▁મંડળ	-11.8217
▁લીલોતરી	-11.8217
▁પિનસ્ટ્રાઇપ	-11.8217
▁સિવાય	-11.8217
▁ફોમ	-11.8217
▁યુનિયન	-11.8217
▁સાવધાની	-11.8217
▁ચાવવા	-11.8218
▁કોર્ડ	-11.8218
▁યાન્કીઝ	-11.8218
▁હસ્કી	-11.8218
છલાંગ	-11.8218
વુડ	-11.8219
ાનદાર	-11.8219
▁લેવાયેલ	-11.822
▁પ્રતિ	-11.822
▁ટોય	-11.822
▁ટકરા	-11.822
ન્જ	-11.822
▁સીવીડ	-11.8221
▁એડી	-11.8221
▁શિલ્પકાર	-11.8222
ાંકી	-11.8223
▁રેપર	-11.8223
▁ધરણાંન	-11.8225
રોલ	-11.8225
▁સિંગલ	-11.8226
▁ટુર	-11.8226
▁નરમ	-11.8228
▁સીલ	-11.8228
▁એરણ	-11.8229
▁સહાયક	-11.8229
▁ઈસુ	-11.823
▁પૂડલ્સ	-11.8231
▁મીઠ	-11.8235
▁એકાંત	-11.8236
▁તપાસવા	-11.8238
ચો	-11.8243
િટી	-11.8247
▁ટેબ	-11.8248
ત્ર	-11.8248
પોલિટ	-11.825
▁પ્રોપ	-11.8253
▁જીતવા	-11.8254
▁જાળવવા	-11.8255
▁ઢાંકેલો	-11.8262
▁મુશ્કેલી	-11.8273
▁ખેંચતા	-11.8274
▁અંગે	-11.8279
▁ચાર્ટ	-11.8281
▁પ્યુ	-11.8284
▁અવકાશમાં	-11.8285
લિત	-11.8295
▁સ્ટીકર	-11.8295
▁રેન્જમાં	-11.8296
▁ચૂકવ	-11.8296
▁પડાવત	-11.83
▁થો	-11.8301
રાષ્ટ્રીય	-11.8304
▁પ્રતીકો	-11.8312
▁નિહાળવા	-11.832
▁ટોપીઓમાં	-11.8328
▁નાળા	-11.8336
▁પહાડી	-11.8343
િપ્સ	-11.835
▁ઈમારતો	-11.8353
▁ગ્રેટ	-11.8367
▁મોર	-11.8372
ાનિકો	-11.838
▁આવરણ	-11.8396
▁મેક	-11.8397
▁ચહેરાઓ	-11.8398
▁ગોઠવત	-11.8401
▁પલટાવ	-11.8407
▁છત્રછાયા	-11.8444
▁બાઈન્ડર	-11.8454
▁અનુભવી	-11.846
કારી	-11.8481
▁લાંબુ	-11.8484
▁અલ	-11.8493
▁20	-11.8502
▁રોબોટમાં	-11.8539
▁પાન	-11.856
▁ખસેડ	-11.8573
▁બંદરમાં	-11.8584
▁ઉછાળવા	-11.8601
▁ખા	-11.8618
▁ટેકા	-11.8624
▁મિલ	-11.8629
રંગ	-11.8681
અર	-11.8722
▁વિક	-11.8725
▁ગુ	-11.8761
▁કમાનવાળ	-11.8762
▁ટિપ્	-11.8764
▁વળ	-11.8767
▁સોનામાં	-11.8772
▁માથાવાળા	-11.8777
▁એમ	-11.8787
રિટ	-11.8801
ેન્ડમ	-11.8827
▁કિ	-11.883
▁પુસ્તકાલય	-11.8837
▁ભમર	-11.8853
▁સાન	-11.8865
▁મજૂર	-11.8866
હૂપ	-11.8867
16	-11.887
▁ટપાલ	-11.8871
▁મુશ્કેલ	-11.8872
પકડ	-11.8878
વર્ણ	-11.888
બહાર	-11.888
▁પકડાય	-11.8881
▁વેન	-11.8889
સેટ	-11.8905
▁લહેરાત	-11.8912
▁ખાણ	-11.8918
▁પ્લાન્ટ	-11.8926
▁ટ્યુન	-11.8929
▁ધૂ	-11.893
▁વ્યાવસાયિકો	-11.8931
મોબાઈલ	-11.8931
▁છાંય	-11.8931
▁ઉજવ	-11.8931
▁સેઇલ	-11.8931
▁મૈત્ર	-11.8931
▁અર્ધવર્તુળ	-11.8931
▁ઉડાડવા	-11.8931
▁પૃથ્વી	-11.8931
▁મશરૂમ	-11.8931
ંઘા	-11.8931
▁અથડાતા	-11.8931
▁અવગણ	-11.8931
▁કુંભાર	-11.8931
▁ખિસકોલી	-11.8931
▁ગુચ્છો	-11.8931
▁ગ્લેશિયર	-11.8931
▁ડંડા	-11.8931
▁ડ્રોઅર	-11.8931
▁દીધું	-11.8931
▁પરિસ્થિતિ	-11.8931
▁પ્રસ્તુતિ	-11.8931
▁બલ્બ	-11.8931
▁બાથરોબ	-11.8931
▁બેઇજિંગ	-11.8931
▁મધમાખી	-11.8931
▁લંગર	-11.8931
▁લાગણી	-11.8931
▁લીધા	-11.8931
▁લોકોમોટિવ	-11.8931
▁વિકલાંગ	-11.8931
▁સ્મોક	-11.8931
▁હિજાબ	-11.8931
▁કોમ્પ્લેક્સ	-11.8931
▁ગોદામ	-11.8931
▁ચોરી	-11.8931
▁નિર્માણ	-11.8931
▁પેટ્રિક	-11.8931
▁સુશી	-11.8931
▁2008	-11.8931
▁ડોર્મ	-11.8931
▁ડ્રીલ	-11.8931
▁211552	-11.8931
▁પાકીટ	-11.8931
▁ફ્લેગ	-11.8932
▁હાઇડ્રન્ટ	-11.8932
▁ઝૂમ	-11.8932
▁સ્પાઈડરમેન	-11.8932
▁નવડાવ	-11.8932
▁પ્રભાવ	-11.8932
▁ચોળ	-11.8932
▁દેશભક્તિ	-11.8932
▁ઇયરબડ	-11.8932
્યુલર	-11.8932
▁વિચારશીલ	-11.8932
▁સ્ટોપલાઇટ	-11.8932
▁મેલેટ	-11.8932
▁ફેલાવે	-11.8932
▁મુકેલ	-11.8932
▁ટેકનિક	-11.8932
▁નવદંપતીઓ	-11.8932
▁ક્રેશ	-11.8933
▁રિપોર્ટર	-11.8933
▁ફ્લાયર	-11.8933
▁ખંત	-11.8933
▁ફ્લેમ	-11.8934
▁સ્ટોન	-11.8934
▁આલ્કોહોલ	-11.8934
▁ગોથ	-11.8934
▁ડીશ	-11.8934
્પેક્ટ	-11.8934
▁ક્રોક	-11.8935
▁પરફોર્મન્સ	-11.8936
▁તાલ	-11.8936
▁હાથીઓ	-11.8936
▁મતદા	-11.8936
▁પકડ્ય	-11.8937
▁યોજાય	-11.8937
▁જોગર્સ	-11.8937
▁વિભાજ	-11.8937
▁નમૂનાઓ	-11.8938
ખ્યાત	-11.8938
▁સરકાર	-11.894
▁કૂવા	-11.8941
▁રાઇડર્સ	-11.8943
▁સંશોધક	-11.8945
▁મેકર	-11.8948
▁રચનાઓ	-11.8949
▁ફિશ	-11.895
▁લાઇબ્રેરીન	-11.895
▁રોલરસ્કેટર	-11.8952
▁ટેક્સીઓ	-11.8954
▁ઓરેન્	-11.8958
▁ડેમ	-11.8958
▁કંટાળી	-11.896
▁હથોડા	-11.8968
▁પ્રશ્નો	-11.8972
▁ઓફર	-11.8981
▁લંબાવતો	-11.8981
▁તડકાવાળી	-11.8994
સ્ટર	-11.9002
▁બંધાયેલા	-11.9011
▁નાટકમાં	-11.9011
▁ખંડેરો	-11.902
▁વીણત	-11.9021
00	-11.9022
બદ્ધ	-11.9027
▁જંગલો	-11.9028
▁હૉલવેમાં	-11.9039
▁વળેલો	-11.9045
▁પાંદડાવાળ	-11.9056
▁સરકત	-11.9064
▁યુગ	-11.9083
▁ઘોડેસવારો	-11.9083
થા	-11.9084
▁ફેંક્ય	-11.9084
▁ડાઘ	-11.9093
્વેટ	-11.9098
▁ચોથ	-11.9113
▁ઓવનમાં	-11.9127
▁દર્શાવતી	-11.913
▁આમ	-11.9145
▁કરાવવા	-11.9171
▁શરીરમાં	-11.9187
નારાઓ	-11.9195
▁શેકત	-11.9205
▁છાપરા	-11.9206
▁ચૂ	-11.9226
▁સ્કિ	-11.9242
▁ટ્રીમ	-11.9244
ઉં	-11.9257
▁જાળવ	-11.9277
▁ધુમ્મસમાં	-11.9284
60	-11.9285
▁સીટો	-11.9289
મસ	-11.9293
▁ડિઝાઇનવાળ	-11.9305
▁બુફેમાં	-11.9337
ુત	-11.9351
દાન	-11.9369
▁ઝોનમાં	-11.9378
▁ભીડભાડ	-11.9395
▁સજાવ	-11.941
▁વહેંચ	-11.942
▁સાંકળો	-11.9427
▁બ્લીચર્સમાં	-11.9431
▁પગવાળ	-11.9432
▁વોલમાર્ટ	-11.9462
▁ખેતરો	-11.9473
થર	-11.9479
ટો	-11.9479
▁નિશાનો	-11.9505
▁વગાડવામાં	-11.9525
▁વોશ	-11.9554
▁રાખતો	-11.9573
▁પ્રો	-11.9573
▁ફફડાવ	-11.9579
▁ભૂખર	-11.9588
▁સૂક	-11.9591
▁રાષ્ટ્ર	-11.9601
6	-11.9619
▁બિન	-11.9628
▁ખંજવાળ	-11.9639
વ્હીલ	-11.9643
▁ગોઠવણ	-11.9644
પ્રિય	-11.9648
ફિલ	-11.9648
▁કેબિન	-11.965
▁પત્ર	-11.9652
▁સ્થિતિ	-11.9654
▁સમર	-11.9661
▁ટેટૂઝવાળ	-11.9664
▁લેસ	-11.9673
▁મેળવત	-11.9674
▁આંખોમાં	-11.9676
▁રાજ	-11.9678
▁મોંવાળ	-11.9684
▁ઓપરેટ	-11.9688
▁આકર્ષ	-11.9692
▁મનોરંજ	-11.9695
▁યોદ્ધા	-11.9697
▁જિમ્નેસ્ટિક	-11.9697
▁ગાંસડી	-11.9698
▁ટામેટા	-11.9698
▁કુશળ	-11.9699
▁છૂટાછ	-11.9701
▁ડિફેન્સ	-11.9701
દિગ્	-11.9701
▁અપેક્ષા	-11.9701
▁ઇન્ટરવ્યૂ	-11.9701
▁ઉછેર	-11.9701
▁એરિયલ	-11.9701
▁કળણવાળ	-11.9701
▁કાઢતી	-11.9701
▁કિંમત	-11.9701
▁કોમ્યુનિ	-11.9701
▁ચૂંટતા	-11.9701
▁ડંખ	-11.9701
▁ઢળી	-11.9701
▁ત્રપાઈ	-11.9701
▁ત્રિકોણ	-11.9701
▁દંડૂકો	-11.9701
▁દાદર	-11.9701
▁દ્રાક્ષ	-11.9701
▁નારાજ	-11.9701
▁નિતંબ	-11.9701
▁પુરાતત્વ	-11.9701
▁પેલિકન	-11.9701
▁પ્રગટાવી	-11.9701
▁પ્રગટાવે	-11.9701
▁પ્રોફેશનલ	-11.9701
▁ફૂટબ્રિજ	-11.9701
▁બીનબેગ	-11.9701
▁ભેખડ	-11.9701
▁મેક્સિકો	-11.9701
▁મેનેક્વિન	-11.9701
▁વાંદરો	-11.9701
▁વાવાઝોડા	-11.9701
▁વિક્ટોરિય	-11.9701
▁વિતરણ	-11.9701
▁વોટરક્રાફ્ટ	-11.9701
▁સમસ્યા	-11.9701
▁સર્પાકાર	-11.9701
▁સૂર્યમુખી	-11.9701
▁સૂર્યોદય	-11.9701
▁સ્કૂપ	-11.9701
▁સ્ટાયરોફોમ	-11.9701
▁સ્ટેથોસ્કોપ	-11.9701
▁સ્ફટિક	-11.9701
▁હથેળી	-11.9701
▁હલનચલન	-11.9701
▁હેરકટ	-11.9701
▁કામકાજ	-11.9701
▁બર્લિન	-11.9701
▁વાંકા	-11.9701
▁સલાહ	-11.9701
▁કાંસક	-11.9701
▁કારકુન	-11.9701
▁ઝંડ	-11.9701
▁બોનેટ	-11.9701
▁બીટર	-11.9701
▁સેમી	-11.9701
▁સગડ	-11.9701
▁જુઓ	-11.9701
▁મેનહોલ	-11.9701
▁ફેન્સર	-11.9701
▁ઉપલ	-11.9701
▁બાર્બી	-11.9701
▁કાંટો	-11.9701
▁કાર્ડિગન	-11.9701
ાસુ	-11.9701
▁કેનેડા	-11.9701
▁ગાંડ	-11.9701
▁મઝલ	-11.9701
▁કટઆઉટ	-11.9701
▁દૃ	-11.9701
▁એટલ	-11.9701
▁ભૌ	-11.9701
▁છાલ	-11.9701
▁યુનિટ	-11.9702
ાંકન	-11.9702
▁સીવે	-11.9703
▁ચીપ	-11.9703
▁ગુડ	-11.9703
▁પેઇન્ટબોલ	-11.9703
▁ગબડ	-11.9703
▁ગાંસડીઓ	-11.9704
▁ખેંચતાણ	-11.9704
▁કેપ્ટન	-11.9704
▁સમાજ	-11.9705
▁સ્ટોકિંગ	-11.9706
▁સ્પોટ	-11.9707
▁સ્ટેટ્સ	-11.9709
MA	-11.9709
▁ફુલ	-11.9709
▁એન્ટ	-11.971
▁પૈડાં	-11.971
▁પ્રવેશતા	-11.9713
▁શેલ	-11.9715
▁સાંભળતા	-11.9716
ઝૂ	-11.972
▁ફેંકાયેલ	-11.9722
▁છરીઓ	-11.9723
▁સ્વયંસેવકો	-11.9729
▁ઘોડેસવારી	-11.9732
▁ફૂંકાત	-11.9732
▁પહેરાવવા	-11.9732
▁ઓફિસર	-11.9737
▁વીસ	-11.9738
▁કિડ	-11.974
▁દિશાઓ	-11.974
▁બેકપેકર્સ	-11.9741
▁ઓલિમ્પિક્સમાં	-11.9743
પચી	-11.9745
▁ફેરી	-11.9745
▁સ્કેલ	-11.9746
▁ભેળવવા	-11.9748
▁પ્રિય	-11.9754
▁ન્યાયાધીશો	-11.9755
▁દર	-11.9757
ખાતું	-11.976
▁વણેલ	-11.9762
▁ઓલવ	-11.9767
ગૃહ	-11.9768
કરાઓ	-11.9768
▁ફ્લી	-11.979
▁રાંધેલ	-11.98
▁ઝૂલવા	-11.9805
▁વેચાત	-11.9808
▁માતાઓ	-11.9816
▁ખવડાવત	-11.9816
▁ચર	-11.9821
▁નન	-11.9828
▁ધડ	-11.9831
▁મૂકત	-11.9843
▁ચોકી	-11.9854
▁આડી	-11.9861
▁રક્ષકો	-11.9864
▁આથમત	-11.9906
▁રોકર	-11.991
▁પ્લેપેનમાં	-11.9927
મેશ	-11.9957
ોમેન્ટ	-11.9959
▁ગરીબી	-11.997
▁ગુલદસ્તા	-11.9971
▁છતવાળા	-11.9972
▁લેપ	-11.9973
▁કહેત	-11.9997
ાબ	-12.0001
▁ગળી	-12.0006
▁બાર્	-12.0029
▁તળિયા	-12.0032
▁બ્રે	-12.0042
કડી	-12.0052
▁21164	-12.0078
▁સર	-12.0089
48	-12.0141
વિઝ	-12.0149
▁વધારત	-12.0187
સાય	-12.0188
56	-12.0193
▁શકત	-12.0199
▁લોન્ડ્રીમાં	-12.0202
▁જૂનું	-12.0205
▁વાયરો	-12.0239
▁તાળ	-12.0256
▁કોરલ	-12.0281
▁તરંગમાં	-12.0294
વતા	-12.0317
▁ગી	-12.0335
▁ધકેલ	-12.0346
▁બોર્ડિંગ	-12.0352
▁સ્લેજમાં	-12.0377
બોટ	-12.043
▁કરચલ	-12.0431
▁અક્ષર	-12.0471
▁ડ્રે	-12.0472
▁સલામ	-12.0472
▁પ્રેક્ષક	-12.0472
▁યાદ	-12.0475
▁સલામત	-12.0477
પ્લેન	-12.0482
▁લંબાય	-12.0483
▁પહેરવેશ	-12.0485
▁કેમેર	-12.0494
ગોળ	-12.0496
▁બેકરી	-12.0507
છમ	-12.0521
ાયેલી	-12.0524
▁ઝૂંપડા	-12.0525
માળી	-12.0525
▁ગ્રાઇન્ડ	-12.0528
▁બુઝાવ	-12.0528
▁સ્પીકર	-12.0529
▁ચિપ	-12.0529
▁લાઇફગાર્ડ	-12.0529
▁એક્રોબેટ	-12.0531
▁ઇસ્	-12.0532
▁કોસ્ટ	-12.0532
▁સ્નોશૂ	-12.0532
▁હરીફ	-12.0533
▁વ્હ	-12.0533
કર્તા	-12.0534
▁સ્પાઈડર	-12.0534
મૂર્ત	-12.0534
▁આયર્ન	-12.0534
▁ખાદ્યપદાર્થો	-12.0534
▁જુગાર	-12.0534
▁ઝપાઝપી	-12.0534
▁ટર્નટેબલ	-12.0534
▁ટેકનોલોજી	-12.0534
▁દાગીના	-12.0534
▁પાસ્તા	-12.0534
▁મરઘાં	-12.0534
▁મેઇલબોક્સ	-12.0534
▁યામાહા	-12.0534
▁વર્કબેન્ચ	-12.0534
▁સ્ટમ્પ	-12.0534
ૂતક	-12.0534
▁અણીદાર	-12.0534
▁આરોગ્ય	-12.0534
▁આલ્બમ	-12.0534
▁ઉડાડત	-12.0534
▁ઉત્સુક	-12.0534
▁એસ્ટ્રો	-12.0534
▁કિકબોક્સર	-12.0534
▁ક્રોશેટ	-12.0534
▁ખરીદતો	-12.0534
▁ગ્રિલ	-12.0534
▁ચરખા	-12.0534
▁છુપાવી	-12.0534
▁જ્યોત	-12.0534
▁ઝુલા	-12.0534
▁ડરામણ	-12.0534
▁થૂંક	-12.0534
▁નફરત	-12.0534
▁નાળિયેર	-12.0534
▁નોટપેડ	-12.0534
▁પીટબુલ	-12.0534
▁પ્લાયવુડ	-12.0534
▁બરછ	-12.0534
▁બરફવર્ષા	-12.0534
▁બિંદુ	-12.0534
▁બુકબેગ	-12.0534
▁મખમલ	-12.0534
▁મુઝ	-12.0534
▁વસાહત	-12.0534
▁વીંધેલ	-12.0534
▁વેગાસ	-12.0534
▁વોટરસ્કીયર	-12.0534
▁વ્યવસ્થા	-12.0534
▁શખ્સો	-12.0534
▁શુભેચ્છા	-12.0534
▁સરઘસ	-12.0534
▁સીમાચિહ્ન	-12.0534
▁સ્લીહ	-12.0534
▁હાડપિંજર	-12.0534
▁હોલીવુડ	-12.0534
▁આગેવાની	-12.0534
▁ગ્રામજનો	-12.0534
▁ચોંક	-12.0534
▁ટીપાં	-12.0534
▁થૂથ	-12.0534
▁નીન્જા	-12.0534
▁પ્રાઇડ	-12.0534
▁બેસાડે	-12.0534
▁રમૂજ	-12.0534
▁વલણ	-12.0534
▁માર્બલ	-12.0534
▁ગુચ્છા	-12.0534
▁રસાયણશાસ્ત્ર	-12.0534
▁લોબસ્ટર	-12.0534
▁પ્રેમીઓ	-12.0534
▁કક્ષાન	-12.0534
▁પઝલ	-12.0534
▁માસ્ટર	-12.0534
▁ઓડિય	-12.0534
▁કઠોળ	-12.0534
▁સ્પ્લ	-12.0535
ાયોજ	-12.0535
▁ડમી	-12.0535
▁હરીફાઈ	-12.0535
02	-12.0535
▁પેંગ્વ	-12.0535
▁12	-12.0535
▁રનવે	-12.0535
▁સ્ટાઇલિશ	-12.0536
▁સાહસિક	-12.0536
▁દૃશ્યમા	-12.0536
▁બ્લેકબોર્ડ	-12.0536
▁ટેસ્ટ	-12.0536
▁ગર્ડ	-12.0537
▁રિગ	-12.0537
મંડ	-12.0538
▁બટર	-12.0538
▁છોલી	-12.0538
▁સામાજિકતા	-12.0539
▁સ્ટોકિંગ્સ	-12.0539
▁કાગળકામ	-12.054
▁કેમ્પર્સ	-12.054
▁બચ્ચાં	-12.0541
▁મશીનગન	-12.0541
▁કોર્નર	-12.0542
▁સરસવ	-12.0542
▁નિરીક્ષકો	-12.0543
▁કરડતો	-12.0543
▁બોસ	-12.0543
▁ફિશિંગ	-12.0543
▁લવ	-12.0544
▁કસ્ટ	-12.0544
▁ચિંતન	-12.0544
▁ફીલ્ડ	-12.0546
▁વીંટીઓ	-12.0548
▁ભાઈઓ	-12.0549
ક્રોલ	-12.055
▁એગ	-12.055
▁પોઈન્ટ	-12.055
▁ડ્રિંક્સ	-12.0553
▁પ્રેસ	-12.0553
▁બ્રુ	-12.0555
▁તેટલ	-12.0556
▁ભરતા	-12.0557
▁ચલાવવી	-12.0558
▁હતાશ	-12.0559
▁પગથિયા	-12.0561
▁ક્યુબ	-12.0563
▁નાવડીઓ	-12.0563
▁બ્લેડ	-12.0564
્રલ	-12.0564
▁સાદડીઓ	-12.0564
▁બગ	-12.0567
▁એન્જિનિયર	-12.0569
▁ટીટર	-12.057
▁ગાવા	-12.057
▁હળવે	-12.0576
ાઈટ	-12.0579
▁સૂવા	-12.0581
▁બેકિંગ	-12.0583
▁ફ્રેમમાં	-12.0587
▁મેળવતા	-12.059
▁સરકતા	-12.0598
▁બદલવા	-12.0612
▁મનાવ	-12.0622
▁કોકપીટમાં	-12.0623
▁બતાવતા	-12.0627
▁ફેરવતી	-12.0631
▁ઘોડેસવારીના	-12.0666
▁હળવ	-12.0677
▁અંધારા	-12.0684
▁સ્વે	-12.0686
કઅપ	-12.0689
િજન	-12.0701
િબ	-12.0704
▁બનાવ	-12.0711
▁પોટલ	-12.0714
▁બોટિંગ	-12.0736
▁એરો	-12.0749
▁રોકાયો	-12.0749
▁વેલા	-12.0752
▁સ્ટ્રોક	-12.0757
▁કહેવા	-12.0767
▁હટ	-12.0773
▁રડતી	-12.0773
▁ડ્રાઇવરો	-12.0779
▁બનાવવ	-12.0783
સ્કોપ	-12.0793
▁જામી	-12.0795
▁શીખવત	-12.0796
એન	-12.0811
81	-12.0823
▁પીટ	-12.0848
▁કરનારા	-12.0855
▁શીખવવા	-12.0856
▁કાંકરા	-12.0879
▁પાના	-12.0881
ાઢ	-12.0892
દેશી	-12.0896
પ્લ	-12.09
▁પ્રદેશ	-12.0902
▁ફ્લોટી	-12.0902
▁વધારાન	-12.0906
▁નળમાં	-12.0922
ગલ	-12.0928
▁કારીગરો	-12.0933
▁બુફે	-12.0945
▁માન	-12.0955
▁પતંગો	-12.0968
▁વર્કર	-12.098
▁પટ્ટામાં	-12.1015
▁ફોડ	-12.1023
▁સ્કાય	-12.1044
▁ચૂસક	-12.1059
▁પાયજામામાં	-12.1069
રત	-12.1087
ાયેલા	-12.1092
ફલ	-12.1104
▁સાધ	-12.1104
ક્યુ	-12.1106
▁ઇમ	-12.1108
▁લેવ	-12.1178
▁વાપર	-12.1189
▁પહેર	-12.1189
▁ખવડાવ	-12.1193
સ્વ	-12.1195
લૂ	-12.1211
▁ગેલ	-12.1216
ભાન	-12.1226
▁તારો	-12.1227
▁ગુંબજ	-12.1261
▁પકડ	-12.1279
20	-12.1282
▁ફુ	-12.1293
▁થાક	-12.131
િફ્ટ	-12.1317
▁ઉછાળત	-12.1324
▁ઘટ	-12.1326
▁રોશનીવાળ	-12.1336
▁અજમાવ	-12.1364
▁કૂ	-12.1365
▁જાડ	-12.1367
▁સબ	-12.1375
▁કાંટા	-12.1376
▁ન્યાયાધીશ	-12.1379
▁લંબાવત	-12.1379
▁પડદ	-12.138
બુક	-12.1386
▁હં	-12.1388
ચ્છ	-12.1391
સાઇડ	-12.1392
સ્ટેન્ડ	-12.1392
સ્કર્ટ	-12.1393
પાન	-12.1395
લિફ્ટ	-12.1396
ગંધ	-12.1397
ાગરમ	-12.1401
▁ડેલ	-12.1407
▁બીન	-12.1407
▁મહ	-12.1416
▁સ્ટ્રેચ	-12.1429
▁ફાટેલ	-12.1431
▁ધરણા	-12.1436
▁ક્રેયોન	-12.1438
ૂલ્ય	-12.1443
ટોગ્રાફ	-12.1443
▁ઇટાલી	-12.1443
▁સ્ટાઈલ	-12.1443
ંઝરી	-12.1443
વુમન	-12.1443
▁અનાનસ	-12.1443
▁અભિવ્યક્તિ	-12.1443
▁આફ્રો	-12.1443
▁એકાગ્રતા	-12.1443
▁એક્સપ્રેસ	-12.1443
▁કૃતિ	-12.1443
▁ક્વીન	-12.1443
▁ગભરાયેલ	-12.1443
▁ગાઝેબો	-12.1443
▁ટિંકર	-12.1443
▁ટીશ્યુ	-12.1443
▁ટ્રાઉઝર	-12.1443
▁ડસ્ટપેન	-12.1443
▁ડાચશુન્ડ	-12.1443
▁ઢાલ	-12.1443
▁ધ્વનિ	-12.1443
▁પુનર્નિર્માણ	-12.1443
▁ફટકાર્ય	-12.1443
▁ફોર્કલિફ્ટ	-12.1443
▁ફ્લોરિડા	-12.1443
▁બમ્પર	-12.1443
▁બુકશેલ્ફ	-12.1443
▁બુલડોગ	-12.1443
▁રખડત	-12.1443
▁લિમોઝીન	-12.1443
▁વયસ્કો	-12.1443
▁શંકા	-12.1443
▁સિક્કા	-12.1443
▁સેમિનાર	-12.1443
▁સ્ક્વો	-12.1443
▁સ્નૂ	-12.1443
▁સ્લેલોમ	-12.1443
▁આળસ	-12.1443
▁ટ્રાન્સપોર્ટ	-12.1443
▁ડ્રમસ્ટિક્સ	-12.1443
▁પેમ્	-12.1443
▁પ્રતિનિધિ	-12.1443
▁બેસાડવા	-12.1443
▁તબક્કા	-12.1443
▁દાણા	-12.1443
▁વેડિંગ	-12.1443
046	-12.1443
▁ઈજા	-12.1443
▁ફિટનેસ	-12.1443
▁આશ્રયસ્થાન	-12.1443
▁કેન્સર	-12.1443
▁ઢીલ	-12.1443
▁મંત્ર	-12.1443
▁મેટાડોર	-12.1443
▁બેકફ્લિપ	-12.1443
▁સ્ટ્રેપ	-12.1443
ૂંઠ	-12.1443
▁ચડાવત	-12.1443
▁મેકબુક	-12.1443
▁પંક્તિ	-12.1443
▁રેસીપી	-12.1443
▁માર્ગદર્શિકા	-12.1443
લ્લી	-12.1443
▁મેન્યુઅલ	-12.1443
▁જોખમ	-12.1443
▁ફટક	-12.1443
▁મોતી	-12.1443
▁માર્ડી	-12.1443
▁ડ્રેગસ્ટર	-12.1443
▁હેડલાઇટ	-12.1443
▁એસ્કેપ	-12.1443
▁ગાઇડ	-12.1443
▁સ્વસ્થ	-12.1443
▁કરશે	-12.1443
▁ઉત્તેજ	-12.1443
▁ટટ્ટુ	-12.1443
▁સંગત	-12.1443
▁પ્રતિબંધ	-12.1444
▁આઇલેન્ડ	-12.1444
▁ચડાવી	-12.1444
▁સમાચાર	-12.1444
▁એન્જલસ	-12.1444
લ્લા	-12.1444
▁ક્રોકેટ	-12.1444
▁સીમા	-12.1444
▁પ્રદર્શનકારી	-12.1445
▁ધૂમ	-12.1445
▁ભસતો	-12.1445
▁ધકેલતા	-12.1445
▁ઓલિમ્પિક્સ	-12.1445
▁કૃત્ય	-12.1445
▁નેતરન	-12.1445
વૉક	-12.1445
્વે	-12.1446
▁જડેલ	-12.1446
▁ધોધમા	-12.1446
▁પુટ	-12.1447
પીવા	-12.1447
▁દિવસભર	-12.1447
▁ડૂબાડ	-12.1447
▁છલકાતી	-12.1447
▁ઓક્સ	-12.1448
▁સ્પીકર્સ	-12.1448
હીન	-12.1449
▁ઘટનાસ્થળે	-12.1449
▁સુઈ	-12.145
▁ફ્લાયર્સ	-12.145
▁રજાઓ	-12.1451
▁લેબલવાળ	-12.1451
▁સ્ટીવ	-12.1452
▁ચાલાક	-12.1453
▁કેમ્પર	-12.1453
▁હાઈચેર	-12.1453
▁ઇઝ	-12.1453
ફાર	-12.1453
▁ચોપ	-12.1455
કોટ	-12.1455
▁સ્લિંગ	-12.1457
▁એક્રોબેટિક્સ	-12.1457
▁ખ્રિસ્તી	-12.1457
▁વતન	-12.1457
ંતુ	-12.1458
▁સ્ટીક્સ	-12.1464
ટકી	-12.1464
▁રિફ્લેક્ટર	-12.1466
▁સનહ	-12.1468
▁ચાવત	-12.1476
▁જાર	-12.1479
▁આશર	-12.1481
શેડ	-12.1487
▁શેવાળવાળ	-12.149
▁મિટ	-12.1493
▁ગંધ	-12.1501
▁ધોધમાં	-12.1502
▁સાથીદારો	-12.1502
▁કોતરવા	-12.1504
મિતિ	-12.1506
▁સ્પેન	-12.1512
▁ગોઠવણી	-12.1515
▁દાટ	-12.1518
▁ચુ	-12.1519
▁નાઇટ	-12.1522
▁ફિલ	-12.1525
▁વિચ	-12.1531
▁ડેટ	-12.1531
▁ટ્રંક્સ	-12.1534
▁કેલ	-12.1536
▁ફેરવ	-12.1537
▁બેટરી	-12.1542
43	-12.1547
▁કિનારી	-12.1547
▁બન્	-12.1565
▁કોમિક	-12.1566
▁ભઠ્ઠી	-12.1582
▁રિમ	-12.1582
▁વેર	-12.1593
▁ઝળહળત	-12.1596
▁ફૂંકવા	-12.1598
▁વોશર	-12.1611
▁પાઈ	-12.1616
▁ઉઠાવવા	-12.1632
▁ચિત્રણ	-12.1633
▁સ્લાઇડ્સ	-12.1639
▁વાપરત	-12.1644
▁વર્તુળો	-12.1653
▁કેપ્સ	-12.166
▁ફીણવાળ	-12.1662
▁લોગોવાળ	-12.1673
▁લેટેક્	-12.1685
▁ક્રિયામાં	-12.1696
▁એમ્પ	-12.1703
▁મળતા	-12.1709
▁સહ	-12.1712
▁ગ્રીનહાઉસમાં	-12.1713
▁ખેતરોમાં	-12.1747
મ્સ	-12.1752
▁વિલ	-12.1754
▁ભૂપ્રદેશમાં	-12.1789
▁ખસેડત	-12.1795
વોલ્ટિંગ	-12.1798
▁રેડત	-12.1835
▁રૂંવાટીવાળ	-12.1836
▁બીકરમાં	-12.185
21	-12.1889
▁કેનન	-12.1903
▁બેગલ	-12.1942
▁ગોઠવેલ	-12.1944
▁પ્રકૃતિમાં	-12.1966
▁ટ્રેકિંગ	-12.1988
66	-12.1997
▁રેકોર્ડર	-12.2012
્રેસ	-12.2021
▁દોર	-12.2026
▁લટકાવે	-12.2072
શાબ	-12.2105
▁લખાણવાળ	-12.2133
ર્લ	-12.2143
સોસ	-12.2168
▁થોભ	-12.2183
▁ડમ્પસ્ટર	-12.2183
▁પાંચમ	-12.2185
વેલ	-12.2194
ર્કશ	-12.2212
▁કેમ્પસ	-12.2216
▁ડિસ્	-12.2224
ંકર	-12.2226
▁ઝરણા	-12.2226
▁એન	-12.2244
▁સાં	-12.2244
▁ઢાંકેલ	-12.2271
▁ચાઇ	-12.2273
▁25	-12.2274
ૈ	-12.2296
▁ઓવર	-12.2311
ૂટ	-12.2329
▁હથોડ	-12.2334
▁તૂટ	-12.2335
▁ગેલેરી	-12.2336
▁ડ્રાય	-12.2341
ઇન્સ	-12.2343
નવી	-12.235
▁પહોંચાડ	-12.2359
હેટ	-12.2371
▁ગુસ્સાવાળ	-12.2381
▁સાથીદાર	-12.2387
પોસ્ટ	-12.2392
▁ચીંથર	-12.2392
▁ખરબચડ	-12.2392
▁છીછર	-12.2394
માર્ક	-12.2395
▁મગમાં	-12.2407
▁શિબિર	-12.2413
▁સહાય	-12.2425
▁વૈ	-12.2432
▁ડોનટ	-12.2438
▁બંગડી	-12.244
▁બ્રિ	-12.2441
▁ઓર	-12.2442
▁યુનિ	-12.2442
▁મૂંઝવણ	-12.2443
▁રસાયણ	-12.2443
▁દીવાદાંડી	-12.2443
અંદાજ	-12.2443
યુક્ત	-12.2443
▁અસમાન	-12.2443
▁એમ્પ્લીફાયર	-12.2443
▁એરવેઝ	-12.2443
▁એલ્યુમિનિયમ	-12.2443
▁એસ્પ્રેસો	-12.2443
▁ઓક્ટોપસ	-12.2443
▁ખલાસીઓ	-12.2443
▁ગામલોકો	-12.2443
▁ચાળણી	-12.2443
▁ચૂંટતી	-12.2443
▁ચેલેન્જ	-12.2443
▁છાંટો	-12.2443
▁જ્યોર્જ	-12.2443
▁જ્વાળામુખી	-12.2443
▁ઝંપલાવ	-12.2443
▁ટાઉન	-12.2443
▁ટોયોટા	-12.2443
▁ટ્રેપેઝ	-12.2443
▁નિવૃત્ત	-12.2443
▁પર્ણસમૂહ	-12.2443
▁પાઇલટ	-12.2443
▁પ્રોજેક્શન	-12.2443
▁ફોક્સવેગન	-12.2443
▁ફોટોશૂટ	-12.2443
▁ફ્રાન્સિસ્કો	-12.2443
▁ફ્રોસ્ટિંગ	-12.2443
▁બાટલી	-12.2443
▁બેકડ્રોપ	-12.2443
▁બ્રાઇડ્સમેઇડ્સ	-12.2443
▁ભગાડવા	-12.2443
▁ભોજનાલય	-12.2443
▁મણકાન	-12.2443
▁મસાલા	-12.2443
▁યુક્યુલે	-12.2443
▁યુનિસેફ	-12.2443
▁રમખાણ	-12.2443
▁લાગ્યો	-12.2443
▁વપરાત	-12.2443
▁વિખરાયેલ	-12.2443
▁સર્વેક્ષણ	-12.2443
▁સહકાર્યકર	-12.2443
▁સૂંઘ	-12.2443
▁સ્પાઘેટ્ટી	-12.2443
▁સ્પૂલ	-12.2443
▁હિંમતવાન	-12.2443
▁બહાદુર	-12.2443
▁આવનાર	-12.2443
▁ચડાવે	-12.2443
▁જીમ્નેશિયમ	-12.2443
▁પર્ક્યુ	-12.2443
▁સ્ટોવ	-12.2443
▁તર્જની	-12.2443
ચેત	-12.2443
▁રિબાઉન્ડ	-12.2443
503	-12.2443
▁ખીલા	-12.2443
▁શીશ	-12.2443
▁સ્કાયલાઇન	-12.2443
313	-12.2443
▁21186810	-12.2443
▁ડગલ	-12.2443
▁મંગાવ	-12.2443
▁વ્હેલ	-12.2443
▁બેસિન	-12.2443
▁વોર્સ	-12.2443
▁હોમવર્ક	-12.2443
▁બગીચો	-12.2443
▁કપાસ	-12.2443
▁જોનારાઓ	-12.2443
▁બગલો	-12.2444
▁2118	-12.2444
▁21156	-12.2444
▁પ્રમાણ	-12.2444
▁ખંડ	-12.2444
▁કટઓફ	-12.2444
લ્ફ	-12.2444
▁આર્ટવર્ક	-12.2444
▁21163	-12.2444
55	-12.2444
▁11	-12.2444
▁2115	-12.2444
▁એનિમ	-12.2444
▁દંડ	-12.2444
▁કેમ્પગ્રાઉન્ડ	-12.2445
▁ટેરેસ	-12.2445
▁ખોટ	-12.2445
▁ફ્રીવે	-12.2445
▁બોરીઓ	-12.2445
▁બળી	-12.2445
▁ટક્સ	-12.2446
▁હોલવે	-12.2446
▁નગર	-12.2446
▁મળવા	-12.2447
▁વેબ	-12.2448
▁કબર	-12.2448
▁ઢાંકવા	-12.2448
લાઇટ	-12.2448
▁ઉલટાવ	-12.2448
ન્ઝ	-12.2449
▁હવે	-12.2449
▁હાથમોજાં	-12.2449
▁ફંક	-12.245
▁પડતાં	-12.2451
▁સ્નાયુઓ	-12.2451
▁ડેંડિલિઅન્સ	-12.2452
▁પડછાયાઓ	-12.2452
▁દુર્	-12.2452
▁બ્રાસ	-12.2454
▁ઊંચાઈએ	-12.2458
▁શબ	-12.2458
▁પોલીસમેન	-12.2458
ુમા	-12.246
▁વાન્ડ	-12.2463
▁રિટેલ	-12.2463
▁હાડકા	-12.2465
▁તવાઓ	-12.2466
▁બ્રિટન	-12.2467
▁હાર્ટ	-12.2468
▁ગ્લો	-12.2473
▁કેડી	-12.2474
ચ્છા	-12.2474
▁પીધેલ	-12.2475
▁ક્લાઇમ્બર	-12.2475
▁વિયેતનામી	-12.2478
▁સેના	-12.2481
▁કંટાળા	-12.2482
▁કેથ	-12.2485
▁જિમ	-12.2489
જેક	-12.2491
▁રસોઈયાઓ	-12.2493
▁જોવું	-12.2501
▁જેટલા	-12.2506
▁ભાગ્ય	-12.2509
▁જોકીઓ	-12.2509
▁કેબિનમાં	-12.251
▁પીરસતો	-12.2511
▁લોન્ચ	-12.2518
▁ખંજવાળી	-12.2523
▁લેન્ડસ્કેપિંગ	-12.2523
દર્શન	-12.2525
▁કેશ	-12.2526
▁ટપાલી	-12.2529
▁પ્રોજેક્ટ્સ	-12.2534
પ્લો	-12.2535
પ્ત	-12.2536
▁રાખ્ય	-12.2551
▁રોટ	-12.2552
▁પૌત્રી	-12.2555
▁હથિયારો	-12.2557
▁નાખતા	-12.2557
ર્ગ	-12.2569
▁ડ્રેન	-12.2572
▁હિલ	-12.2575
▁પામેલ	-12.2579
▁ફિલ્માવ	-12.2583
▁તાળા	-12.2583
▁ડાઇનરમાં	-12.2587
▁માર્ક	-12.2589
▁ક્લે	-12.2591
▁રેન્જર	-12.2611
▁અનોખી	-12.2613
▁ચળકતી	-12.2626
▁પાઠવ	-12.2635
▁થાકેલી	-12.264
▁ઉંચકીને	-12.2647
▁પીગળત	-12.2652
▁ચિત્રકારો	-12.2655
માણ	-12.2658
▁પકડતા	-12.2664
▁ઓક	-12.267
▁રોકડ	-12.2677
▁કેમ	-12.2684
ેપલ	-12.2699
રેક્સ	-12.271
▁બંક	-12.2713
▁લથ	-12.2715
▁મેળો	-12.2734
વેશમાં	-12.2739
▁મુંડાવેલ	-12.2758
▁રોકાયેલ	-12.276
44	-12.279
▁છીપવાળ	-12.281
▁પેનલવાળ	-12.2811
▁ફેર	-12.2827
▁સારું	-12.283
53	-12.2869
▁તક	-12.2875
ોસર	-12.2917
▁ઓન	-12.2936
સામ	-12.2988
▁નહેરમાં	-12.2996
▁લેન્સમાં	-12.3002
▁કડા	-12.3014
સ્વી	-12.3072
▁બીકર	-12.3074
▁લડત	-12.3086
▁પેચમાં	-12.3087
મોન	-12.3098
▁મૂક	-12.3152
▁રિવ	-12.3166
ેન્ટલ	-12.3172
મિલી	-12.3188
▁છાયાવાળ	-12.3203
રૂમમાં	-12.3212
્પિ	-12.3217
▁ચઢ	-12.3223
▁ઠેલોમાં	-12.3247
ટર્ન	-12.326
િત્ર	-12.3276
▁તપેલી	-12.3286
▁સુરંગ	-12.3288
▁પાંખમાં	-12.3294
▁ક્યુબિકલ	-12.332
્કસ	-12.332
▁કેબમાં	-12.3325
ંડોળ	-12.3335
▁બાઈક	-12.3356
્ગા	-12.3359
▁ચોંટાડ	-12.3394
▁પ્લેસ	-12.3425
▁લાકડ	-12.3447
▁સ્ટેપ	-12.345
▁ડક	-12.3451
▁સેવ	-12.348
▁સરખ	-12.3482
▁દસ્તાવેજ	-12.3488
▁પ્રશ્ન	-12.349
ક્રોસ	-12.3494
▁તલવારબાજ	-12.3496
▁ઓળંગ	-12.3497
▁મરીન	-12.3502
માર્ગ	-12.3503
ફિલ્ડ	-12.3503
▁ભટકત	-12.3503
▁હરાવ	-12.3505
▁જૂત	-12.3506
▁નમૂન	-12.3506
નટ	-12.3507
▁ફાટ	-12.3513
▁પીરસત	-12.3515
▁અશ્વ	-12.3532
▁સંશોધ	-12.3532
▁મોકલ	-12.3536
વોક	-12.3538
▁ઘા	-12.3541
▁કોર્ન	-12.3544
▁સ્ટ્રીમર	-12.3549
ારોહણ	-12.3549
▁જનારા	-12.3551
▁સાહસ	-12.3552
▁ઠોક	-12.3553
ર્ચ	-12.3554
ગ્લાઈડિંગ	-12.3554
▁સુમેળ	-12.3554
મુગ	-12.3554
▁અવકાશયાત્રી	-12.3554
▁કાર્યક્ષેત્ર	-12.3554
▁શાફ્ટ	-12.3554
▁સંતોષ	-12.3554
▁અનુકરણ	-12.3554
▁અવશેષો	-12.3554
▁આભૂષણ	-12.3554
▁આવશે	-12.3554
▁ઇગ્લૂ	-12.3554
▁ઉન્મ	-12.3554
▁એડોબ	-12.3554
▁ઓલિમ્પિયન	-12.3554
▁ઓસ્ટ્રેલિય	-12.3554
▁કળણમાં	-12.3554
▁કિશોરાવસ્થા	-12.3554
▁કોન્ડોમ	-12.3554
▁ક્રાફ્ટ	-12.3554
▁ગ્લેડીયેટર	-12.3554
▁ચીમની	-12.3554
▁ચેકરબોર્ડ	-12.3554
▁જાકીટ	-12.3554
▁ટોબોગન	-12.3554
▁તાંબા	-12.3554
▁દબાવત	-12.3554
▁દ્વંદ્વયુદ્ધ	-12.3554
▁પાંસળી	-12.3554
▁પ્લેકાર્ડ	-12.3554
▁બૉક્સ	-12.3554
▁ભંગાર	-12.3554
▁માર્શમેલો	-12.3554
▁મીડિયા	-12.3554
▁રેન્ડીયર	-12.3554
▁લવચીક	-12.3554
▁વન્ડર	-12.3554
▁વપરાયેલ	-12.3554
▁વસ્તીવાળ	-12.3554
▁સંગઠ	-12.3554
▁સપોર્ટ	-12.3554
▁સિરામિક	-12.3554
▁સિરીંજ	-12.3554
▁સુથારીકામ	-12.3554
▁સેડાન	-12.3554
▁સ્પેશિયલ	-12.3554
▁સ્પ્રિંગ	-12.3554
▁હાંફ	-12.3554
▁ઇયરિંગ્સ	-12.3554
▁ક્રાંતિ	-12.3554
▁ગ્રેનાઈટ	-12.3554
▁પ્લગ	-12.3554
▁ભીંજાયેલ	-12.3554
▁લેટીસ	-12.3554
▁લેબ્રાડોર	-12.3554
▁સ્પોન્સર	-12.3554
▁હાલતમાં	-12.3554
▁ભૂખ્ય	-12.3554
▁લગાવ્ય	-12.3554
▁શાર્ક	-12.3554
▁ટાળી	-12.3554
▁ફોઇલ	-12.3554
▁વિંગ્સ	-12.3554
▁બચી	-12.3554
▁પીપલ	-12.3554
▁બેરિયર	-12.3554
▁સુમેળભર્ય	-12.3554
▁ભગાડી	-12.3554
▁જોડાવા	-12.3554
▁વહી	-12.3554
▁વિસ્તરેલ	-12.3554
▁માઇક	-12.3554
▁બેકલાઇટ	-12.3555
▁ટેલર	-12.3555
▁મારનાર	-12.3555
▁તપેલામાં	-12.3555
▁રોજર	-12.3555
▁યુરો	-12.3555
▁તકનીક	-12.3555
▁અર્થ	-12.3555
▁પાળત	-12.3556
▁જોતું	-12.3556
▁જોયો	-12.3556
▁સ્કેન	-12.3556
▁ડેકલ્સ	-12.3556
▁પિગટેલ્સવાળ	-12.3556
▁એન્જલ્સ	-12.3556
▁ભૂત	-12.3556
▁આપનાર	-12.3556
▁આપ્યો	-12.3556
▁યોંગ	-12.3557
ટેક	-12.3557
▁જીત્યા	-12.3557
▁થાઈ	-12.3557
▁છલકાવી	-12.3557
▁કોથળીઓ	-12.3557
▁સ્ટવ	-12.3557
ઢિ	-12.3558
િંગહામ	-12.3558
▁ધૂપ	-12.3558
▁બુલેટ	-12.3558
▁એથ્લેટ્સ	-12.3559
▁રીડ્સ	-12.3559
▁પહાડોમાં	-12.356
▁માર્ટ	-12.356
▁વેવ	-12.356
▁કરાવતી	-12.3562
▁બરા	-12.3562
▁ગ્રાઇન્ડર	-12.3562
▁ટચ	-12.3563
▁સાધ્વીઓ	-12.3563
▁કિસ	-12.3563
▁પ્લાન્ટર	-12.3563
▁ટુટુસ	-12.3564
▁કોડ	-12.3564
▁સાંભળતો	-12.3564
▁વેપારીઓ	-12.3565
▁ડિફેન્ડર્સ	-12.3566
▁પાય	-12.3567
▁લેઇ	-12.3568
▁મોટરબોટ	-12.3569
▁પેસ	-12.357
▁સ્પીડબોટ	-12.3571
▁વગાડનારાઓન	-12.3572
▁ઝૂંપડીઓ	-12.3572
▁ઓપરેટર	-12.3573
▁ડુ	-12.3574
▁બફ	-12.3574
▁પુરવઠા	-12.3576
▁વણાયેલ	-12.3579
▁રાજ્ય	-12.358
▁ગઠ્ઠા	-12.3582
▁સ્કેફોલ્ડિંગ	-12.3584
▁પીવડાવી	-12.3586
▁પહેરાવી	-12.3587
▁ડોક્ટરો	-12.3589
▁લેનારાઓ	-12.359
▁કોથળી	-12.3591
▁અફ	-12.3592
▁શેકવા	-12.3595
▁ફેલા	-12.3595
▁નેક	-12.3596
▁પેડ્સ	-12.3596
▁જેટ્સ	-12.3603
▁દુકાનદારો	-12.3604
▁ડિઝાઇનર	-12.3609
▁બેલેન્સિંગ	-12.361
વણ	-12.3613
▁પાયો	-12.3622
▁કાયાકમાં	-12.3628
▁સલામી	-12.3637
▁નાઈટ	-12.3641
▁બોલરૂમ	-12.3651
▁વળી	-12.3654
▁માપવા	-12.366
▁કોપ	-12.3661
▁બાંયવાળ	-12.3661
▁પેલો	-12.3662
▁સરકાવ	-12.3672
પાઈપ	-12.3677
▁બ્લૂ	-12.369
▁વળાંકવાળી	-12.3693
સોલ	-12.3696
વર્ક	-12.3701
▁વાયોલિનવાદકો	-12.3713
બોબ	-12.3725
▁ડોલ્સ	-12.3743
▁કુક	-12.3745
▁સુંવાળ	-12.3755
▁સર્ફબોર્ડર	-12.3762
▁કમ્પ્યુટર્સ	-12.3771
ેટીમાં	-12.378
ંદર	-12.3787
▁બરણી	-12.379
▁હસાવ	-12.3795
▁જવું	-12.3818
▁ઇન્ટરને	-12.3823
ઇમ	-12.3825
52	-12.3846
▁ટેર	-12.3847
80	-12.3848
▁માને	-12.3867
▁ફ્રાય	-12.3873
▁આંખોવાળા	-12.3873
▁હજાર	-12.3893
▁બનાવનાર	-12.3938
▁પછાડે	-12.3963
▁હસવા	-12.3998
▁ધારક	-12.4
▁રાખનાર	-12.4034
▁ગ્રાઉન્ડ	-12.4047
▁ઝોન	-12.4048
સુટ	-12.4058
▁ઝૂલાવ	-12.4066
ક્ષણ	-12.4089
▁ધોવ	-12.4186
▁ટેકરાઓ	-12.4201
▁લાઈનો	-12.422
▁ડ્રેડલોક્સ	-12.4223
્ચર	-12.4263
ર્જ	-12.4266
ગાડી	-12.4277
▁રૂંવાટી	-12.4279
્તિ	-12.429
▁ઉછાળવાળ	-12.4332
▁સ્ટેક	-12.4337
22	-12.434
▁પ્લેહાઉસ	-12.4363
▁અક્ષરોમાં	-12.4392
▁ઇન્ટર	-12.4509
લીઝ	-12.4563
▁ટ્રેડ	-12.4577
▁આંખોવાળ	-12.458
▁ડેવ	-12.4581
▁મોહ	-12.4597
▁ઊડ	-12.4659
▁ગાડ	-12.4659
▁લપેટ	-12.4684
ડાયેલ	-12.4722
▁મહેમાન	-12.4741
▁શેવાળ	-12.4744
▁વેપાર	-12.4746
લેમ્પ	-12.475
ફોડ	-12.4751
ફરતી	-12.4753
સફેદ	-12.4753
કાળા	-12.4754
▁આંગણ	-12.4754
બેન્ડ	-12.4754
▁પંજ	-12.4754
સર્જ	-12.4755
આઈ	-12.4757
હાલ	-12.4759
વેસ્ટ	-12.4761
ટ્રો	-12.4766
▁પોત	-12.4768
▁ક્રમ	-12.4781
બોટમાં	-12.4783
▁ગ્રી	-12.4784
▁એથ્લેટ	-12.4788
▁પેપ	-12.4789
▁સ્કાયડાઇવ	-12.4789
▁બ્લીચર	-12.4799
▁જિમ્નેસ્ટ	-12.4802
ુષ્ક	-12.4803
િપ્પી	-12.4803
▁ઢોળ	-12.4804
▁ફ્લેશ	-12.4804
▁વિદ્ય	-12.4804
▁કુતૂહલ	-12.4804
▁ઇજિપ્ત	-12.4804
▁પિઝેરિયા	-12.4804
▁પેરિસ	-12.4804
▁સ્ક્રેપ	-12.4804
મિલન	-12.4804
▁અત્યા	-12.4804
▁અનિશ્ચિત	-12.4804
▁અભિનેતા	-12.4804
▁અલંકૃત	-12.4804
▁ઉદાસીનતા	-12.4804
▁ઊતર	-12.4804
▁એકાધિકાર	-12.4804
▁કન્સોલ	-12.4804
▁કાઉગર્લ	-12.4804
▁કાઉન્ટી	-12.4804
▁કેફેમાં	-12.4804
▁કેમકોર્ડર	-12.4804
▁કોન્ટ્રાપ્શન	-12.4804
▁ગરગડી	-12.4804
▁ગોકળગાય	-12.4804
▁ઘુવડ	-12.4804
▁ચામાચીડિય	-12.4804
▁જળચર	-12.4804
▁ઝુમ્મર	-12.4804
▁ડાલ્મેશિયન	-12.4804
▁ડિટેક્ટર	-12.4804
▁ડિસ્ટ્રિક્ટમાં	-12.4804
▁ડ્રાફ્ટ	-12.4804
▁તાજગીભર્ય	-12.4804
▁તિજોરી	-12.4804
▁થપથપાવ	-12.4804
▁દીધા	-12.4804
▁ધ્યેય	-12.4804
▁નિષ્ણાત	-12.4804
▁ન્યાય	-12.4804
▁પત્રકારો	-12.4804
▁પદયાત્રા	-12.4804
▁પવનચક્કી	-12.4804
▁પશુપાલ	-12.4804
▁પિટબુલ	-12.4804
▁પિસ્તોલ	-12.4804
▁પુસ્તિકા	-12.4804
▁પોસ્ટકાર્ડ	-12.4804
▁પ્રિઝર્વ	-12.4804
▁પ્રોડક્ટ	-12.4804
▁ફફડાટ	-12.4804
▁ફિક્સ્ચર	-12.4804
▁ફોલ્લીઓ	-12.4804
▁બિછાવે	-12.4804
▁બેકહેન્ડ	-12.4804
▁બોલગેમ	-12.4804
▁મિલ્ક	-12.4804
▁રકાબી	-12.4804
▁રાષ્ટ્રપતિ	-12.4804
▁રૂપરેખા	-12.4804
▁લીધું	-12.4804
▁લુઇસ	-12.4804
▁વાઇનગ્લાસ	-12.4804
▁વિન્ની	-12.4804
▁વિસ્ફોટ	-12.4804
▁વેક્યૂમ	-12.4804
▁વ્યવહાર	-12.4804
▁શૂરવીર	-12.4804
▁શેતાન	-12.4804
▁શેમ્પૂ	-12.4804
▁સંધ્યાકાળ	-12.4804
▁સાધનસામગ્રી	-12.4804
▁સાન્તા	-12.4804
▁સિમ્ફની	-12.4804
▁સિરીઝ	-12.4804
▁સિલ્ક	-12.4804
▁સુલેખન	-12.4804
▁સ્કાયનાર્ડ	-12.4804
▁સ્ક્રુડ્રાઈવર	-12.4804
▁સ્ટેન્સિલ	-12.4804
▁સ્લિંગશૉટ	-12.4804
▁સ્વતંત્રતા	-12.4804
▁હત્યા	-12.4804
▁હરકતો	-12.4804
▁કોરિયોગ્રાફ	-12.4804
▁ચેમ્પિયનશિપ	-12.4804
▁જીવનસાથી	-12.4804
▁પાંડા	-12.4804
▁ફોકસ	-12.4804
▁મસ્જિદ	-12.4804
▁ઉશ્કેર	-12.4804
▁કોર્પોરે	-12.4804
▁ક્ષમતા	-12.4804
▁સ્ટીચ	-12.4804
▁ગોચરમાં	-12.4804
▁જન્મ	-12.4804
▁જાયન્ટ્સ	-12.4804
▁પડ્યું	-12.4804
▁પરસેવો	-12.4804
▁પાપા	-12.4804
▁પ્રમાણપત્ર	-12.4804
▁એનર્જ	-12.4804
▁ક્લીટ	-12.4804
▁સળગાવત	-12.4804
▁ઓટોમોબાઈલ	-12.4804
▁કળા	-12.4804
▁સોંપ	-12.4804
▁પિક્ચર	-12.4804
▁પશુ	-12.4804
▁રેફ્રિજરેટર	-12.4804
▁લગામ	-12.4804
▁ક્લેઈન	-12.4804
▁કૉલેજ	-12.4804
ઝાર્ડ	-12.4804
▁ભેજવાળ	-12.4804
▁તાકે	-12.4805
▁સ્વરૂપ	-12.4805
▁રોડવર્ક	-12.4805
▁ફ્લેટબ	-12.4805
▁આંકડ	-12.4805
▁સુખદ	-12.4805
▁પાળા	-12.4805
▁કોર્ક	-12.4805
▁ફાર્મસી	-12.4805
▁ચટણી	-12.4805
▁ફરકાવ	-12.4805
▁પીધ	-12.4805
▁કૂદાળ	-12.4805
▁બફેટ	-12.4805
▁લિમો	-12.4805
▁પાઉ	-12.4805
▁લાગત	-12.4805
▁કાપનાર	-12.4805
▁વેદી	-12.4805
▁ડ્રોપ	-12.4805
▁ખેલ	-12.4805
▁માર્ટીની	-12.4805
▁તર્યા	-12.4805
▁ઓક્સફ	-12.4806
▁લીક	-12.4806
▁પાથરી	-12.4806
▁વણતી	-12.4806
▁પ્રતિભાવ	-12.4806
▁ચેસબોર્ડ	-12.4807
▁પિટમાં	-12.4807
▁રેમ	-12.4807
▁રીડ	-12.4807
▁નબળ	-12.4808
▁બંગડીઓ	-12.4808
▁મેદ	-12.4808
▁સ્કાયડાઇવર્સ	-12.4809
▁મેજર	-12.4809
▁કીટલી	-12.4809
▁પોપટ	-12.4809
ત્તાવા	-12.4809
રીટો	-12.481
▁બકલ	-12.481
▁કાબુ	-12.481
▁ચેટ	-12.481
▁ડેકેર	-12.4811
▁ડ્રેડ	-12.4811
▁જંતુઓ	-12.4811
▁ઠોકર	-12.4811
્ટ્રીમ	-12.4811
▁દોડનાર	-12.4811
▁સત્ર	-12.4812
▁કરચલીવાળ	-12.4813
▁ક્લેમ	-12.4813
▁પ્રિ	-12.4814
▁વ્યા	-12.4815
▁ક્વાર્ટર	-12.4815
▁પોઇન્ટ	-12.4815
▁સમરસ	-12.4816
▁પાદરીઓ	-12.4816
▁ગર્લ્સ	-12.4817
▁સામયિકો	-12.4818
▁છલકાતા	-12.4818
ંદન	-12.4821
▁ધરાવનાર	-12.4821
▁આઉટફિલ્ડર	-12.4822
▁દેડકા	-12.4822
▁જોશ	-12.4823
▁ઇન્ડ	-12.4824
▁એશ	-12.4826
▁શિશુઓ	-12.4828
▁માર્કર્સ	-12.4829
▁સૂર	-12.483
▁હિંસા	-12.4836
▁ગોલકી	-12.4838
▁મેટ્સ	-12.4838
▁સોય	-12.4838
▁ભરાયેલો	-12.4844
▁ગોલ્ડ	-12.4844
નિયન	-12.4844
▁કરોળિયાન	-12.4846
▁ઊંડાણ	-12.4846
▁ટેરે	-12.4851
▁આવર	-12.4851
▁સિલુએટ્સ	-12.4852
▁રેડવા	-12.4859
▁પર્યટ	-12.486
▁વિગતો	-12.486
▁જતું	-12.4863
▁કઠો	-12.4869
▁ઉછળતો	-12.4871
▁દસ્તાવેજો	-12.4879
▁પહોંચાડી	-12.4882
▁ક્યુ	-12.4888
ઝાંખરા	-12.489
▁થાકી	-12.4891
▁સરકવા	-12.4892
▁કેમો	-12.4908
બર્ગ	-12.4918
▁જોતાં	-12.492
▁દવા	-12.492
▁હેમ	-12.4923
▁કોંગ	-12.4925
બ્યુટ	-12.4927
▁મજૂરો	-12.4935
▁ઊડત	-12.4952
ફળ	-12.497
▁હેજ	-12.4973
▁ડરાવ	-12.4973
▁ફૂટબોલરો	-12.4977
▁જાતે	-12.4992
▁ઓટો	-12.4996
▁સુંદરતા	-12.4997
▁સ્પા	-12.5029
▁વાડામાં	-12.5056
28	-12.5056
▁ગુંબજવાળ	-12.5064
▁ઉઠ	-12.5065
લાલ	-12.5069
ખલ	-12.508
▁ફેમ	-12.5105
▁ઝરણામાં	-12.511
▁દડ	-12.5126
િલા	-12.516
▁ચેપ	-12.5175
કેક	-12.5198
▁ઉછળત	-12.5209
▁કેટલી	-12.5223
ૌદ	-12.5242
▁પ્લેહાઉસમાં	-12.5266
▁કિલ	-12.5312
▁ભરતકામ	-12.5339
▁સ્કાયર	-12.5405
રેલ	-12.5442
▁મેસ	-12.5477
▁ડેન્ટ	-12.5499
▁ટેકરાઓમાં	-12.5503
રેસ	-12.5514
કીંગ	-12.5595
▁ફેરિ	-12.56
▁જણા	-12.5632
▁લિંકન	-12.566
▁વધત	-12.5674
▁નિશાનવાળ	-12.5724
▁ચાઇનાટાઉન	-12.5727
▁પટમાં	-12.5763
▁પટ્ટીવાળ	-12.577
▁પ્લેપેન	-12.5812
▁ખેંચ	-12.5822
▁હિપ	-12.5855
▁પહોંચ	-12.5863
▁પિયર	-12.5904
▁ચોંટાડે	-12.5928
▁કબ્રસ્તાન	-12.593
▁મળત	-12.5932
▁કોણ	-12.5975
▁મળ	-12.5996
ખાના	-12.6011
▁ચામડ	-12.605
68	-12.6052
▁કંટાળ	-12.6073
ડલ્સ	-12.6076
▁માણ	-12.608
ેનિક	-12.6081
▁ડાઇનર	-12.6085
63	-12.6089
▁સલૂન	-12.6117
હોલ	-12.6119
▁વાહ	-12.6122
▁કાઉન્ટરટ	-12.6124
▁લાસ	-12.613
▁વીણ	-12.6136
▁વાવેલ	-12.6151
▁કઠ	-12.617
▁ત્રાંસ	-12.6171
▁નહાત	-12.6171
▁તપેલ	-12.6172
ગ્લાઈડર	-12.618
▁સ્પર્શત	-12.618
સ્ટાઇલ	-12.6181
પાત્ર	-12.6181
પ્રિન્ટ	-12.6181
▁પગથિય	-12.6181
સ્લીવ	-12.6181
ગોલ્ફ	-12.6182
માત્ર	-12.6182
▁ગુમ	-12.6188
▁સ્ટ્રાઇ	-12.619
▁ઉત્ત	-12.6197
હૂપિંગ	-12.6197
▁શૂ	-12.621
શેક	-12.6211
▁આઉટફિલ્ડ	-12.6215
▁દુકાનદાર	-12.6219
▁શિક્ષ	-12.6224
ન્ન	-12.6227
▁પેરામેડિક	-12.6228
મૂહ	-12.6229
▁નૂડલ	-12.6229
▁ગણ	-12.6232
▁રસોઇ	-12.6233
▁બોરી	-12.6233
▁એસેસરીઝ	-12.6233
▁રહસ્ય	-12.6233
લેન્ટર્ન	-12.6233
્ષિક	-12.6233
▁અંડરપાસ	-12.6233
▁આત્મીય	-12.6233
▁આળોટ	-12.6233
▁એઇડ્સ	-12.6233
▁કવિતા	-12.6233
▁કાંતણ	-12.6233
▁કાઢતા	-12.6233
▁ક્યારે	-12.6233
▁ક્લિયરિંગમાં	-12.6233
▁ખાબોચિયું	-12.6233
▁ખોવાયેલ	-12.6233
▁ગ્રુચ	-12.6233
▁ઘેટું	-12.6233
▁ચીમટ	-12.6233
▁જાંઘ	-12.6233
▁જિરાફ	-12.6233
▁ઝીંગા	-12.6233
▁ટેપેસ્ટ્રી	-12.6233
▁ટેબ્લેટ	-12.6233
▁ડિટર્જન્ટ	-12.6233
▁ડિરેક્ટર	-12.6233
▁ડેવિડ	-12.6233
▁તડકો	-12.6233
▁ધ્રૂજ	-12.6233
▁નિશ્ચય	-12.6233
▁નુકસાન	-12.6233
▁નોકરાણી	-12.6233
▁પરાક્રમ	-12.6233
▁પાડતું	-12.6233
▁પેગોડા	-12.6233
▁પેલેસ્ટિનિયન	-12.6233
▁પેવમેન્ટ	-12.6233
▁પ્રમોશન	-12.6233
▁પ્રોસેસ	-12.6233
▁બોયફ્રેન્ડ	-12.6233
▁મંજૂર	-12.6233
▁મણકાવાળ	-12.6233
▁મર્સિડીઝ	-12.6233
▁રસોડું	-12.6233
▁રોટવેઇલર	-12.6233
▁લંબાવ્યો	-12.6233
▁વિનંતી	-12.6233
▁વિશ્લેષ	-12.6233
▁વોલગ્રીન્સ	-12.6233
▁વ્યંગચિત્ર	-12.6233
▁સરહદ	-12.6233
▁સાહિત્ય	-12.6233
▁સૂનર્સ	-12.6233
▁હલેસાં	-12.6233
▁હેરડ્રેસર	-12.6233
▁અભિવાદન	-12.6233
▁કબાટ	-12.6233
▁ખંખેરી	-12.6233
▁ખાટલા	-12.6233
▁ગાર્ટર	-12.6233
▁ગીઝર	-12.6233
▁ઝુંબેશ	-12.6233
▁ઝૂંપડપટ્ટી	-12.6233
▁દબાવવા	-12.6233
▁નિરાશ	-12.6233
▁પ્રગતિ	-12.6233
▁પ્રિસ્કુલ	-12.6233
▁ફાઉન્ટેન	-12.6233
▁ફુસબોલ	-12.6233
▁બર્નાર્ડ	-12.6233
▁બર્મિંગહામ	-12.6233
▁બાઉટ	-12.6233
▁બિછાવી	-12.6233
▁બિસ્ટ્રો	-12.6233
▁બુલહોર્ન	-12.6233
▁ભેંસન	-12.6233
▁વાક્ય	-12.6233
▁સમૂહગીત	-12.6233
▁સ્નોબેંક	-12.6233
▁સ્પોક્સ	-12.6233
▁સ્મૉક	-12.6233
▁હિલચાલ	-12.6233
વિખેર	-12.6233
▁એમ્ફીથિયેટર	-12.6233
▁ક્યોર	-12.6233
▁ગોફણ	-12.6233
▁ટોટેમ	-12.6233
▁ડિફ્લે	-12.6233
▁પરિષદ	-12.6233
▁પૂહ	-12.6233
▁પ્યાલો	-12.6233
▁ફ્રીઝર	-12.6233
▁મહોત્સવ	-12.6233
▁રિવાજ	-12.6233
▁રોબિન	-12.6233
▁લેધર	-12.6233
▁વાઇકિંગ	-12.6233
▁વેશભૂષા	-12.6233
▁કાઢ્ય	-12.6233
▁કોયડ	-12.6233
▁બાબત	-12.6233
▁હાર્લી	-12.6233
▁હીરા	-12.6233
▁આગમન	-12.6233
▁ભોજનશાળા	-12.6233
▁ક્લાઇમ્બીંગ	-12.6233
▁હેરનેટ	-12.6233
▁મંકી	-12.6233
▁મુજબ	-12.6233
▁હિપસ્ટર	-12.6233
▁બેલેરીના	-12.6233
▁પગલાં	-12.6233
▁બેનિસ્ટર	-12.6233
▁મૂંઝવણભર્ય	-12.6233
▁ચેનલ	-12.6233
▁સળગાવવા	-12.6233
▁સ્માર્ટફોન	-12.6233
▁જનતા	-12.6233
▁સનશેડ	-12.6233
▁પ્રિન્સ	-12.6233
▁અંશ	-12.6233
સુઝુ	-12.6233
▁ફરજો	-12.6233
▁શ્રીમ	-12.6233
▁કેપ્રિસ	-12.6233
▁બોળી	-12.6233
▁ધર્મ	-12.6233
▁બનાવ્યું	-12.6233
▁મળ્યા	-12.6233
▁તકિયા	-12.6233
▁ડીલર	-12.6234
▁સહાર	-12.6234
▁બનાવ્યો	-12.6234
▁ડીએસ	-12.6234
▁નેકલેસ	-12.6234
▁શાર્પ	-12.6234
▁ડૉ	-12.6234
▁તાણ	-12.6234
▁ટ્રિંકેટ્સ	-12.6234
▁શુષ્ક	-12.6234
▁મેનોર	-12.6234
▁ખંજવાળતી	-12.6234
▁હેવી	-12.6234
્યુઅલ	-12.6235
▁ક્લિન	-12.6235
▁એક્ઝ	-12.6235
▁આખલો	-12.6235
▁રિપેરમેન	-12.6235
▁મૃત્યુ	-12.6235
▁ડ્યુ	-12.6236
ીશાન	-12.6236
▁ફ્લોટીઝ	-12.6236
▁બાસિસ્ટ	-12.6237
▁હોર્સ	-12.6237
▁બરિસ્	-12.6237
▁ચિન	-12.6237
▁પેરામેડિક્સ	-12.6238
▁વાહક	-12.6239
▁સ્ટ્રીમર્સ	-12.6239
▁હેચ	-12.624
▁મોહિત	-12.624
▁સ્ટેપ્સ	-12.624
▁અસ્ત	-12.6241
▁23	-12.6242
▁સ્ટ્રેચર	-12.6242
▁વાગ્યો	-12.6242
▁ચાલ્યો	-12.6242
▁કરાવતો	-12.6243
▁ધાતુકામ	-12.6244
▁ડીપ	-12.6246
▁મહેલન	-12.6246
▁ડાઘાવાળ	-12.6247
▁કાંતતી	-12.6247
▁નોટ્સ	-12.6249
▁દુ	-12.6249
▁ઓળ	-12.6251
▁આખલા	-12.6252
▁ચેઝ	-12.6254
▁કાણામાં	-12.6255
▁સેટઅપ	-12.6256
▁ગ્લોવ્સ	-12.6256
▁મોકલવા	-12.6257
▁ચપ	-12.6257
▁સમર્થકો	-12.6259
▁ટૂલ્સ	-12.6259
▁માઈકલ	-12.6259
▁ભાડા	-12.6262
રેઝ	-12.6262
▁ચાલવું	-12.6262
▁તાઈ	-12.6263
▁રોલરબ્લેડર્સ	-12.6263
▁ટેક્સ	-12.6263
હૂપ્સ	-12.6264
▁દેવ	-12.6265
▁સર્વિંગ	-12.6265
▁ડુબાડી	-12.6266
▁મેજ	-12.6267
▁પહોંચાડવા	-12.6267
▁ફિટિંગ	-12.6268
▁ઉત્તર	-12.6269
▁અદ	-12.627
▁સુંઘત	-12.6271
▁વોર્મર	-12.6273
▁છાંટતી	-12.6276
▁ખોવા	-12.6276
બ્બ	-12.6277
▁ટૂંકો	-12.628
▁મિલાવતા	-12.6284
▁હાઇક	-12.6286
▁સ્ટ્રાઇપ	-12.6289
▁સરકતું	-12.6292
▁ત્રાંસી	-12.6295
▁નહાતી	-12.6295
▁હરાવવા	-12.6299
▁વાળેલા	-12.63
રમા	-12.63
▁મિલાવવા	-12.6305
▁ઝા	-12.6318
▁દીકરીઓ	-12.6321
લોક	-12.6324
વર્ડ	-12.6333
▁સ્કીસ	-12.6337
▁સ્ટ્રોલર્સ	-12.6341
▁કાયકિંગ	-12.6348
▁સેબ	-12.635
▁કૂલ	-12.6356
▁ટપકત	-12.6362
▁રંગતો	-12.637
▁સ્ટેપલ	-12.6379
▁લટકાવત	-12.6407
▁પીસવા	-12.6412
ૈત	-12.6446
રેટર	-12.646
નિર્	-12.6463
41	-12.6474
▁અજાણ્ય	-12.6486
▁બાઈકર	-12.6528
▁ફ્રેમવાળ	-12.6529
▁થોભે	-12.654
િયર્સ	-12.6541
▁દેશોન	-12.659
ીએમ	-12.6611
▁ખસ	-12.6613
▁ડમ્પસ્ટરમાં	-12.6625
▁ભેળવત	-12.6671
06	-12.6686
▁ચોંટાડેલ	-12.6687
▁કોરલમાં	-12.6695
▁ફોટાઓન	-12.6734
▁ચાઇનાટાઉનમાં	-12.6766
ડિઓ	-12.6788
▁પીગળ	-12.683
▁સંભાળત	-12.6895
▁ગાદીવાળ	-12.6944
▁અક્ષરોવાળ	-12.7014
▁ક્રુઝર	-12.7034
ઇનર	-12.7041
▁ડેન	-12.7093
▁હેન્ડલર	-12.7095
▁બ્રેસ	-12.7103
▁પૂંછડીવાળ	-12.7131
▁પર્વતમાળામાં	-12.7152
▁શ્રેણીમાં	-12.7152
▁તળિયાવાળ	-12.7187
▁લંબાવેલ	-12.7204
▁સ્થાપનાન	-12.7326
▁ગ્રીનહાઉસ	-12.7406
08	-12.7436
થડે	-12.7462
પ્રેમી	-12.7477
▁ત્વચા	-12.748
બત્તીઓ	-12.7509
બેરી	-12.7528
▁કેપિટ	-12.753
▁રાંધ	-12.753
ર્થ	-12.7534
▁બરણીમાં	-12.7542
▁વેણીવાળ	-12.7609
▁ઝળહળ	-12.7615
▁સાક્ષ	-12.762
▁માર્	-12.7628
ેશનલ	-12.7637
▁વીંટાળે	-12.7662
▁કોથળ	-12.7675
▁24	-12.7702
▁ફેસ્ટિવલ	-12.7716
▁કોકપીટ	-12.7717
▁ડાઇ	-12.7734
્યુટર	-12.7745
▁ખોદેલ	-12.7765
▁કૂતર	-12.7788
▁વર્કશોપ	-12.7813
ભાર	-12.7823
▁ચૂંટેલ	-12.7833
▁સ્વયંસેવક	-12.7835
▁વિયેતનામ	-12.7839
▁ચમચ	-12.7842
▁વિગત	-12.7845
બ્લેડ	-12.7845
હીરો	-12.7847
ટ્રક	-12.7847
સ્કેટિંગ	-12.7847
સાઇકલ	-12.7848
બહેન	-12.7848
ચુસ્ત	-12.7848
પૂર	-12.7848
દાદી	-12.7848
પેઇન્ટ	-12.7848
ઔ	-12.7848
બ્લોક	-12.7848
પુરુષ	-12.7848
▁બુરખ	-12.7849
▁પૈડ	-12.7849
ગાર્ડ	-12.785
પોઝ	-12.785
ચામડીવાળ	-12.785
▁ગાલીચ	-12.7851
▁સ્ટુડિયો	-12.7851
બીમ	-12.7854
▁મળેલ	-12.7855
▁જથ્થ	-12.7856
ક્યુબ	-12.7868
▁સ્નાયુ	-12.7885
▁ઇમ્પ	-12.7893
▁વર્ત	-12.7894
▁સ્નીકર	-12.7895
▁ઢગ	-12.7896
▁ઘેટા	-12.7897
▁યાન્કી	-12.7898
▁મિનિ	-12.7898
પોલ	-12.7898
કળતા	-12.7899
▁દેશભક્ત	-12.7899
ાસિસ્ટ	-12.7899
▁ક્લોઝ	-12.7899
▁વાયોલ	-12.7899
▁ઉલ્લ	-12.7899
▁કમ્પાઉન્ડ	-12.7899
▁ગાંઠ	-12.7899
▁જુલાઈ	-12.7899
▁નાયલોન	-12.7899
▁ભગવાન	-12.7899
▁હુક્કા	-12.7899
િશ્ચ	-12.7899
▁અગ્નિકુંડ	-12.7899
▁આઈપેડ	-12.7899
▁આદિજાતિ	-12.7899
▁આરોહી	-12.7899
▁આશ્રયદાતા	-12.7899
▁ઇમિગ્રેશન	-12.7899
▁ઇલેક્ટ્રિશિયન	-12.7899
▁ઉકેલ	-12.7899
▁ઉડાડે	-12.7899
▁એમ્સ્ટરડેમ	-12.7899
▁એરબોર્ન	-12.7899
▁એરોડાયનેમિક	-12.7899
▁કમાવવા	-12.7899
▁કમ્ફર્ટર	-12.7899
▁કવચ	-12.7899
▁કાંગારુ	-12.7899
▁કાંડાપટ્ટ	-12.7899
▁કાફલો	-12.7899
▁કાર્યાલય	-12.7899
▁કેટામરન	-12.7899
▁કેડિલેક	-12.7899
▁કેન્યોન	-12.7899
▁કોર્ગી	-12.7899
▁ક્રોસબોન્સ	-12.7899
▁ક્લોવર	-12.7899
▁ગૌરવ	-12.7899
▁ગ્લેમર	-12.7899
▁છાવણી	-12.7899
▁છુપાવે	-12.7899
▁જાંબુડ	-12.7899
▁જિલ્લામાં	-12.7899
▁જુસ્સો	-12.7899
▁ઝઝૂમ	-12.7899
▁ઝાકળ	-12.7899
▁ઝુકાવ	-12.7899
▁ઝૂકત	-12.7899
▁ટિન્સેલ	-12.7899
▁ટોરોન્ટો	-12.7899
▁ટ્રાન્સફોર્મર	-12.7899
▁ટ્રાયલ	-12.7899
▁ટ્રાવેલ	-12.7899
▁ડગઆઉટ	-12.7899
▁ડાલ્મેશન	-12.7899
▁ડિવાઇડર	-12.7899
▁ડિસ્કાઉન્ટ	-12.7899
▁ઢળત	-12.7899
▁ઢોંગ	-12.7899
▁તંતુવાદ્ય	-12.7899
▁તાંતણા	-12.7899
▁દર્શાવી	-12.7899
▁નરસંહાર	-12.7899
▁નિચોવ	-12.7899
▁નિર્ણય	-12.7899
▁પત્રિકાઓ	-12.7899
▁પરફ્યુમ	-12.7899
▁પશુધન	-12.7899
▁પાતળું	-12.7899
▁પેઈન્ટ	-12.7899
▁પેવેલિયન	-12.7899
▁પોતપોતાન	-12.7899
▁પોર્ટફોલિયો	-12.7899
▁પ્રદૂષ	-12.7899
▁પ્રભુત્વ	-12.7899
▁પ્રોપેલર	-12.7899
▁ફાજલ	-12.7899
▁ફુશિયા	-12.7899
▁બજાણિય	-12.7899
▁બિસ્કિટ	-12.7899
▁બ્રેટવર્સ્ટ	-12.7899
▁મિજબાની	-12.7899
▁મુક્કાબાજી	-12.7899
▁મેમોરિયલ	-12.7899
▁મોઝેક	-12.7899
▁યંત્ર	-12.7899
▁રવિવાર	-12.7899
▁રેસ્ટોરાં	-12.7899
▁લસાવવાન	-12.7899
▁લાઉડસ્પીકર	-12.7899
▁લીધી	-12.7899
▁વાઇફ	-12.7899
▁વ્યાપાર	-12.7899
▁સહેલગાહ	-12.7899
▁સાણસી	-12.7899
▁સાલ્વ	-12.7899
▁સિક્વિન	-12.7899
▁સૂંઢ	-12.7899
▁સેનિટ	-12.7899
▁સેલ્સમેન	-12.7899
▁સ્ટીપલ	-12.7899
▁સ્મૂધી	-12.7899
▁સ્મૃતિચિહ્ન	-12.7899
▁સ્લેજહેમર	-12.7899
▁હિન્દ	-12.7899
▁હ્યુસ્ટન	-12.7899
▁ઉપાડ્ય	-12.7899
▁એવન્યુ	-12.7899
▁ક્વોન	-12.7899
▁પરિચારિકા	-12.7899
▁પિંક	-12.7899
▁પ્રગટાવવા	-12.7899
▁મિરર	-12.7899
▁મુદ્દ	-12.7899
▁રેટ્રો	-12.7899
▁લાડુ	-12.7899
▁સર્કલ	-12.7899
▁સળગાવે	-12.7899
▁સિનેમા	-12.7899
િટ્ઝ	-12.7899
▁ક્વિઝનોસ	-12.7899
▁જુડો	-12.7899
▁ધંધા	-12.7899
▁પડશે	-12.7899
▁ફિશનેટ	-12.7899
▁મોંગોલ	-12.7899
▁વાયુ	-12.7899
▁જરૂરિયાત	-12.7899
▁નીડલ	-12.7899
▁સ્પાર્ક	-12.7899
▁હર્ડલ	-12.7899
▁એક્સરસ	-12.7899
▁કતાર	-12.7899
▁ચગાવ	-12.7899
▁પીપળ	-12.7899
થ્રુ	-12.7899
▁આયોવા	-12.7899
▁ઝોમ્બિઓ	-12.7899
▁પેપ્સી	-12.7899
▁રેસલર્સ	-12.7899
▁વાગ્યે	-12.7899
એફસી	-12.7899
શિલ્ડ	-12.79
▁રોપવા	-12.79
▁લેકર્સ	-12.79
▁પાળવા	-12.79
▁પોઝિશન	-12.79
▁મલ્ટીકલર	-12.79
▁સ્પ્લેશ	-12.79
▁ગુંદર	-12.79
▁ઓટોમેટ	-12.79
612	-12.79
▁ડાયોર	-12.79
▁જેક્સનન	-12.79
▁ડેપો	-12.79
▁એનવાય	-12.79
▁ટચડાઉન	-12.79
▁પીડિત	-12.79
▁ફસાવ	-12.79
ુવાન	-12.79
▁મુદ્રામાં	-12.79
▁સ્ટારફિશ	-12.79
▁મુકાયેલ	-12.79
▁મોટરચાલક	-12.79
▁ચેડા	-12.79
▁ચાર્જ	-12.79
▁વેનિસ	-12.79
▁મળ્યો	-12.79
▁લૂપ	-12.79
▁ડગલાં	-12.79
મ્યુઝ	-12.79
▁ટોપિંગ્સ	-12.79
▁ખાધ	-12.79
▁બાફેલ	-12.79
443	-12.79
ચાન	-12.7901
▁હોલ્ડર	-12.7901
▁ફેરેટ	-12.7901
▁ગ્લોબ	-12.7901
▁બાઇ	-12.7901
▁બેંગ્સ	-12.7901
▁આકર્ષાય	-12.7901
▁ક્રેકર	-12.7901
▁ચોકબોર્ડ	-12.7901
▁મારવો	-12.7901
▁સાઇડકાર	-12.7901
▁બોડીબોર્ડ	-12.7901
▁સોક્સ	-12.7901
▁આરસ	-12.7901
▁સંકુલ	-12.7901
▁ગતિવિધિઓ	-12.7902
▁ઇતિહાસ	-12.7902
▁લૂછતો	-12.7902
રોન્ડે	-12.7902
પોટીઝ	-12.7902
▁હોસ્ટ	-12.7902
▁ગ્રીડ	-12.7902
ૌરા	-12.7902
▁સ્લેટ	-12.7902
▁પલળ	-12.7903
▁અરજ	-12.7903
▁સ્કાયડાઇવર	-12.7903
્માન	-12.7903
BA	-12.7903
▁કોલાજ	-12.7903
▁લીડર	-12.7903
▁સેલ્ટિક્સ	-12.7904
▁અભિન	-12.7904
િગન	-12.7904
▁ચાટતો	-12.7904
▁બરણીઓ	-12.7904
▁શિલ્પકામ	-12.7905
▁હસ્ત	-12.7905
▁હાડકાં	-12.7905
▁શોટગન	-12.7905
▁40	-12.7906
સાજ	-12.7906
▁જોબ	-12.7906
▁સેક્સોફોનિસ્ટ	-12.7906
▁જોડાઈ	-12.7907
▁વ્યુ	-12.7907
▁ઉગતા	-12.7907
▁ગણિત	-12.7907
▁બ્રોડ	-12.7907
▁ઓહ	-12.7907
▁રૂટ	-12.7907
▁બ્રાયન	-12.7908
▁ફ્રાઈસ	-12.7908
▁એસ્ક	-12.7908
▁ચલાવનારાઓ	-12.7909
▁સ્ટંટમેન	-12.7909
▁આટલ	-12.791
િગર	-12.791
▁સંખ્યાઓ	-12.791
▁હળવાશ	-12.791
▁પીઅર	-12.7911
▁પેસિફિક	-12.7911
▁ફીત	-12.7912
▁ચાલનાર	-12.7912
ાંજ	-12.7913
▁ખર	-12.7915
▁પટકા	-12.7915
ાનગી	-12.7916
▁દેખાડવા	-12.7918
▁ઉત્સાહીઓ	-12.792
▁વૈવ	-12.792
▁રોલરસ્કેટર્સ	-12.7921
ગ્લો	-12.7922
▁વોકર્સ	-12.7923
▁મિશ	-12.7923
▁બેગલ્સ	-12.7925
▁તપાસત	-12.7926
▁રક્ત	-12.7926
▁સ્પોટલાઇટ્સ	-12.7928
▁ટેરિયર્સ	-12.793
▁લિંક્સ	-12.7932
▁પર્યટક	-12.7934
▁પંચક	-12.7935
▁દીકરાઓ	-12.7938
ોલ્ડર	-12.7939
▁અજમાવવા	-12.7939
▁ગાલીચાઓ	-12.794
▁થાળીઓ	-12.7941
મેઇડ	-12.7942
▁પીતું	-12.7944
▁ઇચ્છ	-12.7945
▁લતા	-12.7946
▁ટાંકીઓ	-12.7947
ેલેન્ટ	-12.7956
▁પીટર	-12.7956
▁શીટ્સ	-12.7959
▁ફ્લાઇ	-12.796
ખમ	-12.796
▁ધમધમત	-12.7961
▁ડોગ્સ	-12.7961
▁જોગર	-12.7964
બસ્ટર	-12.7966
84	-12.7966
▁સ્કિમ	-12.797
સમાપ્તિ	-12.7976
▁પર્ફોર્મર્સ	-12.7985
એક્સ	-12.7994
બર્ડ	-12.7998
▁વાવવા	-12.801
રદ	-12.8049
ુઆ	-12.8062
દ્ર	-12.8076
▁ચઢાવવા	-12.8121
ૂડલ	-12.8128
▁ગુલ	-12.8134
▁હટાવવાન	-12.8135
▁શોરૂમ	-12.815
▁કરચલાન	-12.8152
ટેન્ડમ	-12.8162
13	-12.8163
▁જોડવા	-12.8171
▁ઉતારત	-12.8175
▁ચાટવા	-12.8178
▁ટેટુવાળ	-12.821
હોક્સ	-12.8228
્કે	-12.8229
▁ટ્રેડર	-12.8266
▁નોબ	-12.8272
▁શટર	-12.8329
▁ફેન	-12.8362
▁હિપ્સ	-12.8375
ગાર	-12.8415
▁વહેંચત	-12.8424
▁દાવ	-12.8437
સિડ	-12.845
્શનમાં	-12.8602
▁હારમાળા	-12.8649
▁મિલાવત	-12.8752
▁સસ્પેન્ડ	-12.8773
▁ડ્રેડલોક્સવાળ	-12.8805
▁દર્શાવેલ	-12.8838
▁જાગત	-12.8846
તમ	-12.9028
▁ફૂલવાળ	-12.9051
સીબ	-12.9052
▁પછાડ	-12.9114
▁બાઈન્ડરમાં	-12.9174
▁ટપકાં	-12.9233
▁નાવ	-12.9293
ન્વેન્	-12.9411
▁લટકાવ	-12.9413
▁વિતાવ	-12.9423
▁ખોદ	-12.949
▁ચૂસત	-12.9494
વહ	-12.9531
▁પડદાવાળ	-12.9561
▁ચમકાવત	-12.9635
▁પડછાયાવાળ	-12.9635
▁33	-12.9667
ફોર્ડ	-12.9686
▁તરત	-12.9708
▁ટૂંક	-12.9725
વિલ	-12.9753
▁પહેરાવ	-12.9754
▁એરેના	-12.9771
▁લહેરિય	-12.9772
▁ઠંડ	-12.9786
ટિપ	-12.9803
▁સમાપ્ત	-12.9807
બિલ	-12.9812
ટ્રિ	-12.9813
▁ડોક્ટર	-12.9834
ાર્થીઓ	-12.9836
▁છાંટત	-12.9838
▁પીવડાવ	-12.9839
પેક	-12.984
બ્રુ	-12.9846
▁હાડક	-12.9847
▁ગઠ્ઠ	-12.9847
સ્તંભ	-12.9848
મુક્ત	-12.9848
પત્ની	-12.9848
બોય	-12.9848
સ્ક્રીન	-12.9848
ભૂરા	-12.9848
પીળા	-12.9849
▁હિંસ	-12.9849
▁ધૂંધળ	-12.9849
ટ્યુબ	-12.9849
સ્થાન	-12.9849
પીઠ	-12.985
▁સંમેલન	-12.985
બ્રેડ	-12.9851
ડાન્સ	-12.9852
▁ભરાયેલ	-12.9854
પત્ર	-12.9855
વ્હીલર	-12.9865
▁ભરાય	-12.9865
પીતા	-12.9872
ફિશ	-12.9872
▁ઝબક	-12.9885
▁પેરાસેલ	-12.9885
શ્વિ	-12.9887
▁ડૂ	-12.989
થ્થ	-12.9891
શ્વેત	-12.9891
▁નિષ્	-12.9893
▁બીટલ	-12.9894
▁સેલ્ટિક	-12.9894
▁અભિ	-12.9895
▁મેકડોનાલ્ડ	-12.9895
▁ઓર્ગ	-12.9895
િસ્તા	-12.9895
▁સહભાગી	-12.9895
▁સુનર	-12.9896
▁રોવર	-12.9896
ખ્યાલ	-12.9898
▁અશ્	-12.9898
▁સાવધ	-12.9899
લેક્ટ્રોનિક	-12.9899
▁ઘંટ	-12.9899
્રુવ	-12.9899
મુદ્રા	-12.9899
▁કોર્પ	-12.9899
▁ક્રુસ	-12.9899
▁ઝિગ	-12.9899
▁યુરિનલ	-12.9899
▁રિસ્પોન્	-12.9899
દુષ્ટ	-12.9899
▁અટવાયેલ	-12.9899
▁અભિનેત્રી	-12.9899
▁અલાદ્દીન	-12.9899
▁આઈલાઈનર	-12.9899
▁આઘાત	-12.9899
▁ઇન્ટિરિયર	-12.9899
▁ઇન્સ્ટોલેશન	-12.9899
▁ઉત્પ	-12.9899
▁ઉપદેશ	-12.9899
▁ઉર્જા	-12.9899
▁એલિવેટ	-12.9899
▁ઔષધિઓ	-12.9899
▁કન્વર્	-12.9899
▁કેમડેન	-12.9899
▁કેરિકેચર	-12.9899
▁કોસ્પ્લેયર્સ	-12.9899
▁કૌંસ	-12.9899
▁ક્રિસ્ટલ	-12.9899
▁ક્લાયન્ટ	-12.9899
▁ખરીદનાર	-12.9899
▁ખાંસી	-12.9899
▁ખૂણે	-12.9899
▁ગૃહયુદ્ધ	-12.9899
▁ઘેટ્ટો	-12.9899
▁ચિંતાતુર	-12.9899
▁ચિહુઆહુઆ	-12.9899
▁ચીકણ	-12.9899
▁ચૂંટતો	-12.9899
▁છટાઓવાળ	-12.9899
▁છુપાવવા	-12.9899
▁જળાશય	-12.9899
▁જાજમ	-12.9899
▁જીંજર	-12.9899
▁ઝવેરાત	-12.9899
▁ડમ્બેલ	-12.9899
▁ડૂંડા	-12.9899
▁ડેફોડિલ્સ	-12.9899
▁તિબેટીયન	-12.9899
▁દરિયાકાંઠ	-12.9899
▁દિગ્દર્શક	-12.9899
▁દૃશ્યાવલિ	-12.9899
▁દૃષ્ટિકોણ	-12.9899
▁દ્રષ્ટિકોણ	-12.9899
▁નવલકથા	-12.9899
▁નાખ્યા	-12.9899
▁નિખાલસ	-12.9899
▁નિવાસસ્થાન	-12.9899
▁ન્યૂઝકાસ્ટર	-12.9899
▁પુરસ્કાર	-12.9899
▁પ્રગટાવત	-12.9899
▁પ્રતિકૃતિ	-12.9899
▁પ્રયત્ન	-12.9899
▁પ્રોડક્શન	-12.9899
▁પ્લાસ્ટર	-12.9899
▁ફટકારત	-12.9899
▁ફાઉલ	-12.9899
▁ફોર્મ્યુલા	-12.9899
▁બ્રીફ	-12.9899
▁બ્રોકોલી	-12.9899
▁ભીંજવ	-12.9899
▁મજેદાર	-12.9899
▁મરમેઇડ	-12.9899
▁મહેંદી	-12.9899
▁રાક્ષસ	-12.9899
▁રાજકારણી	-12.9899
▁રિયલ્ટ	-12.9899
▁રીસીવર	-12.9899
▁લોંગબોર્ડ	-12.9899
▁વાણિજ્ય	-12.9899
▁શોખીન	-12.9899
▁શોગર્લ	-12.9899
▁સંસ્કરણ	-12.9899
▁સરિસૃપ	-12.9899
▁સહનશક્તિ	-12.9899
▁સાજસંભાળ	-12.9899
▁સિન્થેસાઇઝર	-12.9899
▁સુગમ	-12.9899
▁સેમસંગ	-12.9899
▁સ્ક્રેબલ	-12.9899
▁સ્થૂળ	-12.9899
▁સ્નોવફ્લેક	-12.9899
▁હેન્ડ્રેલ	-12.9899
▁હેલ્થ	-12.9899
▁ઇંગ્લેન્ડ	-12.9899
▁ઇલિનોઇસ	-12.9899
▁એટલાન્ટા	-12.9899
▁એરિઝોના	-12.9899
▁ઓરેગોન	-12.9899
▁કલમી	-12.9899
▁કેરોલિના	-12.9899
▁ખખડ	-12.9899
▁ચૂંટણી	-12.9899
▁તકલીફ	-12.9899
▁તમાકુ	-12.9899
▁થાઇલેન્ડ	-12.9899
▁પેન્ડન્ટ	-12.9899
▁પ્રક્ષેપ	-12.9899
▁પ્રોટેક્	-12.9899
▁બાલ્ટીમોર	-12.9899
▁બિડાણ	-12.9899
▁બ્લેન્ડર	-12.9899
▁ભુલભુલામણી	-12.9899
▁માઉન્ડ	-12.9899
▁માથાકૂટ	-12.9899
▁મૂઝ	-12.9899
▁યુક્રેન	-12.9899
▁યુગલગીત	-12.9899
▁લિવરપૂલ	-12.9899
▁વિશ્વયુદ્ધ	-12.9899
▁વ્યુફાઇન્ડર	-12.9899
▁શેલ્ટી	-12.9899
▁સાયક્લો	-12.9899
▁સેકન્ડ	-12.9899
▁સ્કીવર્સ	-12.9899
▁સ્ટયૂ	-12.9899
▁હિમવર્ષા	-12.9899
ેનિયલ	-12.9899
્થરો	-12.9899
▁એવિએ	-12.9899
▁કેક્ટસ	-12.9899
▁ડોનાલ્ડ	-12.9899
▁બુકસ્ટોર	-12.9899
▁ભૂતકાળ	-12.9899
▁મફિન	-12.9899
▁મૂડ	-12.9899
▁વ્યૂ	-12.9899
ીંછી	-12.9899
▁ક્રોચ	-12.9899
▁ડીલરશીપ	-12.9899
▁ફાયદ	-12.9899
▁બજાવ	-12.9899
▁લાગવા	-12.9899
▁વિકાસ	-12.9899
▁ટાળવા	-12.9899
▁બાયસ્ટેન્ડર	-12.9899
▁ભાંગ	-12.9899
▁રાષ્ટ્રીયતા	-12.9899
▁ગેશા	-12.9899
▁નિષ્ફળ	-12.9899
186	-12.9899
▁લખાયેલ	-12.99
ડછા	-12.99
પબ્લિક	-12.99
▁ગિગ	-12.99
▁જમનારાઓ	-12.99
ઝુન	-12.99
▁એંગલ	-12.99
▁મસલ	-12.99
▁ઓહિયો	-12.99
▁લીટી	-12.99
▁સંસ્કાર	-12.99
▁આરોપ	-12.99
868	-12.99
▁પેરાગ્લાઈડિંગ	-12.99
▁માહોલ	-12.99
▁પ્લેબોય	-12.99
▁ટ્વી	-12.99
ઝેગ	-12.99
▁એક્ઝિટ	-12.99
▁સેન્ડબોક્સ	-12.99
▁કાર્મેલ	-12.99
▁નોર્થ	-12.99
▁પાથરેલ	-12.99
▁હેન્ડબુક	-12.99
▁નૃત્યકારો	-12.99
▁ચૂકવણી	-12.99
▁પાર્ટનર	-12.99
▁ઇયરપીસ	-12.99
થોન	-12.99
▁સંભા	-12.99
▁યાત્રા	-12.99
▁ગિનિ	-12.99
▁દુખ	-12.99
▁બ્લેકબેરી	-12.99
▁વૉલ	-12.99
▁કપાવત	-12.99
▁કાકડી	-12.99
▁પલાળ	-12.99
▁પ્રિયજન	-12.99
▁ઓઢાડ	-12.99
▁ખાટા	-12.99
લાઈમ	-12.9901
▁લીપ	-12.9901
▁સ્નોમોબાઈલ	-12.9901
▁હોપર	-12.9901
▁કોલોન	-12.9901
▁હેન્ડગન	-12.9901
▁થનાર	-12.9901
▁મરચાં	-12.9901
▁તકતી	-12.9901
▁કદરૂપ	-12.9901
▁નિસાન	-12.9901
▁મિનિટ	-12.9901
ન્સ્ટ્ર	-12.9902
▁ચાલનારાઓ	-12.9902
▁રિકન	-12.9902
▁ઉપનગરોમાં	-12.9902
▁ગભરાઈ	-12.9902
▁નેકટા	-12.9902
▁ધરતી	-12.9902
▁બાંધતો	-12.9902
▁હવેલી	-12.9903
▁રહેવાસી	-12.9903
ડ્યૂ	-12.9903
▁નેસ્ક	-12.9903
િધ્ય	-12.9903
▁ગરદનવાળું	-12.9903
▁ખાડાઓમાં	-12.9903
તુલ	-12.9903
▁ધબક	-12.9904
▁સાઈન	-12.9904
▁અટવા	-12.9904
▁સુખ	-12.9904
▁બીટલ્સ	-12.9905
▁રોવર્સ	-12.9905
મૈ	-12.9905
▁પરિચિત	-12.9905
▁પેરાસેલર	-12.9906
▁ખુલતા	-12.9906
▁કાંચ	-12.9906
▁પેરાશૂટિસ્ટ	-12.9906
▁ઉતાર્યો	-12.9906
▁ઝિપરવાળ	-12.9906
▁ગેંગ	-12.9907
▁એમ્બ	-12.9907
▁કિનારીઓ	-12.9907
▁સ્થળાંતર	-12.9907
▁ડોટ્સવાળ	-12.9908
▁અજવાળ	-12.9908
▁પ્લેનેટ	-12.9908
▁બેચેન	-12.9908
▁યોદ્ધાઓ	-12.9909
▁બેગપાઇપર્સ	-12.9909
▁બબડ	-12.9909
▁સરળતા	-12.991
▁લિપ	-12.991
▁માર્ક્સ	-12.9911
▁લાઇફગાર્ડ્સ	-12.9913
▁અભ	-12.9913
▁સ્વીટ	-12.9913
▁બુઝાવવા	-12.9914
▁વરુ	-12.9914
▁મિશન	-12.9915
▁મૌ	-12.9917
ખોર	-12.9921
▁ડોરા	-12.9921
▁કમાન્ડ	-12.9922
નિયર	-12.9922
▁ઓશિકાઓ	-12.9924
▁સિંહણ	-12.9924
શીપ	-12.9924
ક્રેડિ	-12.9928
િડીય	-12.9929
▁બીબ	-12.9933
ર્ષક	-12.9942
▁અપનાવ	-12.9946
▁ફર્ન	-12.9948
ેરીડુ	-12.9949
▁ચાખવા	-12.9963
▁ડેટ્ર	-12.9965
▁કંટાળેલ	-12.997
▁ઉગાડ	-12.9974
▁આદિ	-12.9977
▁કુવા	-12.9978
▁ફીટ	-12.998
રાઉ	-12.9986
▁વોલ્	-13.0003
▁મુસ્	-13.0017
▁સંડોવત	-13.0018
મુલ	-13.0048
▁મૂન	-13.0071
▁થેલ	-13.0075
▁સૂકવત	-13.01
▁કાયાકર	-13.0105
બિલ્ટ	-13.0198
શિષ્ટ	-13.0219
▁અપાવ	-13.0236
ાક્ષર	-13.0261
▁થીમવાળ	-13.0286
▁ડાયલ	-13.0302
▁ગધેડાઓન	-13.0324
▁ખરીદેલ	-13.0338
▁ભરત	-13.0419
પોટી	-13.0427
▁કપાયેલ	-13.0478
▁પીછાવાળ	-13.0487
▁જીતેલ	-13.0526
▁કોતરણીવાળ	-13.0571
▁હોત	-13.0583
▁જેટલ	-13.0716
▁સજાવત	-13.0747
▁ફોડત	-13.0757
▁પ્રોમ	-13.0832
્ક્રિપ્ટ	-13.0843
▁ચરાવત	-13.0873
▁અર્	-13.0907
▁પાંખોવાળ	-13.097
ેનલ	-13.0991
▁ઊંઘત	-13.1014
▁પરિચ	-13.1228
▁ખાવ	-13.1284
સ્ક્રિપ્	-13.1306
▁પૈડાવાળ	-13.1359
▁છીપ	-13.1474
ૉન્	-13.1547
▁જીવોન	-13.1548
ાસ્	-13.1601
ડ્રે	-13.1623
મ્પાયર	-13.1671
▁અરીસાવાળ	-13.1697
▁લેટે	-13.1742
▁સંબોધત	-13.1834
રમજી	-13.1958
▁નિશાનોવાળ	-13.196
▁હૉલવે	-13.1996
10	-13.1996
▁બતાવ	-13.2082
સાયકલ	-13.2118
▁ઝૂલાવત	-13.2145
▁ટપક	-13.2148
▁પથરાયેલ	-13.218
▁ચીંધ	-13.2245
▁અખાડા	-13.2248
ચાલક	-13.233
▁બનાવડાવ	-13.2332
▁ખેત	-13.2335
▁ડુબાડ	-13.2338
▁અંગ્રેજ	-13.2341
▁ખાતર	-13.2342
▁વીંટ	-13.2342
▁ચાંદ	-13.2342
વાળવાળી	-13.2343
બાઈક	-13.2343
શીર્	-13.2345
▁છીણ	-13.2346
▁રિટે	-13.2346
હાર્ટ	-13.2346
પોઈન્ટ	-13.2346
ઈસુ	-13.2347
▁પુરવઠ	-13.2347
▁ભાડ	-13.2347
ચૂક	-13.2348
▁ઝરણ	-13.2348
સુરક્ષિત	-13.2348
ખાડી	-13.2348
સંભાળ	-13.2348
બચાવ	-13.2348
શાંતિ	-13.2348
પરંપરાગત	-13.2348
ધ્વજ	-13.2349
ચશ્મા	-13.2349
પાર્કમાં	-13.2349
સાધનો	-13.2349
ગુલાબી	-13.2349
જીમમાં	-13.235
બાજ	-13.2351
ગિયર	-13.2354
સ્કાર	-13.2358
તેમ	-13.2364
લંબ	-13.237
▁રેશ	-13.2372
લાવતો	-13.2384
ડ્રિફ	-13.2386
ધુનિક	-13.239
▁ગલુડિયા	-13.2391
▁યોજના	-13.2391
▁એન્જલ	-13.2392
▁રિપોર્ટ	-13.2394
▁સ્ટારબક	-13.2395
▁લીડ	-13.2395
▁સિન્ડ	-13.2395
▁નવદંપતી	-13.2396
વ્યવસ્થિત	-13.2398
▁સ્લિં	-13.2398
▁હાઇડ્ર	-13.2399
▁લૉ	-13.2399
▁ભોંય	-13.2399
▁રેફ્રિજરે	-13.2399
▁રેફ	-13.2399
▁કાગડા	-13.2399
▁સ્ક્રીમ	-13.2399
સ્વપ્ન	-13.2399
▁અથડાતો	-13.2399
▁અફઘાન	-13.2399
▁આઈન્સ્ટાઈનન	-13.2399
▁આર્કિટેક્ચર	-13.2399
▁આર્કિટેક્ટ	-13.2399
▁આર્જેન્ટિનાન	-13.2399
▁ઉચ્ચારોવાળ	-13.2399
▁એક્સટેન્	-13.2399
▁એન્કર	-13.2399
▁ઓરિઓલ્સ	-13.2399
▁કર્લ્સ	-13.2399
▁કલેક્શન	-13.2399
▁કેન્દ્રબિંદુ	-13.2399
▁કોસ્પ્લે	-13.2399
▁ક્રુસિફિક્સ	-13.2399
▁ગણતરી	-13.2399
▁ગાદલું	-13.2399
▁ગુણવત્તા	-13.2399
▁ગૂંચવાયેલ	-13.2399
▁ઘડી	-13.2399
▁ચાસણી	-13.2399
▁ચીજો	-13.2399
▁જડીબુટ્ટી	-13.2399
▁જયવોક	-13.2399
▁જીવજંતુ	-13.2399
▁જુનિયર	-13.2399
▁ઝગમગત	-13.2399
▁ટેઇલગેટ	-13.2399
▁ટોય્ઝ	-13.2399
▁ટ્રોવેલ	-13.2399
▁તાઈકવૉન્ડો	-13.2399
▁તાકાત	-13.2399
▁દુર્ઘટના	-13.2399
▁દોડાદોડ	-13.2399
▁નાખ્યો	-13.2399
▁નિકાલ	-13.2399
▁નીકળ્યો	-13.2399
▁પાર્કિન્સન	-13.2399
▁પેન્ટીહોઝ	-13.2399
▁પોન્ટૂન	-13.2399
▁પોલરોઇડ	-13.2399
▁પ્રદાતા	-13.2399
▁પ્રેઇરી	-13.2399
▁પ્રોગ્રામ	-13.2399
▁પ્લશી	-13.2399
▁પ્લોટમાં	-13.2399
▁ફોરહેન્ડ	-13.2399
▁બચાવકર્તાઓ	-13.2399
▁બિએનવેન	-13.2399
▁બુલફાઇટ	-13.2399
▁ભપકાદાર	-13.2399
▁ભૂંડો	-13.2399
▁ભોંયતળિય	-13.2399
▁માર્કેટપ્લેસ	-13.2399
▁મિકેનિઝમ	-13.2399
▁મુસળી	-13.2399
▁મેંદી	-13.2399
▁મેડ્રિડ	-13.2399
▁મેનિકિન	-13.2399
▁મેનેજર	-13.2399
▁મેન્ડોલ	-13.2399
▁મેરિયોનેટ	-13.2399
▁મોચી	-13.2399
▁રહેઠાણ	-13.2399
▁રેડબુલ	-13.2399
▁લપસણ	-13.2399
▁વટાણા	-13.2399
▁વન્યજીવન	-13.2399
▁વપરાશકર્તા	-13.2399
▁વિક્ષેપ	-13.2399
▁વિડીયોગ્રાફર	-13.2399
▁વિદ્યાર્થિની	-13.2399
▁વિસ્કોન્સિન	-13.2399
▁વીંટળાયેલ	-13.2399
▁વ્યાયામ	-13.2399
▁શતાવરી	-13.2399
▁શિલાલેખ	-13.2399
▁શેમ્પેઈન	-13.2399
▁સંકળાયેલ	-13.2399
▁સતર્ક	-13.2399
▁સફળતા	-13.2399
▁સબમરીન	-13.2399
▁સમયપત્રક	-13.2399
▁સમુરાઇ	-13.2399
▁સાઇડબર્ન	-13.2399
▁સાઉથ	-13.2399
▁સાવચેતી	-13.2399
▁સૂક્ષ્મ	-13.2399
▁સેલિબ્રિટ	-13.2399
▁સેલિબ્રેશન	-13.2399
▁સ્ક્રૂ	-13.2399
▁સ્ટુઅર્ડેસ	-13.2399
▁સ્પ્રિન્ગસ્ટીન	-13.2399
▁હમીંગબર્ડ	-13.2399
▁હાઇલાઇટ્સ	-13.2399
▁હાથીદાંત	-13.2399
▁હાર્પ્સીકોર્ડ	-13.2399
▁હુક્સ	-13.2399
▁અંધકાર	-13.2399
▁અર્ધચંદ્રાકાર	-13.2399
▁ઉપસ્થિત	-13.2399
▁એકેડેમી	-13.2399
▁કાર્યવાહી	-13.2399
▁કાવાસાકી	-13.2399
▁કાસ્ટ્રો	-13.2399
▁કિચન	-13.2399
▁ગડગડાટ	-13.2399
▁ગૂણપાટ	-13.2399
▁ગોટેગોટા	-13.2399
▁ચોકઠા	-13.2399
▁ઝૂંડ	-13.2399
▁ટૂથપ	-13.2399
▁ડાંગર	-13.2399
▁તુર્કી	-13.2399
▁દબાયેલ	-13.2399
▁પરાગરજ	-13.2399
▁પ્રેરણા	-13.2399
▁ફાઇનલ	-13.2399
▁ફિન્સ	-13.2399
▁ફ્યુટન	-13.2399
▁માઈક્રોસ્કોપ	-13.2399
▁માઉથ	-13.2399
▁મુસ્કાન	-13.2399
▁મેગ્નિફા	-13.2399
ઊ	-15.0732
ઘ	-15.0733
